{
  "version": "1.0",
  "truncation": null,
  "padding": null,
  "added_tokens": [
    {
      "id": 0,
      "content": "<unk>",
      "single_word": false,
      "lstrip": false,
      "rstrip": false,
      "normalized": false,
      "special": true
    },
    {
      "id": 1,
      "content": "<s>",
      "single_word": false,
      "lstrip": false,
      "rstrip": false,
      "normalized": false,
      "special": true
    },
    {
      "id": 2,
      "content": "</s>",
      "single_word": false,
      "lstrip": false,
      "rstrip": false,
      "normalized": false,
      "special": true
    }
  ],
  "normalizer": {
    "type": "Sequence",
    "normalizers": [
      {
        "type": "Prepend",
        "prepend": "▁"
      },
      {
        "type": "Replace",
        "pattern": {
          "String": " "
        },
        "content": "▁"
      }
    ]
  },
  "pre_tokenizer": null,
  "post_processor": null,
  "decoder": {
    "type": "Sequence",
    "decoders": [
      {
        "type": "Replace",
        "pattern": {
          "String": "▁"
        },
        "content": " "
      },
      {
        "type": "ByteFallback"
      },
      {
        "type": "Fuse"
      },
      {
        "type": "Strip",
        "content": " ",
        "start": 1,
        "stop": 0
      }
    ]
  },
  "model": {
    "type": "BPE",
    "dropout": null,
    "unk_token": "<unk>",
    "continuing_subword_prefix": null,
    "end_of_word_suffix": null,
    "fuse_unk": true,
    "byte_fallback": true,
    "ignore_merges": false,
    "vocab": {
      "<unk>": 0,
      "<s>": 1,
      "</s>": 2,
      "<0x00>": 3,
      "<0x01>": 4,
      "<0x02>": 5,
      "<0x03>": 6,
      "<0x04>": 7,
      "<0x05>": 8,
      "<0x06>": 9,
      "<0x07>": 10,
      "<0x08>": 11,
      "<0x09>": 12,
      "<0x0A>": 13,
      "<0x0B>": 14,
      "<0x0C>": 15,
      "<0x0D>": 16,
      "<0x0E>": 17,
      "<0x0F>": 18,
      "<0x10>": 19,
      "<0x11>": 20,
      "<0x12>": 21,
      "<0x13>": 22,
      "<0x14>": 23,
      "<0x15>": 24,
      "<0x16>": 25,
      "<0x17>": 26,
      "<0x18>": 27,
      "<0x19>": 28,
      "<0x1A>": 29,
      "<0x1B>": 30,
      "<0x1C>": 31,
      "<0x1D>": 32,
      "<0x1E>": 33,
      "<0x1F>": 34,
      "<0x20>": 35,
      "<0x21>": 36,
      "<0x22>": 37,
      "<0x23>": 38,
      "<0x24>": 39,
      "<0x25>": 40,
      "<0x26>": 41,
      "<0x27>": 42,
      "<0x28>": 43,
      "<0x29>": 44,
      "<0x2A>": 45,
      "<0x2B>": 46,
      "<0x2C>": 47,
      "<0x2D>": 48,
      "<0x2E>": 49,
      "<0x2F>": 50,
      "<0x30>": 51,
      "<0x31>": 52,
      "<0x32>": 53,
      "<0x33>": 54,
      "<0x34>": 55,
      "<0x35>": 56,
      "<0x36>": 57,
      "<0x37>": 58,
      "<0x38>": 59,
      "<0x39>": 60,
      "<0x3A>": 61,
      "<0x3B>": 62,
      "<0x3C>": 63,
      "<0x3D>": 64,
      "<0x3E>": 65,
      "<0x3F>": 66,
      "<0x40>": 67,
      "<0x41>": 68,
      "<0x42>": 69,
      "<0x43>": 70,
      "<0x44>": 71,
      "<0x45>": 72,
      "<0x46>": 73,
      "<0x47>": 74,
      "<0x48>": 75,
      "<0x49>": 76,
      "<0x4A>": 77,
      "<0x4B>": 78,
      "<0x4C>": 79,
      "<0x4D>": 80,
      "<0x4E>": 81,
      "<0x4F>": 82,
      "<0x50>": 83,
      "<0x51>": 84,
      "<0x52>": 85,
      "<0x53>": 86,
      "<0x54>": 87,
      "<0x55>": 88,
      "<0x56>": 89,
      "<0x57>": 90,
      "<0x58>": 91,
      "<0x59>": 92,
      "<0x5A>": 93,
      "<0x5B>": 94,
      "<0x5C>": 95,
      "<0x5D>": 96,
      "<0x5E>": 97,
      "<0x5F>": 98,
      "<0x60>": 99,
      "<0x61>": 100,
      "<0x62>": 101,
      "<0x63>": 102,
      "<0x64>": 103,
      "<0x65>": 104,
      "<0x66>": 105,
      "<0x67>": 106,
      "<0x68>": 107,
      "<0x69>": 108,
      "<0x6A>": 109,
      "<0x6B>": 110,
      "<0x6C>": 111,
      "<0x6D>": 112,
      "<0x6E>": 113,
      "<0x6F>": 114,
      "<0x70>": 115,
      "<0x71>": 116,
      "<0x72>": 117,
      "<0x73>": 118,
      "<0x74>": 119,
      "<0x75>": 120,
      "<0x76>": 121,
      "<0x77>": 122,
      "<0x78>": 123,
      "<0x79>": 124,
      "<0x7A>": 125,
      "<0x7B>": 126,
      "<0x7C>": 127,
      "<0x7D>": 128,
      "<0x7E>": 129,
      "<0x7F>": 130,
      "<0x80>": 131,
      "<0x81>": 132,
      "<0x82>": 133,
      "<0x83>": 134,
      "<0x84>": 135,
      "<0x85>": 136,
      "<0x86>": 137,
      "<0x87>": 138,
      "<0x88>": 139,
      "<0x89>": 140,
      "<0x8A>": 141,
      "<0x8B>": 142,
      "<0x8C>": 143,
      "<0x8D>": 144,
      "<0x8E>": 145,
      "<0x8F>": 146,
      "<0x90>": 147,
      "<0x91>": 148,
      "<0x92>": 149,
      "<0x93>": 150,
      "<0x94>": 151,
      "<0x95>": 152,
      "<0x96>": 153,
      "<0x97>": 154,
      "<0x98>": 155,
      "<0x99>": 156,
      "<0x9A>": 157,
      "<0x9B>": 158,
      "<0x9C>": 159,
      "<0x9D>": 160,
      "<0x9E>": 161,
      "<0x9F>": 162,
      "<0xA0>": 163,
      "<0xA1>": 164,
      "<0xA2>": 165,
      "<0xA3>": 166,
      "<0xA4>": 167,
      "<0xA5>": 168,
      "<0xA6>": 169,
      "<0xA7>": 170,
      "<0xA8>": 171,
      "<0xA9>": 172,
      "<0xAA>": 173,
      "<0xAB>": 174,
      "<0xAC>": 175,
      "<0xAD>": 176,
      "<0xAE>": 177,
      "<0xAF>": 178,
      "<0xB0>": 179,
      "<0xB1>": 180,
      "<0xB2>": 181,
      "<0xB3>": 182,
      "<0xB4>": 183,
      "<0xB5>": 184,
      "<0xB6>": 185,
      "<0xB7>": 186,
      "<0xB8>": 187,
      "<0xB9>": 188,
      "<0xBA>": 189,
      "<0xBB>": 190,
      "<0xBC>": 191,
      "<0xBD>": 192,
      "<0xBE>": 193,
      "<0xBF>": 194,
      "<0xC0>": 195,
      "<0xC1>": 196,
      "<0xC2>": 197,
      "<0xC3>": 198,
      "<0xC4>": 199,
      "<0xC5>": 200,
      "<0xC6>": 201,
      "<0xC7>": 202,
      "<0xC8>": 203,
      "<0xC9>": 204,
      "<0xCA>": 205,
      "<0xCB>": 206,
      "<0xCC>": 207,
      "<0xCD>": 208,
      "<0xCE>": 209,
      "<0xCF>": 210,
      "<0xD0>": 211,
      "<0xD1>": 212,
      "<0xD2>": 213,
      "<0xD3>": 214,
      "<0xD4>": 215,
      "<0xD5>": 216,
      "<0xD6>": 217,
      "<0xD7>": 218,
      "<0xD8>": 219,
      "<0xD9>": 220,
      "<0xDA>": 221,
      "<0xDB>": 222,
      "<0xDC>": 223,
      "<0xDD>": 224,
      "<0xDE>": 225,
      "<0xDF>": 226,
      "<0xE0>": 227,
      "<0xE1>": 228,
      "<0xE2>": 229,
      "<0xE3>": 230,
      "<0xE4>": 231,
      "<0xE5>": 232,
      "<0xE6>": 233,
      "<0xE7>": 234,
      "<0xE8>": 235,
      "<0xE9>": 236,
      "<0xEA>": 237,
      "<0xEB>": 238,
      "<0xEC>": 239,
      "<0xED>": 240,
      "<0xEE>": 241,
      "<0xEF>": 242,
      "<0xF0>": 243,
      "<0xF1>": 244,
      "<0xF2>": 245,
      "<0xF3>": 246,
      "<0xF4>": 247,
      "<0xF5>": 248,
      "<0xF6>": 249,
      "<0xF7>": 250,
      "<0xF8>": 251,
      "<0xF9>": 252,
      "<0xFA>": 253,
      "<0xFB>": 254,
      "<0xFC>": 255,
      "<0xFD>": 256,
      "<0xFE>": 257,
      "<0xFF>": 258,
      "▁t": 259,
      "in": 260,
      "er": 261,
      "▁a": 262,
      "on": 263,
      "re": 264,
      "he": 265,
      "at": 266,
      "or": 267,
      "st": 268,
      "en": 269,
      "\\\"": 270,
      "▁c": 271,
      "▁the": 272,
      "it": 273,
      "le": 274,
      "▁s": 275,
      "an": 276,
      "al": 277,
      "ar": 278,
      "ou": 279,
      "is": 280,
      "▁f": 281,
      "▁p": 282,
      "▁w": 283,
      "es": 284,
      "ing": 285,
      "ion": 286,
      "ed": 287,
      "▁b": 288,
      "ic": 289,
      "▁o": 290,
      "nd": 291,
      "▁d": 292,
      "▁m": 293,
      "ro": 294,
      "et": 295,
      ";\\": 296,
      "▁in": 297,
      "as": 298,
      "ct": 299,
      "ent": 300,
      "▁to": 301,
      "el": 302,
      "▁of": 303,
      "am": 304,
      "om": 305,
      "--": 306,
      "▁and": 307,
      "▁=": 308,
      "▁n": 309,
      "▁re": 310,
      "▁h": 311,
      "▁th": 312,
      "il": 313,
      "id": 314,
      "im": 315,
      "lo": 316,
      "ut": 317,
      "ac": 318,
      "se": 319,
      "▁e": 320,
      "ur": 321,
      "▁S": 322,
      "ad": 323,
      "▁(": 324,
      ".\\": 325,
      "ol": 326,
      "▁T": 327,
      "ig": 328,
      ")\\": 329,
      "ot": 330,
      "▁I": 331,
      ");\\": 332,
      "iv": 333,
      "▁g": 334,
      "od": 335,
      "▁{": 336,
      "▁C": 337,
      "if": 338,
      "ation": 339,
      "us": 340,
      "▁A": 341,
      "▁l": 342,
      "ag": 343,
      "▁\\\"": 344,
      "▁is": 345,
      "ate": 346,
      "ul": 347,
      "ay": 348,
      "un": 349,
      "ue": 350,
      "▁st": 351,
      "▁for": 352,
      "}\\": 353,
      "ce": 354,
      "//": 355,
      "ch": 356,
      "th": 357,
      "▁v": 358,
      "em": 359,
      "▁y": 360,
      "▁{\\": 361,
      "ers": 362,
      ",\\": 363,
      "ame": 364,
      "**": 365,
      "pe": 366,
      "ab": 367,
      "\\\\": 368,
      "ith": 369,
      "▁be": 370,
      "▁on": 371,
      "um": 372,
      "▁<": 373,
      "ly": 374,
      "ow": 375,
      "ist": 376,
      "----": 377,
      "▁*": 378,
      "ort": 379,
      "ap": 380,
      "▁P": 381,
      "▁M": 382,
      "ex": 383,
      "▁con": 384,
      "ter": 385,
      "ir": 386,
      "our": 387,
      ">\\": 388,
      "av": 389,
      "ew": 390,
      "tr": 391,
      "ub": 392,
      "ht": 393,
      "ver": 394,
      "pt": 395,
      "▁B": 396,
      "ass": 397,
      "▁that": 398,
      "▁'": 399,
      "res": 400,
      "ction": 401,
      "▁de": 402,
      "▁as": 403,
      "▁with": 404,
      "▁D": 405,
      "port": 406,
      "▁it": 407,
      "▁pro": 408,
      "▁R": 409,
      "end": 410,
      "out": 411,
      "and": 412,
      "nt": 413,
      "ment": 414,
      "▁F": 415,
      "ess": 416,
      "op": 417,
      "ke": 418,
      "▁al": 419,
      "ain": 420,
      "est": 421,
      "=\\\"": 422,
      "▁r": 423,
      "▁L": 424,
      "==": 425,
      "age": 426,
      "up": 427,
      "ri": 428,
      "▁an": 429,
      "qu": 430,
      "▁wh": 431,
      "▁W": 432,
      "▁$": 433,
      "rom": 434,
      "▁-": 435,
      "urn": 436,
      "()": 437,
      "ect": 438,
      "▁ex": 439,
      "▁this": 440,
      "▁}\\": 441,
      "▁H": 442,
      "os": 443,
      "▁com": 444,
      "ore": 445,
      "ile": 446,
      "▁N": 447,
      "pl": 448,
      "▁E": 449,
      "com": 450,
      ":\\": 451,
      "art": 452,
      "▁or": 453,
      "ere": 454,
      "▁you": 455,
      "oc": 456,
      "iz": 457,
      "ity": 458,
      "con": 459,
      "ack": 460,
      "ill": 461,
      "lass": 462,
      "turn": 463,
      "▁G": 464,
      "able": 465,
      "▁\\": 466,
      "int": 467,
      "ine": 468,
      "▁The": 469,
      "▁are": 470,
      "▁if": 471,
      "ld": 472,
      "ight": 473,
      "get": 474,
      "▁O": 475,
      "▁lo": 476,
      "ant": 477,
      "ata": 478,
      "ult": 479,
      "..": 480,
      "▁at": 481,
      "ure": 482,
      "▁tr": 483,
      "ext": 484,
      "ive": 485,
      "de": 486,
      "▁[": 487,
      "▁se": 488,
      "</": 489,
      "##": 490,
      "▁from": 491,
      "lic": 492,
      "orm": 493,
      "▁he": 494,
      "ies": 495,
      "act": 496,
      "ind": 497,
      "ang": 498,
      "▁le": 499,
      "per": 500,
      "ave": 501,
      "all": 502,
      "--------": 503,
      "ype": 504,
      "▁by": 505,
      "▁ch": 506,
      "ust": 507,
      "▁not": 508,
      "▁was": 509,
      "ib": 510,
      "ial": 511,
      "ode": 512,
      "ase": 513,
      "import": 514,
      "ff": 515,
      "ip": 516,
      "ast": 517,
      "ok": 518,
      "::": 519,
      "->": 520,
      "▁we": 521,
      "__": 522,
      "elf": 523,
      "▁j": 524,
      "are": 525,
      "\\\",": 526,
      "ice": 527,
      "ost": 528,
      "▁sh": 529,
      "ve": 530,
      "ire": 531,
      "ard": 532,
      "cl": 533,
      "▁return": 534,
      "rou": 535,
      "tp": 536,
      "name": 537,
      "ption": 538,
      "ime": 539,
      "str": 540,
      "(\\\"": 541,
      "ck": 542,
      "****": 543,
      "ath": 544,
      "▁u": 545,
      "▁}": 546,
      "▁us": 547,
      "ser": 548,
      "ord": 549,
      "▁|": 550,
      "▁U": 551,
      "ple": 552,
      "▁can": 553,
      "▁//": 554,
      "▁class": 555,
      "ace": 556,
      "ans": 557,
      "In": 558,
      "nT": 559,
      "ide": 560,
      "ould": 561,
      "ork": 562,
      "ublic": 563,
      "to": 564,
      "ject": 565,
      "▁have": 566,
      "ak": 567,
      "one": 568,
      "▁new": 569,
      "▁+": 570,
      "ont": 571,
      "▁J": 572,
      "pro": 573,
      "('": 574,
      "sp": 575,
      "ud": 576,
      "▁k": 577,
      "ated": 578,
      "que": 579,
      "form": 580,
      "▁@": 581,
      "ail": 582,
      "put": 583,
      "ite": 584,
      "▁:": 585,
      "alue": 586,
      "ign": 587,
      "te": 588,
      "',": 589,
      "ber": 590,
      "iss": 591,
      "ell": 592,
      "ary": 593,
      "\\\"\\": 594,
      "Re": 595,
      "cc": 596,
      ").": 597,
      "▁pl": 598,
      "====": 599,
      "ize": 600,
      "▁do": 601,
      "▁your": 602,
      "▁ad": 603,
      "ance": 604,
      "ition": 605,
      "ong": 606,
      "ss": 607,
      "▁ab": 608,
      "▁pr": 609,
      "ory": 610,
      "▁V": 611,
      "nimport": 612,
      "▁Th": 613,
      "ome": 614,
      "▁en": 615,
      "();\\": 616,
      "St": 617,
      "ild": 618,
      "▁In": 619,
      "▁/": 620,
      "du": 621,
      "iew": 622,
      "ll": 623,
      "low": 624,
      "ge": 625,
      "▁str": 626,
      "so": 627,
      "▁will": 628,
      "og": 629,
      "▁get": 630,
      "err": 631,
      "▁#": 632,
      "unction": 633,
      "ull": 634,
      "set": 635,
      "hen": 636,
      "▁un": 637,
      "ich": 638,
      "ress": 639,
      "ef": 640,
      "ear": 641,
      "ach": 642,
      "ens": 643,
      "ia": 644,
      "▁ap": 645,
      "▁cont": 646,
      "▁&": 647,
      "▁.": 648,
      "▁ar": 649,
      "ence": 650,
      "ations": 651,
      "div": 652,
      "li": 653,
      "ally": 654,
      "ake": 655,
      "aram": 656,
      "ug": 657,
      "user": 658,
      "\\\":": 659,
      "▁res": 660,
      "▁K": 661,
      "``": 662,
      "row": 663,
      "ount": 664,
      "cri": 665,
      "tring": 666,
      "▁out": 667,
      "),": 668,
      "fer": 669,
      "▁up": 670,
      "ep": 671,
      "{\\": 672,
      "ents": 673,
      "▁has": 674,
      "▁but": 675,
      "ther": 676,
      "▁ne": 677,
      "▁public": 678,
      "pon": 679,
      "▁im": 680,
      "ink": 681,
      "▁all": 682,
      "ft": 683,
      "ie": 684,
      "▁go": 685,
      "ER": 686,
      "nA": 687,
      "▁\\\\": 688,
      "log": 689,
      "les": 690,
      "quest": 691,
      "▁me": 692,
      "://": 693,
      "ob": 694,
      "▁def": 695,
      "\\\">": 696,
      "/\\": 697,
      "erv": 698,
      "cre": 699,
      "▁self": 700,
      "sh": 701,
      "▁`": 702,
      "aw": 703,
      "own": 704,
      "gh": 705,
      "ous": 706,
      "▁so": 707,
      "ax": 708,
      "IN": 709,
      "▁i": 710,
      "odel": 711,
      "ov": 712,
      "ree": 713,
      "pr": 714,
      "ery": 715,
      "gr": 716,
      "che": 717,
      "▁St": 718,
      "ON": 719,
      "fig": 720,
      "oid": 721,
      "ne": 722,
      "▁=>": 723,
      "yst": 724,
      "Ex": 725,
      "ound": 726,
      "app": 727,
      "▁bo": 728,
      "ors": 729,
      "▁</": 730,
      "eth": 731,
      "nc": 732,
      "vent": 733,
      "ical": 734,
      "]\\": 735,
      "ry": 736,
      "bo": 737,
      "▁int": 738,
      "▁which": 739,
      "▁set": 740,
      "▁one": 741,
      "ings": 742,
      "lect": 743,
      "----------------": 744,
      "ions": 745,
      "ark": 746,
      "this": 747,
      "ener": 748,
      "ph": 749,
      "▁Y": 750,
      "ec": 751,
      "io": 752,
      "Pro": 753,
      "▁per": 754,
      "▁more": 755,
      "Name": 756,
      "公司": 757,
      "▁dis": 758,
      "key": 759,
      "iel": 760,
      "ix": 761,
      "nThe": 762,
      "http": 763,
      "▁*/\\": 764,
      "▁pre": 765,
      "▁work": 766,
      "led": 767,
      "vel": 768,
      "▁my": 769,
      "▁function": 770,
      "▁their": 771,
      "enc": 772,
      "()\\": 773,
      "rr": 774,
      "we": 775,
      "ert": 776,
      "********": 777,
      "▁col": 778,
      "atch": 779,
      "use": 780,
      "ng": 781,
      "ystem": 782,
      "▁they": 783,
      "pec": 784,
      "ES": 785,
      "her": 786,
      "ms": 787,
      "ty": 788,
      "\\\",\\": 789,
      "▁time": 790,
      "oint": 791,
      "▁Ch": 792,
      "self": 793,
      "ield": 794,
      "nder": 795,
      "ict": 796,
      "add": 797,
      "▁==": 798,
      "▁el": 799,
      "data": 800,
      "一个": 801,
      "Id": 802,
      "old": 803,
      "irst": 804,
      "uild": 805,
      "▁des": 806,
      "pect": 807,
      "▁const": 808,
      "▁inter": 809,
      "▁name": 810,
      "Con": 811,
      "atic": 812,
      "▁man": 813,
      "ange": 814,
      "pos": 815,
      "arg": 816,
      "▁_": 817,
      "val": 818,
      "return": 819,
      "ick": 820,
      "▁his": 821,
      "cont": 822,
      "▁li": 823,
      "ish": 824,
      "▁about": 825,
      "▁add": 826,
      "ual": 827,
      "Cont": 828,
      "▁data": 829,
      "issue": 830,
      "ays": 831,
      "▁any": 832,
      "▁also": 833,
      "\\\">\\": 834,
      "nS": 835,
      "fo": 836,
      "▁var": 837,
      "ource": 838,
      "ator": 839,
      "▁use": 840,
      "▁part": 841,
      "▁Re": 842,
      "▁su": 843,
      "▁qu": 844,
      "cess": 845,
      "▁>": 846,
      "▁It": 847,
      "ca": 848,
      "bject": 849,
      "username": 850,
      "Type": 851,
      "))": 852,
      "▁who": 853,
      "roup": 854,
      "ates": 855,
      "ely": 856,
      "▁ro": 857,
      "ific": 858,
      "▁cre": 859,
      "min": 860,
      "nI": 861,
      "▁!": 862,
      "####": 863,
      "▁when": 864,
      "我们": 865,
      "String": 866,
      "alse": 867,
      "ude": 868,
      "▁comm": 869,
      "ock": 870,
      "AT": 871,
      "rit": 872,
      "工作": 873,
      "▁other": 874,
      "▁over": 875,
      "ater": 876,
      "可以": 877,
      "nC": 878,
      "ian": 879,
      "OR": 880,
      "urre": 881,
      "read": 882,
      "▁sp": 883,
      "co": 884,
      "ml": 885,
      "ble": 886,
      "▁ag": 887,
      ".\\\"": 888,
      "▁comp": 889,
      "▁te": 890,
      "umber": 891,
      "file": 892,
      "▁x": 893,
      "中国": 894,
      "son": 895,
      "itle": 896,
      "AR": 897,
      "EN": 898,
      "eng": 899,
      "▁end": 900,
      "ra": 901,
      "view": 902,
      "========": 903,
      "ts": 904,
      "inal": 905,
      "▁This": 906,
      "▁file": 907,
      "ose": 908,
      "▁were": 909,
      "▁our": 910,
      "▁there": 911,
      "cal": 912,
      "fter": 913,
      "ref": 914,
      "uct": 915,
      "ton": 916,
      "ault": 917,
      "dd": 918,
      "essage": 919,
      "ivate": 920,
      "▁sup": 921,
      "▁some": 922,
      "uth": 923,
      "ys": 924,
      "param": 925,
      "ample": 926,
      "col": 927,
      "ise": 928,
      "):\\": 929,
      "ning": 930,
      "ool": 931,
      "](": 932,
      "nf": 933,
      "ank": 934,
      "Res": 935,
      "ns": 936,
      "List": 937,
      "ash": 938,
      "><": 939,
      "lock": 940,
      "be": 941,
      "▁err": 942,
      "line": 943,
      "////": 944,
      "ues": 945,
      "ages": 946,
      "type": 947,
      "round": 948,
      "']": 949,
      "ersion": 950,
      "abel": 951,
      "',\\": 952,
      "ID": 953,
      "ense": 954,
      "quire": 955,
      "▁import": 956,
      "['": 957,
      "wo": 958,
      "▁--": 959,
      "▁value": 960,
      "▁id": 961,
      "▁would": 962,
      "▁test": 963,
      "ove": 964,
      "comment": 965,
      "▁no": 966,
      "https": 967,
      "信息": 968,
      "▁been": 969,
      "▁kn": 970,
      "IT": 971,
      "ating": 972,
      "ied": 973,
      "ames": 974,
      "ST": 975,
      "▁em": 976,
      "ade": 977,
      "clude": 978,
      "▁need": 979,
      "plic": 980,
      "Com": 981,
      "▁like": 982,
      "date": 983,
      "▁void": 984,
      "▁them": 985,
      "load": 986,
      "ethod": 987,
      "td": 988,
      "nW": 989,
      "ments": 990,
      "▁fe": 991,
      "▁else": 992,
      "ception": 993,
      "ache": 994,
      "rap": 995,
      "ics": 996,
      "▁sa": 997,
      "**\\": 998,
      "igh": 999,
      "anc": 1000,
      "▁year": 1001,
      "▁type": 1002,
      "tif": 1003,
      "ven": 1004,
      "ccess": 1005,
      "▁under": 1006,
      "AM": 1007,
      "urrent": 1008,
      "▁her": 1009,
      "▁had": 1010,
      "▁pos": 1011,
      "▁am": 1012,
      "▁into": 1013,
      "ative": 1014,
      "br": 1015,
      "ask": 1016,
      "▁val": 1017,
      "ger": 1018,
      "ient": 1019,
      "der": 1020,
      "▁first": 1021,
      "duct": 1022,
      "arch": 1023,
      "Data": 1024,
      "($": 1025,
      "▁Pro": 1026,
      "▁just": 1027,
      "))\\": 1028,
      "▁co": 1029,
      "ann": 1030,
      "ument": 1031,
      "nB": 1032,
      "ervice": 1033,
      "ps": 1034,
      "work": 1035,
      "fr": 1036,
      "RE": 1037,
      "tem": 1038,
      "AL": 1039,
      "▁off": 1040,
      "时间": 1041,
      "▁pe": 1042,
      "▁inst": 1043,
      "▁We": 1044,
      "\\\");\\": 1045,
      "ices": 1046,
      "ars": 1047,
      "▁op": 1048,
      "ute": 1049,
      "def": 1050,
      "comm": 1051,
      "▁null": 1052,
      "als": 1053,
      "test": 1054,
      "▁true": 1055,
      "▁what": 1056,
      "),\\": 1057,
      "▁act": 1058,
      "▁may": 1059,
      "▁form": 1060,
      "▁result": 1061,
      "▁only": 1062,
      "ader": 1063,
      "`\\": 1064,
      "cript": 1065,
      "tern": 1066,
      "▁“": 1067,
      "span": 1068,
      "▁bet": 1069,
      "?\\": 1070,
      "text": 1071,
      "px": 1072,
      "▁Q": 1073,
      "▁back": 1074,
      "▁sub": 1075,
      "vid": 1076,
      "▁its": 1077,
      "irect": 1078,
      "nD": 1079,
      "(\\": 1080,
      "LE": 1081,
      "SE": 1082,
      "▁reg": 1083,
      "its": 1084,
      "Ch": 1085,
      "));\\": 1086,
      "atus": 1087,
      "▁how": 1088,
      "▁rec": 1089,
      "▁Com": 1090,
      "ting": 1091,
      "▁should": 1092,
      "企业": 1093,
      "ule": 1094,
      "▁string": 1095,
      "▁He": 1096,
      "very": 1097,
      "没有": 1098,
      "▁trans": 1099,
      "▁spec": 1100,
      "ious": 1101,
      "▁dif": 1102,
      "ible": 1103,
      "▁cl": 1104,
      "ful": 1105,
      "lp": 1106,
      "treturn": 1107,
      "ures": 1108,
      "yp": 1109,
      "string": 1110,
      "sum": 1111,
      "code": 1112,
      "自己": 1113,
      "ollow": 1114,
      "Tr": 1115,
      "▁list": 1116,
      "pp": 1117,
      "size": 1118,
      "▁,": 1119,
      "ma": 1120,
      "ava": 1121,
      "ttp": 1122,
      "yle": 1123,
      "ner": 1124,
      "'\\": 1125,
      "sert": 1126,
      "▁than": 1127,
      "but": 1128,
      "hat": 1129,
      "ray": 1130,
      "ons": 1131,
      "heck": 1132,
      "nP": 1133,
      "ody": 1134,
      "ople": 1135,
      "ular": 1136,
      "▁rel": 1137,
      "▁Un": 1138,
      "▁%": 1139,
      "back": 1140,
      "ility": 1141,
      "▁Se": 1142,
      "管理": 1143,
      "nM": 1144,
      "▁org": 1145,
      "▁then": 1146,
      "▁make": 1147,
      "\\\")\\": 1148,
      "▁String": 1149,
      "pre": 1150,
      "idth": 1151,
      "reat": 1152,
      "rc": 1153,
      "AN": 1154,
      "ey": 1155,
      "CC": 1156,
      "ities": 1157,
      "▁start": 1158,
      "▁sc": 1159,
      "of": 1160,
      "new": 1161,
      "▁two": 1162,
      "▁private": 1163,
      "value": 1164,
      "ctions": 1165,
      "▁Tr": 1166,
      "服务": 1167,
      "np": 1168,
      "ithub": 1169,
      "▁ind": 1170,
      "opy": 1171,
      "▁rem": 1172,
      "ek": 1173,
      "nF": 1174,
      "进行": 1175,
      "ased": 1176,
      "ength": 1177,
      "▁ent": 1178,
      "man": 1179,
      "▁Ex": 1180,
      "trib": 1181,
      "uff": 1182,
      "list": 1183,
      "url": 1184,
      "▁dr": 1185,
      "ier": 1186,
      "mer": 1187,
      "ptions": 1188,
      "oth": 1189,
      "rough": 1190,
      "eter": 1191,
      "air": 1192,
      "right": 1193,
      "...": 1194,
      "ole": 1195,
      "Col": 1196,
      "und": 1197,
      "发展": 1198,
      "▁she": 1199,
      "▁read": 1200,
      "cond": 1201,
      "ream": 1202,
      "var": 1203,
      "▁used": 1204,
      "▁where": 1205,
      "▁ph": 1206,
      "az": 1207,
      "▁Con": 1208,
      "path": 1209,
      "rror": 1210,
      "lement": 1211,
      "ement": 1212,
      "ature": 1213,
      "fore": 1214,
      "ww": 1215,
      "github": 1216,
      "ily": 1217,
      "serv": 1218,
      "IL": 1219,
      "▁run": 1220,
      "rite": 1221,
      "clud": 1222,
      "().": 1223,
      "plo": 1224,
      "▁false": 1225,
      "play": 1226,
      "../": 1227,
      "▁play": 1228,
      "产品": 1229,
      "amp": 1230,
      "▁follow": 1231,
      "▁after": 1232,
      "ren": 1233,
      "问题": 1234,
      "____": 1235,
      "▁ob": 1236,
      "indow": 1237,
      "▁char": 1238,
      "▁gr": 1239,
      "▁–": 1240,
      "ify": 1241,
      "rol": 1242,
      "CT": 1243,
      "▁!=": 1244,
      "▁these": 1245,
      "arget": 1246,
      "nH": 1247,
      "ood": 1248,
      "▁using": 1249,
      "▁people": 1250,
      "▁look": 1251,
      "▁发": 1252,
      "time": 1253,
      "not": 1254,
      "To": 1255,
      "lease": 1256,
      "no": 1257,
      "▁*\\": 1258,
      "const": 1259,
      "press": 1260,
      "Value": 1261,
      "erson": 1262,
      "ets": 1263,
      "▁static": 1264,
      "ward": 1265,
      "ough": 1266,
      "class": 1267,
      "day": 1268,
      "ember": 1269,
      "icense": 1270,
      "▁know": 1271,
      "▁ser": 1272,
      "].": 1273,
      "formation": 1274,
      "▁require": 1275,
      "▁want": 1276,
      "orld": 1277,
      "js": 1278,
      "▁min": 1279,
      "roll": 1280,
      "cept": 1281,
      "▁help": 1282,
      "▁br": 1283,
      "';\\": 1284,
      "▁dist": 1285,
      "');\\": 1286,
      "▁ac": 1287,
      "md": 1288,
      "let": 1289,
      "什么": 1290,
      "for": 1291,
      "▁through": 1292,
      "ution": 1293,
      "ym": 1294,
      "util": 1295,
      "▁acc": 1296,
      "red": 1297,
      "▁]": 1298,
      "▁let": 1299,
      "AS": 1300,
      "IC": 1301,
      "▁right": 1302,
      "org": 1303,
      "></": 1304,
      "市场": 1305,
      "▁could": 1306,
      "ational": 1307,
      "velop": 1308,
      "▁number": 1309,
      "the": 1310,
      "UL": 1311,
      "▁most": 1312,
      "perty": 1313,
      "▁case": 1314,
      "!\\": 1315,
      "▁You": 1316,
      "\\\";\\": 1317,
      "by": 1318,
      "▁well": 1319,
      "gin": 1320,
      "▁key": 1321,
      "ait": 1322,
      "par": 1323,
      "oun": 1324,
      "nTh": 1325,
      "ateg": 1326,
      "▁differ": 1327,
      "me": 1328,
      "resent": 1329,
      "Set": 1330,
      "File": 1331,
      "▁)": 1332,
      "▁sim": 1333,
      "****************": 1334,
      "▁///": 1335,
      "ION": 1336,
      "▁z": 1337,
      "],": 1338,
      "▁find": 1339,
      "start": 1340,
      "include": 1341,
      "ern": 1342,
      "any": 1343,
      "▁see": 1344,
      "ustom": 1345,
      "++": 1346,
      "UT": 1347,
      "▁does": 1348,
      "nO": 1349,
      "▁mod": 1350,
      "fil": 1351,
      "▁show": 1352,
      "ware": 1353,
      "cription": 1354,
      "gram": 1355,
      "▁If": 1356,
      "▁model": 1357,
      "py": 1358,
      "_{": 1359,
      "▁stud": 1360,
      "▁long": 1361,
      "▁gener": 1362,
      "')\\": 1363,
      "Exception": 1364,
      "使用": 1365,
      "技术": 1366,
      "wn": 1367,
      "Get": 1368,
      "▁cons": 1369,
      "cent": 1370,
      "View": 1371,
      "Error": 1372,
      "。\\": 1373,
      "ession": 1374,
      "nIn": 1375,
      "▁every": 1376,
      "Se": 1377,
      "oin": 1378,
      "AME": 1379,
      "ife": 1380,
      "uch": 1381,
      "ik": 1382,
      "▁resp": 1383,
      "html": 1384,
      "lient": 1385,
      "ackage": 1386,
      "▁?": 1387,
      "')": 1388,
      "ines": 1389,
      "fl": 1390,
      "▁now": 1391,
      "RO": 1392,
      "ower": 1393,
      "ized": 1394,
      "lection": 1395,
      ",\\\"": 1396,
      "uring": 1397,
      "内容": 1398,
      "word": 1399,
      "▁sm": 1400,
      "DE": 1401,
      "▁fl": 1402,
      "如果": 1403,
      "ces": 1404,
      "uthor": 1405,
      "▁state": 1406,
      "':": 1407,
      "▁ext": 1408,
      "item": 1409,
      "fe": 1410,
      "▁De": 1411,
      "reak": 1412,
      "ote": 1413,
      "raph": 1414,
      "itt": 1415,
      "ffect": 1416,
      "▁hand": 1417,
      "▁&&": 1418,
      "▁Sh": 1419,
      "hed": 1420,
      "ponse": 1421,
      "▁inv": 1422,
      "▁user": 1423,
      "▁app": 1424,
      "ager": 1425,
      "gs": 1426,
      "ited": 1427,
      "▁such": 1428,
      "▁Ar": 1429,
      "Test": 1430,
      "face": 1431,
      "▁way": 1432,
      "▁said": 1433,
      "ah": 1434,
      "▁text": 1435,
      "order": 1436,
      "ends": 1437,
      "ten": 1438,
      "mod": 1439,
      "ocument": 1440,
      "arn": 1441,
      "▁includ": 1442,
      "}$": 1443,
      "ween": 1444,
      "lay": 1445,
      "```\\": 1446,
      "ector": 1447,
      "ler": 1448,
      "lob": 1449,
      "▁very": 1450,
      "▁pol": 1451,
      "▁->": 1452,
      "nL": 1453,
      "▁la": 1454,
      "reg": 1455,
      "▁},\\": 1456,
      "unc": 1457,
      "▁href": 1458,
      "index": 1459,
      "void": 1460,
      "▁http": 1461,
      "▁ass": 1462,
      "▁**": 1463,
      "ush": 1464,
      "Object": 1465,
      "▁each": 1466,
      "▁final": 1467,
      "iver": 1468,
      "▁build": 1469,
      "ins": 1470,
      "▁book": 1471,
      "▁Al": 1472,
      "▁fil": 1473,
      "▁system": 1474,
      "ename": 1475,
      "label": 1476,
      "▁don": 1477,
      "▁ed": 1478,
      "▁fr": 1479,
      "net": 1480,
      "Text": 1481,
      "til": 1482,
      "▁good": 1483,
      "▁cal": 1484,
      "▁support": 1485,
      "▁point": 1486,
      "▁line": 1487,
      "▁cor": 1488,
      "cause": 1489,
      "▁An": 1490,
      "▁par": 1491,
      "struct": 1492,
      "就是": 1493,
      "▁As": 1494,
      "▁did": 1495,
      "arent": 1496,
      "ponent": 1497,
      "En": 1498,
      "▁try": 1499,
      "▁because": 1500,
      "▁many": 1501,
      "model": 1502,
      "sub": 1503,
      "ince": 1504,
      "▁X": 1505,
      "='": 1506,
      "NAME": 1507,
      "ason": 1508,
      "▁while": 1509,
      "loat": 1510,
      "ET": 1511,
      "uc": 1512,
      "MA": 1513,
      "▁·": 1514,
      "Key": 1515,
      "▁)\\": 1516,
      "go": 1517,
      "());\\": 1518,
      "Im": 1519,
      "▁down": 1520,
      "▁even": 1521,
      "▁expect": 1522,
      "▁sign": 1523,
      "other": 1524,
      "▁current": 1525,
      "etail": 1526,
      "▁here": 1527,
      "map": 1528,
      "▁bel": 1529,
      "▁process": 1530,
      "▁exper": 1531,
      "▁New": 1532,
      "ision": 1533,
      "▁call": 1534,
      "action": 1535,
      "▁sol": 1536,
      "▁method": 1537,
      "ouse": 1538,
      "这个": 1539,
      "config": 1540,
      "imes": 1541,
      "State": 1542,
      "iven": 1543,
      "▁high": 1544,
      "▁found": 1545,
      "._": 1546,
      "▁For": 1547,
      "提供": 1548,
      "▁before": 1549,
      "wer": 1550,
      "less": 1551,
      "▁error": 1552,
      "ider": 1553,
      "De": 1554,
      "▁think": 1555,
      "The": 1556,
      "▁between": 1557,
      "ization": 1558,
      "wh": 1559,
      "By": 1560,
      "▁et": 1561,
      "联系": 1562,
      "input": 1563,
      "bs": 1564,
      "▁aut": 1565,
      "▁pass": 1566,
      "▁same": 1567,
      "▁years": 1568,
      "▁sur": 1569,
      "▁comple": 1570,
      "▁again": 1571,
      "ined": 1572,
      "////////": 1573,
      "iness": 1574,
      "学生": 1575,
      "ential": 1576,
      "▁:=": 1577,
      "miss": 1578,
      "▁/**\\": 1579,
      "ants": 1580,
      "▁System": 1581,
      "\\\")": 1582,
      "########": 1583,
      "ook": 1584,
      "ives": 1585,
      "根据": 1586,
      "▁dec": 1587,
      "sc": 1588,
      "Item": 1589,
      "▁size": 1590,
      "try": 1591,
      "nN": 1592,
      "ouble": 1593,
      "Time": 1594,
      "ains": 1595,
      "ivers": 1596,
      "\\\".": 1597,
      "IS": 1598,
      "ared": 1599,
      "ience": 1600,
      "▁mon": 1601,
      "tt": 1602,
      "aking": 1603,
      "▁License": 1604,
      "▁aw": 1605,
      "lick": 1606,
      "▁main": 1607,
      "land": 1608,
      "ync": 1609,
      "活动": 1610,
      "教育": 1611,
      "yn": 1612,
      "rem": 1613,
      "▁object": 1614,
      "ually": 1615,
      "▁last": 1616,
      "PI": 1617,
      "/*": 1618,
      "ond": 1619,
      "▁gu": 1620,
      "plication": 1621,
      "over": 1622,
      "▁});\\": 1623,
      "▁check": 1624,
      "lib": 1625,
      "他们": 1626,
      "ever": 1627,
      "vice": 1628,
      "▁log": 1629,
      "ED": 1630,
      "▁product": 1631,
      "ister": 1632,
      "▁print": 1633,
      "▁code": 1634,
      "▁information": 1635,
      "▁provid": 1636,
      "需要": 1637,
      "================": 1638,
      "ale": 1639,
      "▁being": 1640,
      "print": 1641,
      "▁iss": 1642,
      "];\\": 1643,
      "经济": 1644,
      "▁create": 1645,
      "ified": 1646,
      "系统": 1647,
      "▁Res": 1648,
      "rray": 1649,
      ":\\\"": 1650,
      "相关": 1651,
      "ric": 1652,
      "▁\\\"\\\"": 1653,
      "ved": 1654,
      "OT": 1655,
      "uration": 1656,
      "▁post": 1657,
      "▁cr": 1658,
      ").\\": 1659,
      "alth": 1660,
      "pace": 1661,
      "aining": 1662,
      "qual": 1663,
      "▁open": 1664,
      "▁own": 1665,
      "通过": 1666,
      "▁him": 1667,
      "UR": 1668,
      "Add": 1669,
      "▁default": 1670,
      "mp": 1671,
      "using": 1672,
      "ists": 1673,
      "alk": 1674,
      "Config": 1675,
      "▁rep": 1676,
      "chool": 1677,
      "▁different": 1678,
      "▁param": 1679,
      "▁much": 1680,
      "ences": 1681,
      "Request": 1682,
      "▁group": 1683,
      "error": 1684,
      "▁request": 1685,
      "init": 1686,
      "aut": 1687,
      "▁develop": 1688,
      "已经": 1689,
      "国家": 1690,
      "AD": 1691,
      "count": 1692,
      "所有": 1693,
      "ndef": 1694,
      "▁cent": 1695,
      "met": 1696,
      "▁mat": 1697,
      "ox": 1698,
      "itor": 1699,
      "oot": 1700,
      "ather": 1701,
      "ground": 1702,
      "ee": 1703,
      "▁⁇": 1704,
      "oken": 1705,
      "aster": 1706,
      "Un": 1707,
      "Service": 1708,
      "~~": 1709,
      "aj": 1710,
      "Th": 1711,
      "网站": 1712,
      "mary": 1713,
      "[]": 1714,
      "▁And": 1715,
      "ux": 1716,
      "state": 1717,
      "AC": 1718,
      "lish": 1719,
      "社会": 1720,
      "▁top": 1721,
      "urs": 1722,
      "Path": 1723,
      "▁config": 1724,
      "plate": 1725,
      "dis": 1726,
      "oci": 1727,
      "▁som": 1728,
      "▁Z": 1729,
      "▁field": 1730,
      "▁clo": 1731,
      "▁bl": 1732,
      "pend": 1733,
      "Int": 1734,
      "Sh": 1735,
      "▁writ": 1736,
      "▁oper": 1737,
      "CO": 1738,
      "▁person": 1739,
      "Map": 1740,
      "[\\\"": 1741,
      "▁child": 1742,
      "▁made": 1743,
      "uffer": 1744,
      "ats": 1745,
      "api": 1746,
      "ta": 1747,
      "▁__": 1748,
      "▁direct": 1749,
      "▁fin": 1750,
      "现在": 1751,
      "▁tem": 1752,
      "▁att": 1753,
      "▁art": 1754,
      "ced": 1755,
      "bers": 1756,
      "▁av": 1757,
      "——": 1758,
      "ainer": 1759,
      "usiness": 1760,
      "med": 1761,
      "Info": 1762,
      "bl": 1763,
      "▁num": 1764,
      "▁take": 1765,
      "loc": 1766,
      "▁);\\": 1767,
      "▁mem": 1768,
      "▁bu": 1769,
      "▁sk": 1770,
      "▁best": 1771,
      "中心": 1772,
      "▁following": 1773,
      "不是": 1774,
      "lear": 1775,
      "angu": 1776,
      "▁med": 1777,
      "▁day": 1778,
      "▁project": 1779,
      "建设": 1780,
      "▁<<": 1781,
      ");": 1782,
      "ride": 1783,
      "▁fam": 1784,
      "Model": 1785,
      "▁Col": 1786,
      "▁assert": 1787,
      "ference": 1788,
      "作者": 1789,
      "▁both": 1790,
      "▁serv": 1791,
      "要求": 1792,
      "User": 1793,
      "hip": 1794,
      "uss": 1795,
      "▁path": 1796,
      "▁mark": 1797,
      "▁我": 1798,
      "设计": 1799,
      "={": 1800,
      "link": 1801,
      "akes": 1802,
      "▁met": 1803,
      "idd": 1804,
      "content": 1805,
      "json": 1806,
      "▁||": 1807,
      "vir": 1808,
      "ott": 1809,
      "php": 1810,
      "):": 1811,
      "pty": 1812,
      "els": 1813,
      "项目": 1814,
      "▁must": 1815,
      "apt": 1816,
      "oy": 1817,
      "Ind": 1818,
      "生活": 1819,
      "▁std": 1820,
      "▁real": 1821,
      "▁version": 1822,
      "软件": 1823,
      "专业": 1824,
      "search": 1825,
      "ases": 1826,
      "ency": 1827,
      "▁del": 1828,
      "▁example": 1829,
      "主要": 1830,
      "▁order": 1831,
      "ished": 1832,
      "▁those": 1833,
      "有限": 1834,
      "的人": 1835,
      "▁Wh": 1836,
      "create": 1837,
      "ailable": 1838,
      "▁car": 1839,
      "因为": 1840,
      "nect": 1841,
      "北京": 1842,
      "▁How": 1843,
      "▁item": 1844,
      "}}": 1845,
      "(),": 1846,
      "Form": 1847,
      "Event": 1848,
      "ribut": 1849,
      "用户": 1850,
      "box": 1851,
      "的一": 1852,
      "cho": 1853,
      "▁vis": 1854,
      "vert": 1855,
      "▁Le": 1856,
      "AB": 1857,
      "result": 1858,
      "▁next": 1859,
      "come": 1860,
      "db": 1861,
      "Man": 1862,
      "可能": 1863,
      "tract": 1864,
      "方式": 1865,
      "▁program": 1866,
      "At": 1867,
      "lete": 1868,
      "icle": 1869,
      "inter": 1870,
      "((": 1871,
      "\\\"></": 1872,
      "生产": 1873,
      "▁second": 1874,
      "CH": 1875,
      "^{": 1876,
      "▁IN": 1877,
      "Context": 1878,
      "length": 1879,
      "igned": 1880,
      "▁请": 1881,
      "iable": 1882,
      "ING": 1883,
      "▁event": 1884,
      "▁mov": 1885,
      "ness": 1886,
      "▁quest": 1887,
      "itions": 1888,
      "▁world": 1889,
      "安全": 1890,
      "▁init": 1891,
      "top": 1892,
      "▁allow": 1893,
      "▁proble": 1894,
      "He": 1895,
      "▁poss": 1896,
      "info": 1897,
      "stance": 1898,
      "情况": 1899,
      "Log": 1900,
      "▁appro": 1901,
      "my": 1902,
      "▁ter": 1903,
      "ross": 1904,
      "mit": 1905,
      "ENT": 1906,
      "▁ke": 1907,
      "个人": 1908,
      "orn": 1909,
      "ags": 1910,
      "\\\"]": 1911,
      "enu": 1912,
      "###": 1913,
      "LO": 1914,
      "rop": 1915,
      "tc": 1916,
      "▁life": 1917,
      "valid": 1918,
      "Param": 1919,
      "世界": 1920,
      "▁input": 1921,
      "选择": 1922,
      "▁view": 1923,
      "Class": 1924,
      "▁great": 1925,
      "arm": 1926,
      "ape": 1927,
      "raw": 1928,
      "logy": 1929,
      "table": 1930,
      "ght": 1931,
      "roller": 1932,
      "研究": 1933,
      "Ar": 1934,
      "ingle": 1935,
      "ron": 1936,
      "trans": 1937,
      "▁java": 1938,
      "umn": 1939,
      "icro": 1940,
      "▁ref": 1941,
      "nex": 1942,
      "att": 1943,
      "color": 1944,
      "▁team": 1945,
      "▁local": 1946,
      "ftware": 1947,
      "▁break": 1948,
      "电话": 1949,
      "imit": 1950,
      "-\\": 1951,
      "▁发表": 1952,
      "nfrom": 1953,
      "▁struct": 1954,
      "};\\": 1955,
      "bar": 1956,
      "的是": 1957,
      "▁place": 1958,
      "▁commun": 1959,
      "▁still": 1960,
      "▁fact": 1961,
      "ral": 1962,
      "reate": 1963,
      "▁throw": 1964,
      "olean": 1965,
      "IM": 1966,
      "▁home": 1967,
      "▁ins": 1968,
      "request": 1969,
      "wit": 1970,
      "▁typ": 1971,
      "第一": 1972,
      "thon": 1973,
      "ane": 1974,
      "▁loc": 1975,
      "tpublic": 1976,
      "group": 1977,
      "ploy": 1978,
      "▁chang": 1979,
      "nn": 1980,
      "▁message": 1981,
      "uck": 1982,
      "Up": 1983,
      "▁style": 1984,
      "ways": 1985,
      "anguage": 1986,
      "价格": 1987,
      "nb": 1988,
      "新闻": 1989,
      "des": 1990,
      "FF": 1991,
      "下载": 1992,
      "ived": 1993,
      "Size": 1994,
      "core": 1995,
      "▁est": 1996,
      "point": 1997,
      "▁arg": 1998,
      "中的": 1999,
      "Node": 2000,
      "PE": 2001,
      "iving": 2002,
      "▁pat": 2003,
      "ql": 2004,
      "▁without": 2005,
      "nR": 2006,
      "▁What": 2007,
      "Message": 2008,
      "▁So": 2009,
      "uf": 2010,
      "▁report": 2011,
      "field": 2012,
      "stand": 2013,
      "▁week": 2014,
      "max": 2015,
      "▁contin": 2016,
      "},\\": 2017,
      "roid": 2018,
      "nG": 2019,
      "ification": 2020,
      "ural": 2021,
      "Or": 2022,
      "][": 2023,
      "▁Is": 2024,
      "ital": 2025,
      "Field": 2026,
      "工程": 2027,
      "ading": 2028,
      "▁really": 2029,
      "define": 2030,
      "▁free": 2031,
      "img": 2032,
      "ULL": 2033,
      "▁On": 2034,
      "title": 2035,
      "ior": 2036,
      "▁/*": 2037,
      "clo": 2038,
      "pi": 2039,
      "num": 2040,
      "erg": 2041,
      "▁perform": 2042,
      "时候": 2043,
      "iled": 2044,
      "ident": 2045,
      "▁prot": 2046,
      "同时": 2047,
      "node": 2048,
      "meric": 2049,
      "▁Eng": 2050,
      "ules": 2051,
      "▁color": 2052,
      "▁Pr": 2053,
      "▁during": 2054,
      "orth": 2055,
      "其他": 2056,
      "ivity": 2057,
      "off": 2058,
      "ene": 2059,
      "ender": 2060,
      "评论": 2061,
      "▁around": 2062,
      "▁prov": 2063,
      "tings": 2064,
      "有限公司": 2065,
      "▁max": 2066,
      "nE": 2067,
      "function": 2068,
      "ium": 2069,
      "amespace": 2070,
      "▁change": 2071,
      "Code": 2072,
      "image": 2073,
      "ources": 2074,
      "ugg": 2075,
      "▁incre": 2076,
      "▁But": 2077,
      "iter": 2078,
      "AG": 2079,
      "▁Ind": 2080,
      "plement": 2081,
      "▁array": 2082,
      "UN": 2083,
      "▁tri": 2084,
      "nection": 2085,
      "▁partic": 2086,
      "viron": 2087,
      "▁happ": 2088,
      "utes": 2089,
      "lected": 2090,
      "IG": 2091,
      "▁produ": 2092,
      "part": 2093,
      "这样": 2094,
      "目前": 2095,
      "学习": 2096,
      "www": 2097,
      "▁three": 2098,
      "etwork": 2099,
      "▁Get": 2100,
      "dict": 2101,
      "oh": 2102,
      "分析": 2103,
      "▁service": 2104,
      "还是": 2105,
      "Qu": 2106,
      "etails": 2107,
      "▁()": 2108,
      "older": 2109,
      "Array": 2110,
      "好的": 2111,
      "As": 2112,
      "We": 2113,
      "ension": 2114,
      "政府": 2115,
      "assert": 2116,
      "▁cour": 2117,
      "▁effect": 2118,
      "▁love": 2119,
      "ogle": 2120,
      "Index": 2121,
      "▁To": 2122,
      "dir": 2123,
      "},": 2124,
      "thing": 2125,
      "ique": 2126,
      "body": 2127,
      "开始": 2128,
      "tx": 2129,
      "▁All": 2130,
      "网络": 2131,
      "▁care": 2132,
      "df": 2133,
      "▁too": 2134,
      "▁non": 2135,
      "▁They": 2136,
      "▁level": 2137,
      "▁di": 2138,
      "国际": 2139,
      "人员": 2140,
      "left": 2141,
      "ves": 2142,
      "doc": 2143,
      "indows": 2144,
      "▁table": 2145,
      "不能": 2146,
      "ci": 2147,
      "▁given": 2148,
      "aving": 2149,
      "onse": 2150,
      "投资": 2151,
      "Val": 2152,
      "af": 2153,
      "能力": 2154,
      "width": 2155,
      "ism": 2156,
      "bin": 2157,
      "summary": 2158,
      "src": 2159,
      "所以": 2160,
      "人民": 2161,
      "▁Fr": 2162,
      "▁left": 2163,
      "Hand": 2164,
      "nThis": 2165,
      "▁content": 2166,
      "ideo": 2167,
      "ift": 2168,
      "nal": 2169,
      "pert": 2170,
      "eters": 2171,
      "▁response": 2172,
      "Result": 2173,
      "cale": 2174,
      "▁nil": 2175,
      "!!": 2176,
      "atures": 2177,
      "ained": 2178,
      "US": 2179,
      "文化": 2180,
      "HE": 2181,
      "aces": 2182,
      "▁dat": 2183,
      "ai": 2184,
      "▁target": 2185,
      "check": 2186,
      "ability": 2187,
      "▁rece": 2188,
      "run": 2189,
      "bed": 2190,
      "args": 2191,
      "方面": 2192,
      "▁custom": 2193,
      "tribute": 2194,
      "\\\",\\\"": 2195,
      "array": 2196,
      "lobal": 2197,
      "build": 2198,
      "▁tech": 2199,
      "{{": 2200,
      "▁say": 2201,
      "▁eas": 2202,
      "▁old": 2203,
      "▁output": 2204,
      "▁mult": 2205,
      "是一": 2206,
      "ands": 2207,
      "sed": 2208,
      "▁review": 2209,
      "记者": 2210,
      "Def": 2211,
      "▁business": 2212,
      "ches": 2213,
      "opyright": 2214,
      "▁link": 2215,
      "Over": 2216,
      ">>": 2217,
      "anks": 2218,
      "▁ca": 2219,
      "cur": 2220,
      "/**\\": 2221,
      "filename": 2222,
      "```": 2223,
      "组织": 2224,
      "Title": 2225,
      "▁available": 2226,
      "▁coun": 2227,
      "ords": 2228,
      "ething": 2229,
      "▁pop": 2230,
      "down": 2231,
      "Ser": 2232,
      "▁range": 2233,
      "▁small": 2234,
      "▁going": 2235,
      "知道": 2236,
      "上海": 2237,
      "bug": 2238,
      "▁+=": 2239,
      "with": 2240,
      "./": 2241,
      "nclass": 2242,
      "istr": 2243,
      "post": 2244,
      "}{": 2245,
      "▁charact": 2246,
      "大的": 2247,
      "tes": 2248,
      "arge": 2249,
      "rix": 2250,
      "comp": 2251,
      "▁page": 2252,
      "place": 2253,
      "▁es": 2254,
      "▁Ad": 2255,
      "▁cond": 2256,
      "base": 2257,
      "light": 2258,
      "Of": 2259,
      "book": 2260,
      "▁She": 2261,
      "Build": 2262,
      "以上": 2263,
      "ternal": 2264,
      "▁head": 2265,
      "大学": 2266,
      "▁power": 2267,
      "ffic": 2268,
      "Al": 2269,
      "ories": 2270,
      "object": 2271,
      "tn": 2272,
      "itional": 2273,
      "单位": 2274,
      "IP": 2275,
      "▁AN": 2276,
      "▁game": 2277,
      "▁Cont": 2278,
      "责任": 2279,
      "▁None": 2280,
      "andom": 2281,
      "▁(!": 2282,
      "append": 2283,
      "▁Ap": 2284,
      "ety": 2285,
      "▁Ph": 2286,
      "itive": 2287,
      "▁There": 2288,
      "部分": 2289,
      "ought": 2290,
      "rist": 2291,
      "ittle": 2292,
      "irc": 2293,
      "status": 2294,
      "▁source": 2295,
      "▁conf": 2296,
      "▁image": 2297,
      "script": 2298,
      "vious": 2299,
      "nusing": 2300,
      "ibr": 2301,
      "▁List": 2302,
      "▁since": 2303,
      ".(": 2304,
      "了一": 2305,
      "TR": 2306,
      "▁Or": 2307,
      "▁Be": 2308,
      "odes": 2309,
      ".”": 2310,
      "▁Americ": 2311,
      "leg": 2312,
      "na": 2313,
      "Client": 2314,
      "▁https": 2315,
      "Response": 2316,
      "▁equ": 2317,
      "▁ear": 2318,
      "但是": 2319,
      "Element": 2320,
      "true": 2321,
      "vents": 2322,
      "▁|\\": 2323,
      "lex": 2324,
      "▁including": 2325,
      ".,": 2326,
      "istory": 2327,
      "std": 2328,
      "way": 2329,
      "注册": 2330,
      "MP": 2331,
      "▁consider": 2332,
      "head": 2333,
      "▁fa": 2334,
      "OS": 2335,
      "▁interest": 2336,
      "pen": 2337,
      "▁access": 2338,
      "ality": 2339,
      "环境": 2340,
      "以及": 2341,
      "\\\"><": 2342,
      "aterial": 2343,
      "▁src": 2344,
      "▁distribut": 2345,
      "▁values": 2346,
      "重要": 2347,
      "▁width": 2348,
      "iversity": 2349,
      "ulation": 2350,
      "▁put": 2351,
      "Manager": 2352,
      "▁index": 2353,
      "sole": 2354,
      "ither": 2355,
      "文章": 2356,
      "人的": 2357,
      "▁required": 2358,
      "▁success": 2359,
      "▁another": 2360,
      "▁few": 2361,
      "message": 2362,
      "query": 2363,
      "ina": 2364,
      "来源": 2365,
      "功能": 2366,
      "游戏": 2367,
      "美国": 2368,
      "▁document": 2369,
      "▁title": 2370,
      "数据": 2371,
      "Not": 2372,
      "▁sure": 2373,
      "ump": 2374,
      "version": 2375,
      "ormal": 2376,
      "▁Pl": 2377,
      "oute": 2378,
      "支持": 2379,
      "▁本": 2380,
      "vironment": 2381,
      "▁Cl": 2382,
      "我的": 2383,
      "Mod": 2384,
      "影响": 2385,
      "▁context": 2386,
      "ected": 2387,
      "button": 2388,
      "ling": 2389,
      "行业": 2390,
      "annel": 2391,
      "▁keep": 2392,
      "▁Add": 2393,
      "oud": 2394,
      "▁Im": 2395,
      "学校": 2396,
      "${": 2397,
      "orage": 2398,
      "ui": 2399,
      "OL": 2400,
      "urch": 2401,
      "自己的": 2402,
      "成为": 2403,
      "▁better": 2404,
      "ird": 2405,
      "▁中": 2406,
      "client": 2407,
      "block": 2408,
      "ready": 2409,
      "tra": 2410,
      "▁ret": 2411,
      "!--": 2412,
      "▁won": 2413,
      "▁ide": 2414,
      "▁include": 2415,
      "perties": 2416,
      "▁fri": 2417,
      "resh": 2418,
      "nRe": 2419,
      "sm": 2420,
      "abase": 2421,
      "){\\": 2422,
      "▁always": 2423,
      "▁something": 2424,
      "mon": 2425,
      "default": 2426,
      "ategory": 2427,
      "▁cho": 2428,
      "Date": 2429,
      "▁month": 2430,
      "Des": 2431,
      "../../": 2432,
      "ically": 2433,
      "▁np": 2434,
      "tf": 2435,
      "不同": 2436,
      "sl": 2437,
      "▁Int": 2438,
      "dat": 2439,
      "▁got": 2440,
      "表示": 2441,
      "output": 2442,
      "▁design": 2443,
      "大家": 2444,
      "format": 2445,
      "▁sit": 2446,
      "朋友": 2447,
      "▁organ": 2448,
      "到了": 2449,
      "cs": 2450,
      "▁present": 2451,
      "argin": 2452,
      "▁ident": 2453,
      "Fr": 2454,
      "▁orig": 2455,
      "▁pay": 2456,
      "nY": 2457,
      "▁bool": 2458,
      "ny": 2459,
      "ards": 2460,
      "icon": 2461,
      "▁};\\": 2462,
      "▁family": 2463,
      "▁step": 2464,
      "一定": 2465,
      "png": 2466,
      "▁block": 2467,
      "________": 2468,
      "▁full": 2469,
      "▁Te": 2470,
      "▁things": 2471,
      "▁anal": 2472,
      "▁specific": 2473,
      "AP": 2474,
      "任何": 2475,
      "soft": 2476,
      "lot": 2477,
      "SM": 2478,
      "CL": 2479,
      "ply": 2480,
      "您的": 2481,
      "da": 2482,
      "▁port": 2483,
      "len": 2484,
      "▁might": 2485,
      "▁important": 2486,
      "▁options": 2487,
      "▁control": 2488,
      "lean": 2489,
      "mission": 2490,
      "ately": 2491,
      "eta": 2492,
      "很多": 2493,
      "late": 2494,
      "from": 2495,
      "....": 2496,
      "Out": 2497,
      "▁school": 2498,
      "▁发表于": 2499,
      "open": 2500,
      "▁stand": 2501,
      "方法": 2502,
      "With": 2503,
      "▁results": 2504,
      "por": 2505,
      "▁beh": 2506,
      "这些": 2507,
      "ru": 2508,
      "▁Can": 2509,
      "],\\": 2510,
      "nconst": 2511,
      "▁adv": 2512,
      "ours": 2513,
      "Count": 2514,
      "▁gover": 2515,
      "都是": 2516,
      "mat": 2517,
      "ched": 2518,
      "代表": 2519,
      "ances": 2520,
      "plit": 2521,
      "▁OR": 2522,
      "▁node": 2523,
      "OD": 2524,
      "icy": 2525,
      "ML": 2526,
      "▁NULL": 2527,
      "▁base": 2528,
      "outh": 2529,
      "Trans": 2530,
      "ports": 2531,
      "以下": 2532,
      "▁[\\": 2533,
      "▁within": 2534,
      "▁exp": 2535,
      "Color": 2536,
      "▁based": 2537,
      "rect": 2538,
      "▁dem": 2539,
      "usic": 2540,
      "Status": 2541,
      "Group": 2542,
      "▁Man": 2543,
      "creen": 2544,
      "static": 2545,
      "ively": 2546,
      "▁feel": 2547,
      "▁At": 2548,
      "Pr": 2549,
      "eturn": 2550,
      "main": 2551,
      "质量": 2552,
      "开发": 2553,
      "current": 2554,
      "▁pub": 2555,
      "omen": 2556,
      "For": 2557,
      "Inter": 2558,
      "But": 2559,
      "Cl": 2560,
      "stru": 2561,
      "agement": 2562,
      "acy": 2563,
      "最后": 2564,
      "arr": 2565,
      "▁called": 2566,
      "OP": 2567,
      "▁issue": 2568,
      "▁Sc": 2569,
      "▁count": 2570,
      "▁fun": 2571,
      "科技": 2572,
      "local": 2573,
      "▁小": 2574,
      "abled": 2575,
      "▁law": 2576,
      "▁No": 2577,
      "▁Set": 2578,
      "▁在": 2579,
      "销售": 2580,
      "True": 2581,
      "▁map": 2582,
      "▁spe": 2583,
      "Em": 2584,
      "mark": 2585,
      "▁enc": 2586,
      "▁appe": 2587,
      "inc": 2588,
      "irt": 2589,
      "ights": 2590,
      "gress": 2591,
      "▁turn": 2592,
      "▁health": 2593,
      "你的": 2594,
      "提高": 2595,
      "pression": 2596,
      "▁cert": 2597,
      "ead": 2598,
      "▁little": 2599,
      "▁tot": 2600,
      "web": 2601,
      "ids": 2602,
      "hand": 2603,
      "▁pres": 2604,
      "▁sum": 2605,
      "出现": 2606,
      "ocus": 2607,
      "▁position": 2608,
      "▁possible": 2609,
      "发现": 2610,
      "null": 2611,
      "ocial": 2612,
      "全国": 2613,
      "具有": 2614,
      "EX": 2615,
      "▁action": 2616,
      "▁problem": 2617,
      "Input": 2618,
      "posit": 2619,
      "ero": 2620,
      "Be": 2621,
      "earch": 2622,
      "▁plan": 2623,
      "uest": 2624,
      "Override": 2625,
      "nuse": 2626,
      "\\\":\\\"": 2627,
      "▁$\\\\": 2628,
      "Loc": 2629,
      "▁provide": 2630,
      "设备": 2631,
      "城市": 2632,
      "nJ": 2633,
      "▁disc": 2634,
      "DI": 2635,
      "▁Gr": 2636,
      "amework": 2637,
      "▁grow": 2638,
      "uments": 2639,
      "math": 2640,
      "rel": 2641,
      "vol": 2642,
      "有关": 2643,
      "java": 2644,
      "▁against": 2645,
      "▁super": 2646,
      "arning": 2647,
      "非常": 2648,
      "▁update": 2649,
      "▁able": 2650,
      "find": 2651,
      "actory": 2652,
      "▁\\\"\\\"\\\"\\": 2653,
      "Is": 2654,
      "▁che": 2655,
      "作为": 2656,
      "Ad": 2657,
      "▁big": 2658,
      "ired": 2659,
      "▁job": 2660,
      "部门": 2661,
      "电子": 2662,
      "section": 2663,
      "▁\\\\\\": 2664,
      "cer": 2665,
      "▁hard": 2666,
      "▁fix": 2667,
      "mand": 2668,
      "ention": 2669,
      "更多": 2670,
      "une": 2671,
      "side": 2672,
      "▁seem": 2673,
      "vers": 2674,
      "地区": 2675,
      "▁lead": 2676,
      "孩子": 2677,
      "▁ans": 2678,
      "hes": 2679,
      "介绍": 2680,
      "输入": 2681,
      "])\\": 2682,
      "ipp": 2683,
      "▁cap": 2684,
      "ols": 2685,
      "nWe": 2686,
      "医院": 2687,
      "▁area": 2688,
      "▁US": 2689,
      "nexport": 2690,
      "page": 2691,
      "\\\\\\\\": 2692,
      "▁Bl": 2693,
      "ugin": 2694,
      "▁===": 2695,
      "▁install": 2696,
      "▁less": 2697,
      "▁never": 2698,
      "Table": 2699,
      "▁bas": 2700,
      "▁prof": 2701,
      "ilt": 2702,
      "uture": 2703,
      "▁bro": 2704,
      "amb": 2705,
      "commit": 2706,
      "rl": 2707,
      "▁Trans": 2708,
      "▁understand": 2709,
      "oney": 2710,
      "▁($": 2711,
      "直接": 2712,
      "App": 2713,
      "▁rest": 2714,
      "▁company": 2715,
      "flow": 2716,
      "server": 2717,
      "▁address": 2718,
      "▁short": 2719,
      "一些": 2720,
      "uid": 2721,
      "icrosoft": 2722,
      "▁valid": 2723,
      "▁come": 2724,
      "手机": 2725,
      "Property": 2726,
      "▁lot": 2727,
      "资源": 2728,
      "mt": 2729,
      "▁display": 2730,
      "typ": 2731,
      "知识": 2732,
      "ised": 2733,
      "adding": 2734,
      "▁prom": 2735,
      "▁done": 2736,
      "▁gre": 2737,
      "了解": 2738,
      "▁working": 2739,
      "▁sever": 2740,
      ")(": 2741,
      "Pl": 2742,
      "stars": 2743,
      "ially": 2744,
      "ottom": 2745,
      "标准": 2746,
      "cope": 2747,
      "adi": 2748,
      "▁account": 2749,
      "SS": 2750,
      "▁hum": 2751,
      "▁Des": 2752,
      "atter": 2753,
      "Button": 2754,
      "rm": 2755,
      "thers": 2756,
      "{\\\\": 2757,
      "ayout": 2758,
      "unk": 2759,
      "▁body": 2760,
      "AA": 2761,
      "▁que": 2762,
      "▁label": 2763,
      "▁>>": 2764,
      "合作": 2765,
      "本网": 2766,
      "ajor": 2767,
      "event": 2768,
      "Util": 2769,
      "uary": 2770,
      "Dis": 2771,
      "▁ask": 2772,
      "▁author": 2773,
      "board": 2774,
      "怎么": 2775,
      "对于": 2776,
      "▁single": 2777,
      "ended": 2778,
      "iod": 2779,
      "▁above": 2780,
      "())\\": 2781,
      "ESS": 2782,
      "▁大": 2783,
      "▁font": 2784,
      "}\\\\": 2785,
      "ured": 2786,
      "▁fore": 2787,
      "▁double": 2788,
      "ope": 2789,
      "yl": 2790,
      "mm": 2791,
      "也是": 2792,
      "▁instance": 2793,
      "▁Test": 2794,
      "来的": 2795,
      "▁cell": 2796,
      "uro": 2797,
      "ley": 2798,
      "▁give": 2799,
      "▁site": 2800,
      "EST": 2801,
      "负责": 2802,
      "▁Mar": 2803,
      "▁four": 2804,
      "▁offer": 2805,
      "ips": 2806,
      "//\\": 2807,
      "上的": 2808,
      "frac": 2809,
      "▁question": 2810,
      "▁water": 2811,
      "ATE": 2812,
      "ording": 2813,
      "▁already": 2814,
      "write": 2815,
      "repon": 2816,
      "host": 2817,
      "ots": 2818,
      "ently": 2819,
      "ifier": 2820,
      "法律": 2821,
      "reponame": 2822,
      "HT": 2823,
      "now": 2824,
      "▁mean": 2825,
      "发生": 2826,
      "ograph": 2827,
      "aper": 2828,
      "其中": 2829,
      "▁bit": 2830,
      "关于": 2831,
      "atform": 2832,
      "idual": 2833,
      "认为": 2834,
      "Reg": 2835,
      "▁exist": 2836,
      "▁occ": 2837,
      "Image": 2838,
      "处理": 2839,
      "▁eng": 2840,
      "▁En": 2841,
      "▁cost": 2842,
      "Act": 2843,
      "品牌": 2844,
      "由于": 2845,
      "opt": 2846,
      "▁either": 2847,
      "▁until": 2848,
      "dev": 2849,
      "▁opt": 2850,
      "下面": 2851,
      "quals": 2852,
      "▁match": 2853,
      "喜欢": 2854,
      "▁url": 2855,
      "▁Sp": 2856,
      "ably": 2857,
      "lin": 2858,
      "包括": 2859,
      "au": 2860,
      "raft": 2861,
      "▁files": 2862,
      "▁inte": 2863,
      "cast": 2864,
      "char": 2865,
      "客户": 2866,
      "学院": 2867,
      "关系": 2868,
      "显示": 2869,
      "ze": 2870,
      "dr": 2871,
      "Lo": 2872,
      "▁background": 2873,
      "▁client": 2874,
      "riter": 2875,
      "option": 2876,
      "发布": 2877,
      "▁exec": 2878,
      "([": 2879,
      "▁implement": 2880,
      "do": 2881,
      "▁When": 2882,
      "▁Fe": 2883,
      "msg": 2884,
      "Stream": 2885,
      "chema": 2886,
      "tm": 2887,
      "基本": 2888,
      "ume": 2889,
      "▁Christ": 2890,
      "())": 2891,
      "▁May": 2892,
      "ari": 2893,
      "...\\": 2894,
      "ination": 2895,
      "update": 2896,
      "▁copy": 2897,
      "▁height": 2898,
      "如何": 2899,
      "▁By": 2900,
      "▁invest": 2901,
      "omain": 2902,
      "Controller": 2903,
      "All": 2904,
      "lev": 2905,
      "Sub": 2906,
      "ury": 2907,
      "ponents": 2908,
      "context": 2909,
      "ung": 2910,
      "▁whe": 2911,
      "aint": 2912,
      "lished": 2913,
      "希望": 2914,
      "pack": 2915,
      "izer": 2916,
      "Pos": 2917,
      ">(": 2918,
      "rec": 2919,
      "New": 2920,
      "era": 2921,
      "Line": 2922,
      "idget": 2923,
      "▁descri": 2924,
      "erc": 2925,
      "本站": 2926,
      "▁float": 2927,
      "为了": 2928,
      "▁option": 2929,
      "▁ra": 2930,
      "ilar": 2931,
      "▁learn": 2932,
      "▁package": 2933,
      "培训": 2934,
      "aim": 2935,
      "▁market": 2936,
      "Str": 2937,
      "').": 2938,
      "gether": 2939,
      "ored": 2940,
      "治疗": 2941,
      "▁comput": 2942,
      "ball": 2943,
      "nfunc": 2944,
      "▁sent": 2945,
      "▁OF": 2946,
      "▁children": 2947,
      "amed": 2948,
      "oo": 2949,
      "rench": 2950,
      "ending": 2951,
      "▁times": 2952,
      "ators": 2953,
      "▁My": 2954,
      "▁story": 2955,
      "////////////////": 2956,
      "还有": 2957,
      "position": 2958,
      "▁software": 2959,
      "▁online": 2960,
      "▁date": 2961,
      "EL": 2962,
      "style": 2963,
      "assword": 2964,
      "▁command": 2965,
      "过程": 2966,
      "upport": 2967,
      "dit": 2968,
      "版权": 2969,
      "▁parent": 2970,
      "▁days": 2971,
      "▁extends": 2972,
      "ieve": 2973,
      "Component": 2974,
      "ides": 2975,
      "今年": 2976,
      "比较": 2977,
      "css": 2978,
      "ken": 2979,
      "ls": 2980,
      "ication": 2981,
      "sg": 2982,
      "oper": 2983,
      "rows": 2984,
      "mb": 2985,
      "pose": 2986,
      "这种": 2987,
      "▁File": 2988,
      "ysis": 2989,
      "imal": 2990,
      "文件": 2991,
      "ret": 2992,
      "else": 2993,
      "▁University": 2994,
      "▁language": 2995,
      "▁English": 2996,
      "witch": 2997,
      "▁pot": 2998,
      "▁impro": 2999,
      "ntity": 3000,
      "call": 3001,
      "nusername": 3002,
      "的时候": 3003,
      "▁miss": 3004,
      "TY": 3005,
      "▁later": 3006,
      "ython": 3007,
      "begin": 3008,
      "▁cou": 3009,
      "不会": 3010,
      "iction": 3011,
      "▁Br": 3012,
      "ills": 3013,
      "OM": 3014,
      "anch": 3015,
      "材料": 3016,
      "iple": 3017,
      "▁(\\": 3018,
      "(&": 3019,
      "推荐": 3020,
      "','": 3021,
      "▁App": 3022,
      "SON": 3023,
      "pository": 3024,
      "ibility": 3025,
      "▁represent": 3026,
      "▁search": 3027,
      "▁ver": 3028,
      "otal": 3029,
      "商品": 3030,
      "下一": 3031,
      "ada": 3032,
      "bit": 3033,
      "▁light": 3034,
      "npublic": 3035,
      "▁vol": 3036,
      "▁Do": 3037,
      "基础": 3038,
      "▁along": 3039,
      "Content": 3040,
      "图片": 3041,
      "ensor": 3042,
      "▁Not": 3043,
      "FA": 3044,
      "注意": 3045,
      "################": 3046,
      "▁large": 3047,
      "anel": 3048,
      "▁begin": 3049,
      "xy": 3050,
      "▁services": 3051,
      "Builder": 3052,
      "▁clear": 3053,
      "专家": 3054,
      "From": 3055,
      "Le": 3056,
      "\\\").": 3057,
      "作用": 3058,
      "▁pract": 3059,
      "或者": 3060,
      "source": 3061,
      "▁Cent": 3062,
      "▁len": 3063,
      "▁total": 3064,
      "last": 3065,
      "▁experience": 3066,
      "sk": 3067,
      "udio": 3068,
      "而且": 3069,
      "sol": 3070,
      "Base": 3071,
      "国内": 3072,
      "VER": 3073,
      "▁past": 3074,
      "Handler": 3075,
      "▁/>\\": 3076,
      "System": 3077,
      "rior": 3078,
      "第二": 3079,
      "Token": 3080,
      "▁red": 3081,
      "▁await": 3082,
      "uk": 3083,
      "cul": 3084,
      "gg": 3085,
      "uster": 3086,
      "经验": 3087,
      "▁Gener": 3088,
      "target": 3089,
      "▁side": 3090,
      "select": 3091,
      "▁】": 3092,
      "▁Dr": 3093,
      "nav": 3094,
      "Query": 3095,
      "eger": 3096,
      "ike": 3097,
      "▁special": 3098,
      "电影": 3099,
      "旅游": 3100,
      "efore": 3101,
      "汽车": 3102,
      "▁status": 3103,
      "bsite": 3104,
      "where": 3105,
      "▁relations": 3106,
      "点击": 3107,
      "▁network": 3108,
      "FI": 3109,
      "是否": 3110,
      "领导": 3111,
      "ymb": 3112,
      "ILES": 3113,
      "cor": 3114,
      "▁space": 3115,
      ",”": 3116,
      "位置": 3117,
      "▁load": 3118,
      "▁只": 3119,
      "lements": 3120,
      "▁server": 3121,
      "▁research": 3122,
      "plied": 3123,
      "])": 3124,
      "▁fac": 3125,
      "类型": 3126,
      "▁web": 3127,
      "service": 3128,
      "PO": 3129,
      "▁boolean": 3130,
      "ney": 3131,
      "▁role": 3132,
      "▁task": 3133,
      "\\\"\\\"": 3134,
      "▁property": 3135,
      "▁initial": 3136,
      "TH": 3137,
      "▁kind": 3138,
      "媒体": 3139,
      "▁write": 3140,
      "应该": 3141,
      "实现": 3142,
      "▁os": 3143,
      "alf": 3144,
      "isk": 3145,
      "▁Qu": 3146,
      "▁win": 3147,
      "utions": 3148,
      "科学": 3149,
      "▁prob": 3150,
      "po": 3151,
      "next": 3152,
      "Equal": 3153,
      "▁cover": 3154,
      "vider": 3155,
      "nvoid": 3156,
      "▁indiv": 3157,
      "inary": 3158,
      "▁les": 3159,
      "ialog": 3160,
      "illion": 3161,
      "▁obt": 3162,
      "apter": 3163,
      "env": 3164,
      "▁host": 3165,
      "nment": 3166,
      "看到": 3167,
      "nIt": 3168,
      "▁making": 3169,
      "uggest": 3170,
      "▁-->\\": 3171,
      "▁late": 3172,
      "ocket": 3173,
      "作品": 3174,
      "KE": 3175,
      "false": 3176,
      "cover": 3177,
      "▁leg": 3178,
      "UP": 3179,
      "不要": 3180,
      "▁redu": 3181,
      "Box": 3182,
      "▁known": 3183,
      "$\\\\": 3184,
      "▁changes": 3185,
      "CON": 3186,
      "active": 3187,
      "imum": 3188,
      "gan": 3189,
      "Instance": 3190,
      "ients": 3191,
      "地址": 3192,
      "▁q": 3193,
      "Action": 3194,
      "ging": 3195,
      "▁phot": 3196,
      "▁please": 3197,
      "aff": 3198,
      "response": 3199,
      "Per": 3200,
      "▁...": 3201,
      "▁season": 3202,
      "▁Ser": 3203,
      "posed": 3204,
      "▁Car": 3205,
      "各种": 3206,
      "▁auto": 3207,
      "▁record": 3208,
      "▁However": 3209,
      "那么": 3210,
      "健康": 3211,
      "ohn": 3212,
      "转载": 3213,
      "Point": 3214,
      "▁cur": 3215,
      "完成": 3216,
      "消费": 3217,
      "咨询": 3218,
      "▁sl": 3219,
      "nIf": 3220,
      "▁stop": 3221,
      "这一": 3222,
      "ament": 3223,
      "});\\": 3224,
      "▁several": 3225,
      "cd": 3226,
      "iff": 3227,
      "▁Copyright": 3228,
      "irm": 3229,
      "CE": 3230,
      "会议": 3231,
      "iment": 3232,
      "aged": 3233,
      "▁['": 3234,
      "require": 3235,
      "INT": 3236,
      "▁doesn": 3237,
      "Method": 3238,
      "▁why": 3239,
      "▁一": 3240,
      "module": 3241,
      "yc": 3242,
      "ibrary": 3243,
      "▁‘": 3244,
      "uccess": 3245,
      ".</": 3246,
      "▁together": 3247,
      "layer": 3248,
      "inst": 3249,
      "▁application": 3250,
      "Par": 3251,
      "wards": 3252,
      "▁That": 3253,
      "tb": 3254,
      "▁With": 3255,
      "会员": 3256,
      "▁expected": 3257,
      "回复": 3258,
      "▁others": 3259,
      "ptr": 3260,
      "▁having": 3261,
      ".\\\"\\": 3262,
      "▁near": 3263,
      "vis": 3264,
      "▁((": 3265,
      "Call": 3266,
      "精神": 3267,
      "必须": 3268,
      "▁French": 3269,
      "ayer": 3270,
      "▁uint": 3271,
      "ival": 3272,
      "cell": 3273,
      "解决": 3274,
      "▁format": 3275,
      "No": 3276,
      "room": 3277,
      "▁room": 3278,
      "资料": 3279,
      "免费": 3280,
      "▁created": 3281,
      "▁Inst": 3282,
      "adata": 3283,
      "▁See": 3284,
      "主题": 3285,
      "used": 3286,
      "aph": 3287,
      "▁study": 3288,
      "业务": 3289,
      "Gener": 3290,
      "▁ben": 3291,
      "▁IS": 3292,
      "Us": 3293,
      "%%": 3294,
      "▁limit": 3295,
      "▁thought": 3296,
      "And": 3297,
      "▁meas": 3298,
      "▁variable": 3299,
      "ino": 3300,
      "Number": 3301,
      "▁ann": 3302,
      "▁Ro": 3303,
      "▁deter": 3304,
      "apache": 3305,
      "当前": 3306,
      "论坛": 3307,
      "images": 3308,
      "▁Me": 3309,
      "▁—": 3310,
      "urther": 3311,
      "▁character": 3312,
      "▁Up": 3313,
      "阅读": 3314,
      "ones": 3315,
      "Hel": 3316,
      "说明": 3317,
      "有效": 3318,
      "参加": 3319,
      "这是": 3320,
      "stream": 3321,
      "▁fre": 3322,
      "cret": 3323,
      "TP": 3324,
      "ba": 3325,
      "▁arr": 3326,
      "▁Reg": 3327,
      "aring": 3328,
      "QL": 3329,
      "valu": 3330,
      "▁catch": 3331,
      "nbsp": 3332,
      "{\\\"": 3333,
      "▁low": 3334,
      "▁individual": 3335,
      "EM": 3336,
      "▁element": 3337,
      "▁tell": 3338,
      "▁needs": 3339,
      "控制": 3340,
      "进入": 3341,
      "▁border": 3342,
      "DB": 3343,
      "header": 3344,
      "ram": 3345,
      "▁lik": 3346,
      "▁Go": 3347,
      "操作": 3348,
      "▁Data": 3349,
      "▁fail": 3350,
      "能够": 3351,
      "tpr": 3352,
      "center": 3353,
      "▁below": 3354,
      "应用": 3355,
      "<?": 3356,
      "正确": 3357,
      "▁means": 3358,
      "▁Dis": 3359,
      "conom": 3360,
      "经营": 3361,
      "▁Ass": 3362,
      "alt": 3363,
      "show": 3364,
      "Page": 3365,
      "gen": 3366,
      "idden": 3367,
      "method": 3368,
      "ypes": 3369,
      "▁thing": 3370,
      "▁diff": 3371,
      "成功": 3372,
      "▁CON": 3373,
      "ynam": 3374,
      "▁meet": 3375,
      "xx": 3376,
      "计划": 3377,
      "gener": 3378,
      "project": 3379,
      "▁applic": 3380,
      "dated": 3381,
      "has": 3382,
      "▁development": 3383,
      "▁dev": 3384,
      "▁feature": 3385,
      "集团": 3386,
      "发表": 3387,
      "特别": 3388,
      "▁args": 3389,
      "pha": 3390,
      "产业": 3391,
      "ounds": 3392,
      "uly": 3393,
      "iddle": 3394,
      "unch": 3395,
      "▁State": 3396,
      "▁major": 3397,
      "▁American": 3398,
      "Null": 3399,
      "aps": 3400,
      "imary": 3401,
      "▁div": 3402,
      "Start": 3403,
      "▁gl": 3404,
      "▁Em": 3405,
      "开展": 3406,
      "TO": 3407,
      "ado": 3408,
      "process": 3409,
      "▁close": 3410,
      "▁away": 3411,
      "▁expl": 3412,
      "▁due": 3413,
      ".”\\": 3414,
      "Source": 3415,
      "▁Bo": 3416,
      "aging": 3417,
      "An": 3418,
      "▁vari": 3419,
      "ama": 3420,
      "ison": 3421,
      "▁often": 3422,
      "机构": 3423,
      "这里": 3424,
      "▁looking": 3425,
      "▁的": 3426,
      "Version": 3427,
      "▁common": 3428,
      "▁margin": 3429,
      "height": 3430,
      "▁length": 3431,
      "Run": 3432,
      "▁environment": 3433,
      "获得": 3434,
      "Entity": 3435,
      "▁course": 3436,
      "▁answer": 3437,
      "Ph": 3438,
      "▁新": 3439,
      "▁far": 3440,
      "因此": 3441,
      "消息": 3442,
      "▁previous": 3443,
      "umb": 3444,
      "Create": 3445,
      "最新": 3446,
      "▁center": 3447,
      "uint": 3448,
      "▁today": 3449,
      "yles": 3450,
      "▁works": 3451,
      "▁points": 3452,
      "▁echo": 3453,
      "采用": 3454,
      "Url": 3455,
      "中文": 3456,
      "pected": 3457,
      "▁ant": 3458,
      "push": 3459,
      "▁added": 3460,
      "▁depend": 3461,
      "XX": 3462,
      "ship": 3463,
      "不过": 3464,
      "▁connect": 3465,
      "Factory": 3466,
      "老师": 3467,
      "achine": 3468,
      "avel": 3469,
      "▁Ab": 3470,
      "ica": 3471,
      "▁least": 3472,
      "▁series": 3473,
      "Ref": 3474,
      "计算": 3475,
      "params": 3476,
      "▁particular": 3477,
      "▁第": 3478,
      "▁Per": 3479,
      "▁人": 3480,
      "ring": 3481,
      "名称": 3482,
      "Ap": 3483,
      "▁house": 3484,
      "▁students": 3485,
      "▁buy": 3486,
      "obj": 3487,
      "运动": 3488,
      "▁writing": 3489,
      "▁once": 3490,
      "OC": 3491,
      "LI": 3492,
      "first": 3493,
      "Options": 3494,
      "▁elect": 3495,
      "rodu": 3496,
      "一般": 3497,
      "结果": 3498,
      "看该": 3499,
      "▁members": 3500,
      "amples": 3501,
      "建议": 3502,
      "▁::": 3503,
      "▁Cal": 3504,
      "政策": 3505,
      "hy": 3506,
      "利用": 3507,
      "endif": 3508,
      "▁protected": 3509,
      "author": 3510,
      "▁associ": 3511,
      "parent": 3512,
      "▁ve": 3513,
      "▁simple": 3514,
      "▁invol": 3515,
      "▁Log": 3516,
      "▁Object": 3517,
      "ogn": 3518,
      "▁Med": 3519,
      "fa": 3520,
      "增加": 3521,
      "ANT": 3522,
      "▁These": 3523,
      "▁United": 3524,
      "options": 3525,
      "struction": 3526,
      "存在": 3527,
      "gt": 3528,
      "地方": 3529,
      "银行": 3530,
      "admin": 3531,
      "教学": 3532,
      "stract": 3533,
      "▁relationship": 3534,
      "▁community": 3535,
      "number": 3536,
      "▁music": 3537,
      "ding": 3538,
      "tfor": 3539,
      "spec": 3540,
      "起来": 3541,
      "▁Ste": 3542,
      "一直": 3543,
      "otion": 3544,
      "▁mag": 3545,
      "imate": 3546,
      "酒店": 3547,
      "\\\\\\\"": 3548,
      "ilter": 3549,
      ")$": 3550,
      "▁provided": 3551,
      "▁Co": 3552,
      "ising": 3553,
      "系列": 3554,
      "token": 3555,
      "▁makes": 3556,
      "ering": 3557,
      "SMILES": 3558,
      "▁complet": 3559,
      "ires": 3560,
      "▁select": 3561,
      "ounc": 3562,
      "icult": 3563,
      "Http": 3564,
      "most": 3565,
      "igr": 3566,
      "▁Par": 3567,
      "两个": 3568,
      "strong": 3569,
      "▁})\\": 3570,
      "▁food": 3571,
      "MS": 3572,
      "▁distributed": 3573,
      "▁email": 3574,
      "filter": 3575,
      "Fl": 3576,
      "▁Min": 3577,
      "▁Fl": 3578,
      "change": 3579,
      "▁pack": 3580,
      "▁API": 3581,
      "觉得": 3582,
      "join": 3583,
      "▁track": 3584,
      "▁neg": 3585,
      "utils": 3586,
      "▁whether": 3587,
      "ferences": 3588,
      "▁mar": 3589,
      "ites": 3590,
      "({": 3591,
      "▁hig": 3592,
      "font": 3593,
      "cr": 3594,
      "▁features": 3595,
      "HO": 3596,
      "ASS": 3597,
      "ued": 3598,
      "▁der": 3599,
      "▁}}": 3600,
      "Server": 3601,
      "▁【": 3602,
      "///": 3603,
      "---\\": 3604,
      "▁NOT": 3605,
      "▁Mon": 3606,
      "({\\": 3607,
      "▁actually": 3608,
      "▁One": 3609,
      "▁mom": 3610,
      "irection": 3611,
      "lang": 3612,
      "行为": 3613,
      "历史": 3614,
      "输出": 3615,
      "aa": 3616,
      "▁video": 3617,
      "▁offic": 3618,
      "▁except": 3619,
      "▁THE": 3620,
      "▁started": 3621,
      "})\\": 3622,
      "pg": 3623,
      "▁money": 3624,
      "年的": 3625,
      "积极": 3626,
      "▁strong": 3627,
      "保护": 3628,
      "Rec": 3629,
      "建筑": 3630,
      "Default": 3631,
      "▁enough": 3632,
      "sv": 3633,
      "ni": 3634,
      "Block": 3635,
      "查看": 3636,
      "▁det": 3637,
      "▁imp": 3638,
      "▁chall": 3639,
      "sure": 3640,
      "joy": 3641,
      "oll": 3642,
      "ops": 3643,
      "不断": 3644,
      "▁social": 3645,
      "▁po": 3646,
      "▁suggest": 3647,
      "docs": 3648,
      "他的": 3649,
      "Read": 3650,
      "▁didn": 3651,
      "parse": 3652,
      "▁material": 3653,
      "avor": 3654,
      "登录": 3655,
      "交易": 3656,
      "▁talk": 3657,
      "omet": 3658,
      "▁Ne": 3659,
      "etch": 3660,
      "▁women": 3661,
      "oman": 3662,
      "bb": 3663,
      "curity": 3664,
      "▁city": 3665,
      "obile": 3666,
      "Command": 3667,
      "▁联系": 3668,
      "之后": 3669,
      "▁Act": 3670,
      "SI": 3671,
      "▁employ": 3672,
      "▁visit": 3673,
      "首页": 3674,
      "ele": 3675,
      "ilities": 3676,
      "rypt": 3677,
      "看该作者": 3678,
      "float": 3679,
      "ster": 3680,
      "hel": 3681,
      "▁certain": 3682,
      "条件": 3683,
      "Check": 3684,
      "万元": 3685,
      "▁focus": 3686,
      "▁à": 3687,
      "水平": 3688,
      "emplate": 3689,
      "留言": 3690,
      "files": 3691,
      "nnamespace": 3692,
      "▁reason": 3693,
      "pc": 3694,
      "▁though": 3695,
      "On": 3696,
      "root": 3697,
      "今天": 3698,
      "signed": 3699,
      "检查": 3700,
      "：\\": 3701,
      "depend": 3702,
      "虽然": 3703,
      "判断": 3704,
      "]);\\": 3705,
      "Label": 3706,
      "apping": 3707,
      "▁tre": 3708,
      "小时": 3709,
      "▁box": 3710,
      "效果": 3711,
      "▁become": 3712,
      "▁query": 3713,
      "只有": 3714,
      "▁teach": 3715,
      "Task": 3716,
      "ached": 3717,
      "▁ID": 3718,
      "▁types": 3719,
      "End": 3720,
      "vo": 3721,
      "gre": 3722,
      "();": 3723,
      "▁issues": 3724,
      "一起": 3725,
      "▁${": 3726,
      "unity": 3727,
      "`,": 3728,
      "▁android": 3729,
      "nology": 3730,
      "fect": 3731,
      "quence": 3732,
      "▁details": 3733,
      "网上": 3734,
      "Buffer": 3735,
      "工业": 3736,
      "▁discuss": 3737,
      "]:": 3738,
      "eline": 3739,
      "inition": 3740,
      "▁;": 3741,
      "email": 3742,
      "▁ess": 3743,
      "规定": 3744,
      "utor": 3745,
      "▁hold": 3746,
      "▁du": 3747,
      "▁Some": 3748,
      "原因": 3749,
      "▁future": 3750,
      "▁air": 3751,
      "ters": 3752,
      "▁similar": 3753,
      "nown": 3754,
      "编辑": 3755,
      "ving": 3756,
      "UM": 3757,
      "综合": 3758,
      "ause": 3759,
      "▁film": 3760,
      "![": 3761,
      "Listener": 3762,
      "control": 3763,
      "感觉": 3764,
      "属于": 3765,
      "▁running": 3766,
      "rt": 3767,
      "inate": 3768,
      "▁只看该作者": 3769,
      "oss": 3770,
      "nV": 3771,
      "clus": 3772,
      "nYou": 3773,
      "SP": 3774,
      "Sc": 3775,
      "▁不": 3776,
      "在线": 3777,
      "▁signific": 3778,
      "结构": 3779,
      "▁express": 3780,
      "▁treat": 3781,
      "▁original": 3782,
      "▁easy": 3783,
      "一次": 3784,
      "aken": 3785,
      "level": 3786,
      "aset": 3787,
      "▁happen": 3788,
      "tributes": 3789,
      "tthis": 3790,
      "see": 3791,
      "然后": 3792,
      "istry": 3793,
      "▁personal": 3794,
      "……": 3795,
      "▁period": 3796,
      "▁\\\"/": 3797,
      "▁clean": 3798,
      "▁sw": 3799,
      "istic": 3800,
      "▁educ": 3801,
      "FT": 3802,
      "一步": 3803,
      "oding": 3804,
      "关注": 3805,
      "我国": 3806,
      "ocol": 3807,
      "▁God": 3808,
      "▁getting": 3809,
      "电视": 3810,
      "一样": 3811,
      "▁Pol": 3812,
      "SC": 3813,
      "ouch": 3814,
      "ony": 3815,
      "%,": 3816,
      "▁Part": 3817,
      "考试": 3818,
      "#\\": 3819,
      "▁Def": 3820,
      "▁human": 3821,
      "master": 3822,
      "itted": 3823,
      "ries": 3824,
      "je": 3825,
      "nms": 3826,
      "ises": 3827,
      "ocker": 3828,
      "URL": 3829,
      "ias": 3830,
      "ana": 3831,
      "gor": 3832,
      "▁yet": 3833,
      "▁activ": 3834,
      "abor": 3835,
      "▁row": 3836,
      "Valid": 3837,
      "tag": 3838,
      "交通": 3839,
      "space": 3840,
      "▁dest": 3841,
      "ymbol": 3842,
      "sw": 3843,
      "UI": 3844,
      "▁amount": 3845,
      "▁says": 3846,
      "的大": 3847,
      "uit": 3848,
      "▁energ": 3849,
      "▁doing": 3850,
      "▁potential": 3851,
      "之间": 3852,
      "mem": 3853,
      "新的": 3854,
      "Link": 3855,
      "自然": 3856,
      "fully": 3857,
      "▁json": 3858,
      "aug": 3859,
      "一下": 3860,
      "▁continue": 3861,
      "iam": 3862,
      "▁module": 3863,
      "Gr": 3864,
      "ube": 3865,
      "▁ever": 3866,
      "▁console": 3867,
      "bum": 3868,
      "▁agre": 3869,
      "essages": 3870,
      "帮助": 3871,
      "▁country": 3872,
      "EC": 3873,
      "enn": 3874,
      "Resource": 3875,
      "▁early": 3876,
      "范围": 3877,
      "▁indust": 3878,
      "irtual": 3879,
      "▁wait": 3880,
      "▁Jan": 3881,
      "▁correct": 3882,
      "common": 3883,
      "▁John": 3884,
      "广告": 3885,
      "ABLE": 3886,
      "提出": 3887,
      "▁store": 3888,
      "▁history": 3889,
      "PL": 3890,
      "▁website": 3891,
      "product": 3892,
      "错误": 3893,
      "▁move": 3894,
      "ORT": 3895,
      "▁join": 3896,
      "▁interface": 3897,
      "ln": 3898,
      "rest": 3899,
      "▁Ge": 3900,
      "ae": 3901,
      "▁general": 3902,
      "▁PR": 3903,
      "(),\\": 3904,
      "None": 3905,
      "▁products": 3906,
      "align": 3907,
      "upy": 3908,
      "=>": 3909,
      "加强": 3910,
      "ERR": 3911,
      "UE": 3912,
      "▁instead": 3913,
      "lt": 3914,
      "日本": 3915,
      "．\\": 3916,
      "▁quality": 3917,
      "▁polit": 3918,
      "respon": 3919,
      "fix": 3920,
      "▁World": 3921,
      "Update": 3922,
      "child": 3923,
      "▁events": 3924,
      "lections": 3925,
      "增长": 3926,
      "google": 3927,
      "nFor": 3928,
      "bf": 3929,
      "网友": 3930,
      "拥有": 3931,
      "▁Ed": 3932,
      "unt": 3933,
      "▁live": 3934,
      "mut": 3935,
      "ULT": 3936,
      "保证": 3937,
      "达到": 3938,
      "▁gen": 3939,
      "▁draw": 3940,
      "▁device": 3941,
      "▁contact": 3942,
      "PR": 3943,
      "▁face": 3944,
      "目标": 3945,
      "▁description": 3946,
      "chedu": 3947,
      "VE": 3948,
      "Layout": 3949,
      "(_": 3950,
      "icate": 3951,
      "cat": 3952,
      "▁cult": 3953,
      "IO": 3954,
      "*/\\": 3955,
      "EMA": 3956,
      "▁deal": 3957,
      "▁respons": 3958,
      "hent": 3959,
      "tvar": 3960,
      "▁price": 3961,
      "nvar": 3962,
      "▁hot": 3963,
      "▁needed": 3964,
      "电脑": 3965,
      "cel": 3966,
      "container": 3967,
      "关键": 3968,
      "only": 3969,
      "zure": 3970,
      "▁via": 3971,
      "▁foot": 3972,
      "日期": 3973,
      "形成": 3974,
      "unit": 3975,
      "招聘": 3976,
      "nOn": 3977,
      "▁fig": 3978,
      "▁True": 3979,
      "imple": 3980,
      "▁young": 3981,
      "▁models": 3982,
      "积分": 3983,
      "建立": 3984,
      "BU": 3985,
      "▁root": 3986,
      "graph": 3987,
      "▁respect": 3988,
      "exec": 3989,
      "lege": 3990,
      "description": 3991,
      "ales": 3992,
      "结合": 3993,
      "▁After": 3994,
      "year": 3995,
      "encies": 3996,
      "▁Intern": 3997,
      "▁Nov": 3998,
      "▁compet": 3999,
      "实际": 4000,
      "▁DE": 4001,
      "▁across": 4002,
      "▁Inter": 4003,
      "▁上": 4004,
      "▁[]": 4005,
      "▁took": 4006,
      "▁section": 4007,
      "欢迎": 4008,
      "▁sort": 4009,
      "▁resol": 4010,
      "ilit": 4011,
      "atural": 4012,
      "▁Comp": 4013,
      "▁terms": 4014,
      "▁pur": 4015,
      "▁recomm": 4016,
      "产生": 4017,
      "▁rights": 4018,
      "types": 4019,
      "▁quick": 4020,
      "▁men": 4021,
      "▁building": 4022,
      "▁larg": 4023,
      "▁Type": 4024,
      "▁training": 4025,
      "ges": 4026,
      "▁ax": 4027,
      "aced": 4028,
      "ds": 4029,
      "重点": 4030,
      "ili": 4031,
      "▁User": 4032,
      "教师": 4033,
      "报告": 4034,
      "自动": 4035,
      "Mode": 4036,
      "▁fund": 4037,
      "▁various": 4038,
      "空间": 4039,
      "Select": 4040,
      "细胞": 4041,
      "urope": 4042,
      "enses": 4043,
      "bt": 4044,
      "▁friend": 4045,
      "card": 4046,
      "reet": 4047,
      "ged": 4048,
      "继续": 4049,
      "~~~~": 4050,
      "▁Red": 4051,
      "▁Date": 4052,
      "音乐": 4053,
      "▁profession": 4054,
      "▁Count": 4055,
      "▁seen": 4056,
      "Provider": 4057,
      "──": 4058,
      "▁integr": 4059,
      "PC": 4060,
      "▁items": 4061,
      "▁night": 4062,
      "▁$(": 4063,
      "▁~": 4064,
      "▁region": 4065,
      "home": 4066,
      "也不": 4067,
      "ided": 4068,
      "structor": 4069,
      "▁press": 4070,
      "▁Rec": 4071,
      "▁Dep": 4072,
      "办公": 4073,
      "▁dep": 4074,
      "▁subject": 4075,
      "property": 4076,
      "▁performance": 4077,
      "izing": 4078,
      "交流": 4079,
      "▁comment": 4080,
      "浏览": 4081,
      "Output": 4082,
      "cf": 4083,
      "▁defined": 4084,
      "▁autom": 4085,
      "instance": 4086,
      "我们的": 4087,
      "▁中国": 4088,
      "auth": 4089,
      "▁government": 4090,
      "▁padding": 4091,
      "abs": 4092,
      "▁energy": 4093,
      "close": 4094,
      "▁filter": 4095,
      "▁member": 4096,
      "ga": 4097,
      "served": 4098,
      "ried": 4099,
      "制度": 4100,
      "mo": 4101,
      "▁users": 4102,
      "False": 4103,
      "mes": 4104,
      "▁bar": 4105,
      "though": 4106,
      "▁phys": 4107,
      "得到": 4108,
      "▁word": 4109,
      "▁handle": 4110,
      "观点": 4111,
      "▁global": 4112,
      "empty": 4113,
      "AY": 4114,
      "▁black": 4115,
      "需求": 4116,
      "▁pers": 4117,
      "▁West": 4118,
      "igation": 4119,
      "深圳": 4120,
      "▁accept": 4121,
      "语言": 4122,
      "---": 4123,
      "train": 4124,
      "eral": 4125,
      "gorith": 4126,
      "txt": 4127,
      "leased": 4128,
      "cm": 4129,
      ")=": 4130,
      "és": 4131,
      "attr": 4132,
      "▁location": 4133,
      "▁Return": 4134,
      "ho": 4135,
      "Json": 4136,
      "ctx": 4137,
      "▁mode": 4138,
      "remove": 4139,
      "Address": 4140,
      "▁benef": 4141,
      "▁loss": 4142,
      "ula": 4143,
      "CP": 4144,
      "▁async": 4145,
      "req": 4146,
      "()->": 4147,
      "ades": 4148,
      "TE": 4149,
      "OG": 4150,
      "nfunction": 4151,
      "pol": 4152,
      "ensions": 4153,
      "▁behav": 4154,
      "▁article": 4155,
      "Aut": 4156,
      "▁enjoy": 4157,
      "通知": 4158,
      "nAs": 4159,
      "▁States": 4160,
      "▁nov": 4161,
      "▁>=": 4162,
      "Comp": 4163,
      "[:": 4164,
      "▁release": 4165,
      "▁apply": 4166,
      "▁resource": 4167,
      "▁wr": 4168,
      "bool": 4169,
      "▁positive": 4170,
      "annot": 4171,
      "帖子": 4172,
      "只是": 4173,
      "▁circ": 4174,
      "基金": 4175,
      "▁came": 4176,
      "xml": 4177,
      "ynt": 4178,
      "▁window": 4179,
      "▁info": 4180,
      "rapper": 4181,
      "▁explo": 4182,
      "oto": 4183,
      "▁conditions": 4184,
      "verage": 4185,
      "比赛": 4186,
      "▁necess": 4187,
      "▁sat": 4188,
      "▁player": 4189,
      "dist": 4190,
      "▁ANY": 4191,
      "gl": 4192,
      "cp": 4193,
      "ARR": 4194,
      "address": 4195,
      "ledge": 4196,
      "fs": 4197,
      "ha": 4198,
      "不得": 4199,
      "dom": 4200,
      "exp": 4201,
      "del": 4202,
      "ij": 4203,
      "idge": 4204,
      "npackage": 4205,
      "▁received": 4206,
      "▁Rep": 4207,
      "▁included": 4208,
      "▁share": 4209,
      "ners": 4210,
      "全部": 4211,
      "▁send": 4212,
      "▁normal": 4213,
      "▁idea": 4214,
      "BA": 4215,
      "ORD": 4216,
      "▁hope": 4217,
      "▁mind": 4218,
      "delete": 4219,
      "Types": 4220,
      "Var": 4221,
      "sing": 4222,
      "Filter": 4223,
      "▁mass": 4224,
      "▁card": 4225,
      "▁button": 4226,
      "▁further": 4227,
      "Length": 4228,
      "▁Create": 4229,
      "▁compl": 4230,
      "▁coll": 4231,
      "▁pick": 4232,
      "acing": 4233,
      "___": 4234,
      "▁significant": 4235,
      "▁cut": 4236,
      "imer": 4237,
      "搜索": 4238,
      "▁age": 4239,
      "nK": 4240,
      "来自": 4241,
      "erman": 4242,
      "描述": 4243,
      "Off": 4244,
      "▁=\\": 4245,
      "▁Val": 4246,
      "actions": 4247,
      "▁flow": 4248,
      "▁camp": 4249,
      "ATION": 4250,
      "asing": 4251,
      "Web": 4252,
      "aur": 4253,
      "▁dig": 4254,
      "▁School": 4255,
      "ians": 4256,
      "▁bad": 4257,
      "▁render": 4258,
      "▁Oct": 4259,
      "zz": 4260,
      "sql": 4261,
      "acity": 4262,
      "inner": 4263,
      "▁ge": 4264,
      "▁doc": 4265,
      "values": 4266,
      "missions": 4267,
      "▁graph": 4268,
      "wise": 4269,
      "patch": 4270,
      "aven": 4271,
      "▁comes": 4272,
      "(\\\\": 4273,
      "PRO": 4274,
      "Sp": 4275,
      "location": 4276,
      "amera": 4277,
      "undle": 4278,
      "Module": 4279,
      "EMAIL": 4280,
      "Attribute": 4281,
      "ART": 4282,
      "▁went": 4283,
      "其它": 4284,
      "rs": 4285,
      "ointer": 4286,
      "package": 4287,
      "平台": 4288,
      "▁multiple": 4289,
      "vector": 4290,
      "艺术": 4291,
      "store": 4292,
      "Row": 4293,
      "la": 4294,
      "▁cannot": 4295,
      "mail": 4296,
      "其实": 4297,
      "模式": 4298,
      "▁HT": 4299,
      "RL": 4300,
      "广州": 4301,
      "▁save": 4302,
      "▁complete": 4303,
      "表现": 4304,
      "just": 4305,
      "▁City": 4306,
      "进一步": 4307,
      "ming": 4308,
      "▁Cor": 4309,
      "aker": 4310,
      "▁throws": 4311,
      "ccount": 4312,
      "▁song": 4313,
      "irectory": 4314,
      "hing": 4315,
      "▁beaut": 4316,
      "gn": 4317,
      "▁complex": 4318,
      "ialize": 4319,
      "CTION": 4320,
      "决定": 4321,
      "创新": 4322,
      "▁script": 4323,
      "react": 4324,
      "▁rate": 4325,
      "izes": 4326,
      "umns": 4327,
      "详细": 4328,
      "tprivate": 4329,
      "实施": 4330,
      "ceed": 4331,
      "amily": 4332,
      "entity": 4333,
      "Equals": 4334,
      "Pre": 4335,
      "▁有": 4336,
      "▁solution": 4337,
      "▁York": 4338,
      "▁und": 4339,
      "▁download": 4340,
      "▁Sup": 4341,
      "▁methods": 4342,
      "目的": 4343,
      "指令": 4344,
      "inding": 4345,
      "▁Aug": 4346,
      "Format": 4347,
      "▁questions": 4348,
      "▁tests": 4349,
      "变化": 4350,
      "▁admin": 4351,
      "rowser": 4352,
      "mar": 4353,
      "leep": 4354,
      "Back": 4355,
      "Function": 4356,
      "▁National": 4357,
      "ITY": 4358,
      "medi": 4359,
      "▁separ": 4360,
      "宣传": 4361,
      "▁months": 4362,
      "▁component": 4363,
      "全面": 4364,
      "PS": 4365,
      "▁+\\": 4366,
      "imest": 4367,
      "▁random": 4368,
      "▁blog": 4369,
      "▁provides": 4370,
      "CD": 4371,
      "一种": 4372,
      "▁stream": 4373,
      "ief": 4374,
      "具体": 4375,
      "▁mix": 4376,
      "答案": 4377,
      "mine": 4378,
      "anced": 4379,
      "!\\\"": 4380,
      "irth": 4381,
      "▁parameters": 4382,
      "▁Out": 4383,
      "▁trad": 4384,
      "▁media": 4385,
      "anged": 4386,
      "nTo": 4387,
      "pm": 4388,
      "git": 4389,
      "yt": 4390,
      "▁remove": 4391,
      "lation": 4392,
      "ober": 4393,
      "▁Gu": 4394,
      "Oper": 4395,
      "▁Your": 4396,
      "▁template": 4397,
      "▁related": 4398,
      "send": 4399,
      "▁token": 4400,
      "astic": 4401,
      "现代": 4402,
      "▁anything": 4403,
      "▁className": 4404,
      "▁unique": 4405,
      "weight": 4406,
      "ka": 4407,
      "closed": 4408,
      "oder": 4409,
      "▁Class": 4410,
      "▁addition": 4411,
      "▁games": 4412,
      "logical": 4413,
      "▁加": 4414,
      "scri": 4415,
      "ios": 4416,
      "Ob": 4417,
      "Control": 4418,
      "▁Aust": 4419,
      "无法": 4420,
      "ague": 4421,
      "声明": 4422,
      "Fe": 4423,
      "buf": 4424,
      "导致": 4425,
      "step": 4426,
      "SD": 4427,
      ">,": 4428,
      "split": 4429,
      "▁land": 4430,
      "▁Apr": 4431,
      "Utils": 4432,
      "II": 4433,
      "食品": 4434,
      "▁written": 4435,
      "oring": 4436,
      "患者": 4437,
      "task": 4438,
      "▁five": 4439,
      "▁\\\"\\\"\\\"": 4440,
      "prot": 4441,
      "▁Char": 4442,
      "▁contrib": 4443,
      "▁fall": 4444,
      "接受": 4445,
      "正在": 4446,
      "ements": 4447,
      "▁among": 4448,
      "icles": 4449,
      "经过": 4450,
      "nswer": 4451,
      "tint": 4452,
      "})": 4453,
      "及时": 4454,
      "▁Version": 4455,
      "▁ago": 4456,
      "▁connection": 4457,
      "▁white": 4458,
      "▁Mark": 4459,
      "造成": 4460,
      "分钟": 4461,
      "▁hours": 4462,
      "iet": 4463,
      "ambda": 4464,
      "istration": 4465,
      "面积": 4466,
      "rics": 4467,
      "Dat": 4468,
      "upyter": 4469,
      "购买": 4470,
      "imation": 4471,
      "资金": 4472,
      "的事": 4473,
      "iles": 4474,
      "framework": 4475,
      "'.": 4476,
      "▁South": 4477,
      "|\\": 4478,
      "▁econom": 4479,
      "API": 4480,
      "▁whole": 4481,
      "▁(\\\"": 4482,
      "python": 4483,
      "来说": 4484,
      "btn": 4485,
      "▁unit": 4486,
      "MM": 4487,
      "▁с": 4488,
      "毕业": 4489,
      "angle": 4490,
      "▁pie": 4491,
      "并不": 4492,
      "connect": 4493,
      "▁ach": 4494,
      "▁risk": 4495,
      "▁additional": 4496,
      "▁million": 4497,
      "▁front": 4498,
      "roy": 4499,
      "▁<=": 4500,
      "▁walk": 4501,
      "▁den": 4502,
      "▁session": 4503,
      "Api": 4504,
      "tml": 4505,
      "$(": 4506,
      "▁everything": 4507,
      "adius": 4508,
      "▁[]\\": 4509,
      "▁etc": 4510,
      "rew": 4511,
      "▁functions": 4512,
      "好友": 4513,
      "申请": 4514,
      "<!--": 4515,
      "▁Europe": 4516,
      "香港": 4517,
      "▁prior": 4518,
      "'),\\": 4519,
      "▁arch": 4520,
      "东西": 4521,
      "▁<!--": 4522,
      "▁learning": 4523,
      "NO": 4524,
      "▁Review": 4525,
      "adio": 4526,
      "▁Check": 4527,
      "▁Str": 4528,
      "▁dim": 4529,
      "真实": 4530,
      "▁hel": 4531,
      "▁trying": 4532,
      "fort": 4533,
      "▁注册": 4534,
      "iful": 4535,
      "▁engine": 4536,
      "▁shows": 4537,
      "回答": 4538,
      "iance": 4539,
      "▁estab": 4540,
      "conf": 4541,
      "orch": 4542,
      "完全": 4543,
      "▁strateg": 4544,
      "人们": 4545,
      "保持": 4546,
      "▁forward": 4547,
      "aries": 4548,
      "Part": 4549,
      "▁cases": 4550,
      "▁tw": 4551,
      "meta": 4552,
      "▁opport": 4553,
      "display": 4554,
      "先生": 4555,
      "ii": 4556,
      "有的": 4557,
      "▁half": 4558,
      "▁analysis": 4559,
      "左右": 4560,
      "▁rather": 4561,
      "tempt": 4562,
      "职业": 4563,
      "verse": 4564,
      "Arg": 4565,
      "ks": 4566,
      "▁Key": 4567,
      "uation": 4568,
      "▁Sm": 4569,
      "ille": 4570,
      "?\\\"": 4571,
      "omb": 4572,
      "long": 4573,
      "osp": 4574,
      "▁seems": 4575,
      "▁False": 4576,
      "istor": 4577,
      ".*": 4578,
      "▁stay": 4579,
      "$$": 4580,
      "▁EX": 4581,
      "人才": 4582,
      "erm": 4583,
      "同学": 4584,
      "▁é": 4585,
      "▁Sub": 4586,
      "▁aff": 4587,
      "▁paper": 4588,
      "▁mor": 4589,
      "Process": 4590,
      "gment": 4591,
      "▁problems": 4592,
      "▁align": 4593,
      "ipe": 4594,
      "nm": 4595,
      "}/": 4596,
      "ALL": 4597,
      "dim": 4598,
      "▁standard": 4599,
      "现场": 4600,
      "▁built": 4601,
      "anger": 4602,
      "Ext": 4603,
      "▁transform": 4604,
      "FL": 4605,
      "▁flo": 4606,
      "方案": 4607,
      "参与": 4608,
      "eq": 4609,
      "▁minutes": 4610,
      "社区": 4611,
      "save": 4612,
      "▁Post": 4613,
      "▁click": 4614,
      "▁named": 4615,
      "▁jour": 4616,
      "▁infl": 4617,
      "是在": 4618,
      "password": 4619,
      "template": 4620,
      "▁commit": 4621,
      "FO": 4622,
      "▁crit": 4623,
      "▁Open": 4624,
      "▁remov": 4625,
      "性的": 4626,
      "shape": 4627,
      "▁Array": 4628,
      "▁someone": 4629,
      "文本": 4630,
      "here": 4631,
      "价值": 4632,
      "▁screen": 4633,
      "KEY": 4634,
      "Write": 4635,
      "符合": 4636,
      "▁net": 4637,
      "GL": 4638,
      "▁particip": 4639,
      "▁register": 4640,
      "▁importance": 4641,
      "之一": 4642,
      "heet": 4643,
      "produ": 4644,
      "tty": 4645,
      "refix": 4646,
      "▁Will": 4647,
      "▁words": 4648,
      "\\\"/": 4649,
      "▁override": 4650,
      "▁obj": 4651,
      "▁mer": 4652,
      "▁entry": 4653,
      "Dep": 4654,
      "▁\\\"<": 4655,
      "▁friends": 4656,
      "▁Web": 4657,
      "atal": 4658,
      "airs": 4659,
      "▁Rem": 4660,
      "▁structure": 4661,
      "▁gir": 4662,
      "▁发布": 4663,
      "▁approach": 4664,
      "▁tag": 4665,
      "iday": 4666,
      "▁ey": 4667,
      "▁请根据": 4668,
      "Vis": 4669,
      "更新": 4670,
      "ounter": 4671,
      "etime": 4672,
      "▁perfect": 4673,
      "▁third": 4674,
      "agn": 4675,
      "------------": 4676,
      "hash": 4677,
      "的问题": 4678,
      "▁claim": 4679,
      "▁however": 4680,
      "调查": 4681,
      "++)": 4682,
      "ao": 4683,
      "告诉": 4684,
      "正常": 4685,
      "gy": 4686,
      "注明": 4687,
      "Header": 4688,
      "速度": 4689,
      "考查": 4690,
      "卫生": 4691,
      "byte": 4692,
      "tries": 4693,
      ".<": 4694,
      "▁intern": 4695,
      "Case": 4696,
      "报道": 4697,
      "反应": 4698,
      "Exec": 4699,
      "▁Run": 4700,
      "程序": 4701,
      "的话": 4702,
      "▁taking": 4703,
      "▁watch": 4704,
      "简单": 4705,
      "items": 4706,
      "Width": 4707,
      "农业": 4708,
      "努力": 4709,
      "商业": 4710,
      "▁lower": 4711,
      "sec": 4712,
      "jpg": 4713,
      "ptember": 4714,
      "elt": 4715,
      "▁uses": 4716,
      "▁systems": 4717,
      "▁currently": 4718,
      "▁returns": 4719,
      "▁Sk": 4720,
      "bor": 4721,
      "▁vi": 4722,
      "ervices": 4723,
      "can": 4724,
      "umer": 4725,
      "Spec": 4726,
      "anies": 4727,
      "▁predict": 4728,
      "ping": 4729,
      "session": 4730,
      "elling": 4731,
      "状态": 4732,
      "▁introdu": 4733,
      "IES": 4734,
      "ros": 4735,
      "▁difficult": 4736,
      "▁RE": 4737,
      "elves": 4738,
      "kg": 4739,
      "Ed": 4740,
      "tcase": 4741,
      "▁calcul": 4742,
      "debug": 4743,
      "came": 4744,
      "aves": 4745,
      "▁mot": 4746,
      "全球": 4747,
      "ERT": 4748,
      "Style": 4749,
      "生物": 4750,
      "Frame": 4751,
      "▁percent": 4752,
      "▁impact": 4753,
      "制作": 4754,
      "▁Sol": 4755,
      "▁heart": 4756,
      "ario": 4757,
      "▁March": 4758,
      "coming": 4759,
      "igger": 4760,
      "▁pict": 4761,
      "▁sex": 4762,
      "▁wor": 4763,
      "Windows": 4764,
      "chan": 4765,
      "ography": 4766,
      "▁Form": 4767,
      "pri": 4768,
      "device": 4769,
      "▁consum": 4770,
      "command": 4771,
      "主义": 4772,
      "个月": 4773,
      "准备": 4774,
      "▁lim": 4775,
      "UB": 4776,
      "规划": 4777,
      "家庭": 4778,
      "▁]\\": 4779,
      "出来": 4780,
      "甚至": 4781,
      "Met": 4782,
      "fin": 4783,
      "▁parameter": 4784,
      "▁你": 4785,
      "TYPE": 4786,
      "▁probably": 4787,
      "标题": 4788,
      "Max": 4789,
      "▁Art": 4790,
      "▁North": 4791,
      "▁death": 4792,
      "▁entire": 4793,
      "=\\\"#": 4794,
      "alle": 4795,
      "▁Bar": 4796,
      "mber": 4797,
      "▁More": 4798,
      "才能": 4799,
      "▁characters": 4800,
      "授权": 4801,
      "Container": 4802,
      "▁Please": 4803,
      "Core": 4804,
      "Menu": 4805,
      "▁became": 4806,
      "▁bring": 4807,
      "▁eff": 4808,
      "nThere": 4809,
      "▁pain": 4810,
      "Script": 4811,
      "▁ur": 4812,
      "Change": 4813,
      "auto": 4814,
      "普通": 4815,
      "after": 4816,
      "▁six": 4817,
      "▁contains": 4818,
      "的小": 4819,
      "▁decl": 4820,
      "ology": 4821,
      "ursor": 4822,
      "ен": 4823,
      "▁note": 4824,
      "▁believe": 4825,
      "den": 4826,
      "▁die": 4827,
      "▁hy": 4828,
      "Rem": 4829,
      "▁],\\": 4830,
      "▁column": 4831,
      "ham": 4832,
      "IND": 4833,
      "menu": 4834,
      "click": 4835,
      "then": 4836,
      "▁active": 4837,
      "Empty": 4838,
      "--\\": 4839,
      "改革": 4840,
      "STR": 4841,
      "▁weight": 4842,
      "▁WARR": 4843,
      "传统": 4844,
      "istics": 4845,
      "▁enter": 4846,
      "任务": 4847,
      "():\\": 4848,
      "是一个": 4849,
      "itude": 4850,
      "打印": 4851,
      "should": 4852,
      "▁tool": 4853,
      "Init": 4854,
      "容易": 4855,
      "思想": 4856,
      "▁Mc": 4857,
      "based": 4858,
      "▁taken": 4859,
      "▁ST": 4860,
      "▁Work": 4861,
      "aid": 4862,
      "▁Service": 4863,
      "gu": 4864,
      "▁inside": 4865,
      "用于": 4866,
      "▁June": 4867,
      "不仅": 4868,
      "英语": 4869,
      "ENSE": 4870,
      "▁higher": 4871,
      "出的": 4872,
      "▁elements": 4873,
      "buffer": 4874,
      "定的": 4875,
      "dk": 4876,
      "nstatic": 4877,
      "▁params": 4878,
      "uel": 4879,
      "iers": 4880,
      "▁'./": 4881,
      "体育": 4882,
      "▁increase": 4883,
      "▁management": 4884,
      "美元": 4885,
      "商务": 4886,
      "nWhat": 4887,
      "hib": 4888,
      "真的": 4889,
      "▁assum": 4890,
      "nap": 4891,
      "许多": 4892,
      "▁Public": 4893,
      "▁fit": 4894,
      "IB": 4895,
      "▁Ref": 4896,
      "▁View": 4897,
      "sequ": 4898,
      "frame": 4899,
      "fficient": 4900,
      "Tag": 4901,
      "▁exact": 4902,
      "工具": 4903,
      "▁properties": 4904,
      "Dir": 4905,
      "uses": 4906,
      "▁Time": 4907,
      "▁积分": 4908,
      "▁database": 4909,
      "▁bal": 4910,
      "▁天": 4911,
      "▁fields": 4912,
      "歌词": 4913,
      "▁album": 4914,
      "non": 4915,
      "▁purch": 4916,
      "▁experi": 4917,
      "__(": 4918,
      "edia": 4919,
      "▁prote": 4920,
      "Mat": 4921,
      "custom": 4922,
      "layout": 4923,
      "▁您": 4924,
      "▁names": 4925,
      "▁directory": 4926,
      "按照": 4927,
      "▁ep": 4928,
      "▁raise": 4929,
      "▁High": 4930,
      "▁memory": 4931,
      "▁collection": 4932,
      "▁'/": 4933,
      "▁exc": 4934,
      "CR": 4935,
      "idx": 4936,
      "DR": 4937,
      "Configuration": 4938,
      "▁Pe": 4939,
      "▁tax": 4940,
      "▁lib": 4941,
      "known": 4942,
      "Post": 4943,
      "这么": 4944,
      "jupyter": 4945,
      "Child": 4946,
      "like": 4947,
      "▁takes": 4948,
      "ese": 4949,
      "▁El": 4950,
      "▁configuration": 4951,
      "▁Fin": 4952,
      "ev": 4953,
      "vention": 4954,
      "OK": 4955,
      "▁delete": 4956,
      "ancial": 4957,
      "IAL": 4958,
      "▁images": 4959,
      "Click": 4960,
      "出了": 4961,
      "plot": 4962,
      "实验": 4963,
      "视频": 4964,
      "Order": 4965,
      "▁Pre": 4966,
      "win": 4967,
      ">();\\": 4968,
      "Position": 4969,
      "广东": 4970,
      "*\\": 4971,
      "▁db": 4972,
      "Thread": 4973,
      "超过": 4974,
      "ques": 4975,
      "models": 4976,
      "▁County": 4977,
      "▁espec": 4978,
      "atur": 4979,
      "▁news": 4980,
      "edit": 4981,
      "nif": 4982,
      "otes": 4983,
      "It": 4984,
      "Connection": 4985,
      "▁obtain": 4986,
      "▁sample": 4987,
      "▁Use": 4988,
      "▁ir": 4989,
      "Entry": 4990,
      "bottom": 4991,
      "ICENSE": 4992,
      "cache": 4993,
      "%.": 4994,
      "▁includes": 4995,
      "▁players": 4996,
      "随着": 4997,
      "ensive": 4998,
      "▁platform": 4999,
      "expected": 5000,
      "stack": 5001,
      "▁War": 5002,
      "保障": 5003,
      "委员": 5004,
      "▁Off": 5005,
      "▁Text": 5006,
      "Access": 5007,
      "Level": 5008,
      "▁General": 5009,
      "▁cross": 5010,
      "▁associated": 5011,
      "QU": 5012,
      "取得": 5013,
      "zer": 5014,
      "▁lines": 5015,
      "ão": 5016,
      "▁specified": 5017,
      "tab": 5018,
      "调整": 5019,
      "▁Park": 5020,
      "props": 5021,
      "Open": 5022,
      "▁according": 5023,
      "VAL": 5024,
      "▁Windows": 5025,
      "▁regard": 5026,
      "物质": 5027,
      "This": 5028,
      "system": 5029,
      "以来": 5030,
      "机械": 5031,
      "ynamic": 5032,
      "▁Read": 5033,
      "Char": 5034,
      "kit": 5035,
      "为什么": 5036,
      "▁April": 5037,
      "▁Write": 5038,
      "alled": 5039,
      "Ass": 5040,
      "▁vers": 5041,
      "保险": 5042,
      "成立": 5043,
      "▁term": 5044,
      "outer": 5045,
      "▁grad": 5046,
      "Option": 5047,
      "element": 5048,
      "▁simply": 5049,
      "Work": 5050,
      ":(": 5051,
      "▁likely": 5052,
      "ams": 5053,
      "▁library": 5054,
      "ZE": 5055,
      "Min": 5056,
      "rip": 5057,
      "意见": 5058,
      "▁isn": 5059,
      "▁п": 5060,
      "▁moment": 5061,
      "▁none": 5062,
      "weet": 5063,
      "▁His": 5064,
      "▁July": 5065,
      "▁selected": 5066,
      "▁production": 5067,
      "cember": 5068,
      "▁determin": 5069,
      "执行": 5070,
      "▁Comm": 5071,
      "行政": 5072,
      "▁appear": 5073,
      "职位": 5074,
      "blob": 5075,
      "rown": 5076,
      "▁util": 5077,
      "Params": 5078,
      "地产": 5079,
      "引起": 5080,
      "Bar": 5081,
      "设置": 5082,
      "▁areas": 5083,
      "▁个": 5084,
      "▁Just": 5085,
      "SH": 5086,
      "▁groups": 5087,
      "▁reading": 5088,
      "▁tour": 5089,
      "供应": 5090,
      "isf": 5091,
      "entry": 5092,
      "形式": 5093,
      "andid": 5094,
      "▁couple": 5095,
      "ORM": 5096,
      "▁conc": 5097,
      "spring": 5098,
      "第三": 5099,
      "▁\\\"\\\\": 5100,
      "▁AND": 5101,
      "▁Software": 5102,
      "▁challeng": 5103,
      "▁Fig": 5104,
      "▁extra": 5105,
      "lim": 5106,
      "IR": 5107,
      "ables": 5108,
      "DIR": 5109,
      "链接": 5110,
      "▁virtual": 5111,
      "Project": 5112,
      "▁Here": 5113,
      "ua": 5114,
      "▁nav": 5115,
      "干部": 5116,
      "▁buffer": 5117,
      "方便": 5118,
      "▁trust": 5119,
      "制造": 5120,
      "▁quite": 5121,
      "istance": 5122,
      "alpha": 5123,
      "vec": 5124,
      "▁nothing": 5125,
      "DF": 5126,
      "谢谢": 5127,
      "▁WIT": 5128,
      "▁resources": 5129,
      "分别": 5130,
      "']\\": 5131,
      "mode": 5132,
      "TER": 5133,
      "▁exception": 5134,
      "▁switch": 5135,
      "▁{}\\": 5136,
      "▁fire": 5137,
      "▁Aut": 5138,
      "GET": 5139,
      "(-": 5140,
      "▁recogn": 5141,
      "dt": 5142,
      "▁Error": 5143,
      "▁wonder": 5144,
      "安装": 5145,
      "NS": 5146,
      "▁Pres": 5147,
      "aches": 5148,
      "NC": 5149,
      "pay": 5150,
      "make": 5151,
      "quare": 5152,
      "以后": 5153,
      "稿件": 5154,
      "经理": 5155,
      "▁shown": 5156,
      "促进": 5157,
      "举行": 5158,
      "▁Now": 5159,
      "icens": 5160,
      "▁Mod": 5161,
      "adow": 5162,
      "Hash": 5163,
      "▁wanted": 5164,
      "▁<?": 5165,
      "grad": 5166,
      "▁Cre": 5167,
      "rief": 5168,
      "▁internal": 5169,
      "nHow": 5170,
      "▁ensure": 5171,
      "▁failed": 5172,
      "▁round": 5173,
      "before": 5174,
      "▁solid": 5175,
      "▁soon": 5176,
      "adem": 5177,
      "ATH": 5178,
      "offset": 5179,
      "eds": 5180,
      "total": 5181,
      "▁Hel": 5182,
      "承担": 5183,
      "▁argument": 5184,
      "nCh": 5185,
      "imestamp": 5186,
      "▁almost": 5187,
      "▁industry": 5188,
      "▁regular": 5189,
      "Interface": 5190,
      "群众": 5191,
      "BC": 5192,
      "▁released": 5193,
      "▁[\\\"": 5194,
      "▁empty": 5195,
      "Store": 5196,
      "机会": 5197,
      "Repository": 5198,
      "▁о": 5199,
      "ра": 5200,
      "▁精": 5201,
      "▁capt": 5202,
      "共同": 5203,
      "▁quant": 5204,
      "▁reference": 5205,
      "▁condition": 5206,
      "uestion": 5207,
      "解答": 5208,
      "▁La": 5209,
      "▁favor": 5210,
      "sign": 5211,
      "▁novel": 5212,
      "mas": 5213,
      "car": 5214,
      "▁repl": 5215,
      "▁ways": 5216,
      "▁played": 5217,
      "▁Our": 5218,
      "▁thread": 5219,
      "artment": 5220,
      "LL": 5221,
      "Pol": 5222,
      "▁Brit": 5223,
      "nEx": 5224,
      "▁pretty": 5225,
      "NA": 5226,
      "$_{": 5227,
      "▁cook": 5228,
      ">&": 5229,
      "▁{{": 5230,
      "eb": 5231,
      "▁upon": 5232,
      "▁German": 5233,
      "iting": 5234,
      "ellow": 5235,
      "ycle": 5236,
      "▁ful": 5237,
      "下面的": 5238,
      "gorithm": 5239,
      "equal": 5240,
      "aily": 5241,
      "▁August": 5242,
      "简介": 5243,
      "('/": 5244,
      "▁former": 5245,
      "▁held": 5246,
      "▁},": 5247,
      "▁в": 5248,
      "指导": 5249,
      "quires": 5250,
      "▁sense": 5251,
      "▁January": 5252,
      "多少": 5253,
      "▁】【": 5254,
      "金融": 5255,
      "并且": 5256,
      "ico": 5257,
      "丰富": 5258,
      "wner": 5259,
      "竞争": 5260,
      "身体": 5261,
      "PT": 5262,
      "▁tree": 5263,
      "▁Lo": 5264,
      "Window": 5265,
      "sy": 5266,
      "▁allows": 5267,
      "▁Code": 5268,
      "▁effort": 5269,
      "▁published": 5270,
      "▁Am": 5271,
      "ME": 5272,
      "明显": 5273,
      "你们": 5274,
      "主任": 5275,
      "收入": 5276,
      "uy": 5277,
      "bot": 5278,
      "设施": 5279,
      "▁Loc": 5280,
      "▁Build": 5281,
      "▁mut": 5282,
      "Vector": 5283,
      "▁stat": 5284,
      "bind": 5285,
      "▁located": 5286,
      "document": 5287,
      "job": 5288,
      "Unit": 5289,
      "toString": 5290,
      "rot": 5291,
      "▁September": 5292,
      "受到": 5293,
      "▁parse": 5294,
      "▁matter": 5295,
      "▁{\\\"": 5296,
      "vm": 5297,
      "ernel": 5298,
      "▁From": 5299,
      "AND": 5300,
      "▁bound": 5301,
      "▁comb": 5302,
      "▁looks": 5303,
      "▁indic": 5304,
      "坚持": 5305,
      "▁evalu": 5306,
      "▁flex": 5307,
      "▁hit": 5308,
      "▁war": 5309,
      "▁и": 5310,
      "ech": 5311,
      "atory": 5312,
      "nov": 5313,
      "▁msg": 5314,
      "afe": 5315,
      "replace": 5316,
      "semb": 5317,
      "ufact": 5318,
      "▁alt": 5319,
      "▁fast": 5320,
      "▁especially": 5321,
      "▁technology": 5322,
      "example": 5323,
      "运行": 5324,
      "witter": 5325,
      "▁Exception": 5326,
      "▁Free": 5327,
      "▁natural": 5328,
      "▁hom": 5329,
      "关闭": 5330,
      "▁Then": 5331,
      "Return": 5332,
      "▁average": 5333,
      "▁living": 5334,
      "▁header": 5335,
      "▁Are": 5336,
      ";&": 5337,
      "收藏": 5338,
      "\\\\\\": 5339,
      "Settings": 5340,
      "iler": 5341,
      "▁н": 5342,
      "心理": 5343,
      "政治": 5344,
      "▁train": 5345,
      "acter": 5346,
      "规模": 5347,
      "Cache": 5348,
      "民族": 5349,
      "Num": 5350,
      "Location": 5351,
      "▁October": 5352,
      "▁Map": 5353,
      "▁fn": 5354,
      "▁errors": 5355,
      "理解": 5356,
      "nes": 5357,
      "▁ang": 5358,
      "Draw": 5359,
      "亿元": 5360,
      "ferred": 5361,
      "记录": 5362,
      "▁security": 5363,
      "这样的": 5364,
      "ulti": 5365,
      "▁CO": 5366,
      "▁son": 5367,
      "asic": 5368,
      "▁maint": 5369,
      "不到": 5370,
      "特点": 5371,
      "/*\\": 5372,
      "CA": 5373,
      "ст": 5374,
      "GE": 5375,
      "▁Microsoft": 5376,
      "?:": 5377,
      "Net": 5378,
      "success": 5379,
      "▁hon": 5380,
      "nend": 5381,
      "▁actual": 5382,
      "▁interesting": 5383,
      "▁changed": 5384,
      "urity": 5385,
      "vas": 5386,
      "Helper": 5387,
      "▁matrix": 5388,
      "▁Don": 5389,
      ")]\\": 5390,
      "Target": 5391,
      "Dec": 5392,
      "ROM": 5393,
      "▁everyone": 5394,
      "▁negative": 5395,
      "▁ut": 5396,
      "vey": 5397,
      "▁.\\": 5398,
      "▁correspon": 5399,
      "ociety": 5400,
      "▁sem": 5401,
      "合理": 5402,
      "方向": 5403,
      "先进": 5404,
      "AGE": 5405,
      "▁avoid": 5406,
      "INE": 5407,
      "actor": 5408,
      "oice": 5409,
      "draw": 5410,
      "match": 5411,
      "eft": 5412,
      "▁contract": 5413,
      "Height": 5414,
      "▁told": 5415,
      "render": 5416,
      "pare": 5417,
      "▁cause": 5418,
      "▁Gre": 5419,
      "iant": 5420,
      "有一": 5421,
      "IF": 5422,
      "▁choose": 5423,
      "▁companies": 5424,
      "▁career": 5425,
      "acc": 5426,
      "▁knowledge": 5427,
      "更加": 5428,
      "register": 5429,
      "▁Mat": 5430,
      "新华": 5431,
      "Tool": 5432,
      "%;\\": 5433,
      "▁longer": 5434,
      "▁settings": 5435,
      "lose": 5436,
      "▁consist": 5437,
      "Stack": 5438,
      "transform": 5439,
      "IONS": 5440,
      "▁necessary": 5441,
      "handle": 5442,
      "''": 5443,
      "▁Name": 5444,
      "提升": 5445,
      "▁scale": 5446,
      "▁Thanks": 5447,
      "▁stre": 5448,
      "Session": 5449,
      "区域": 5450,
      "即可": 5451,
      "▁attack": 5452,
      "▁作者": 5453,
      "▁ste": 5454,
      "▁popular": 5455,
      "\\\"),": 5456,
      "▁measure": 5457,
      "▁national": 5458,
      "ien": 5459,
      "▁dam": 5460,
      "▁frame": 5461,
      "▁numbers": 5462,
      "media": 5463,
      "▁growth": 5464,
      "atives": 5465,
      "▁affect": 5466,
      "的高": 5467,
      "pring": 5468,
      "▁existing": 5469,
      "background": 5470,
      "▁policy": 5471,
      "优秀": 5472,
      "aste": 5473,
      "nprint": 5474,
      "▁attempt": 5475,
      "有些": 5476,
      "▁Group": 5477,
      "▁latest": 5478,
      "ownload": 5479,
      "▁frequ": 5480,
      "bruary": 5481,
      "aved": 5482,
      "之前": 5483,
      "If": 5484,
      "▁Inc": 5485,
      "romise": 5486,
      "▁ill": 5487,
      "▁feed": 5488,
      "END": 5489,
      "CS": 5490,
      "▁links": 5491,
      "风险": 5492,
      "▁wrong": 5493,
      "▁Ac": 5494,
      "▁recent": 5495,
      "BO": 5496,
      "充分": 5497,
      "▁jav": 5498,
      "Tree": 5499,
      "最大": 5500,
      "rb": 5501,
      "resource": 5502,
      "ById": 5503,
      "▁vert": 5504,
      "▁Cr": 5505,
      ")))\\": 5506,
      "领域": 5507,
      "▁auth": 5508,
      "▁Sch": 5509,
      "foot": 5510,
      "▁Sw": 5511,
      "Parameter": 5512,
      "enced": 5513,
      "UD": 5514,
      "fit": 5515,
      "keys": 5516,
      "category": 5517,
      "▁Found": 5518,
      "urance": 5519,
      "▁{@": 5520,
      "▁offset": 5521,
      "oe": 5522,
      "▁office": 5523,
      "▁outside": 5524,
      "assets": 5525,
      "、\\\"": 5526,
      "只要": 5527,
      "lice": 5528,
      "▁'<": 5529,
      "nWhen": 5530,
      "查询": 5531,
      "▁worked": 5532,
      "▁offers": 5533,
      "nAnd": 5534,
      "▁IP": 5535,
      "▁《": 5536,
      "▁ground": 5537,
      "▁states": 5538,
      "医疗": 5539,
      "tw": 5540,
      "(=": 5541,
      "▁hor": 5542,
      "每天": 5543,
      "sq": 5544,
      "agment": 5545,
      "hood": 5546,
      "Bl": 5547,
      "modules": 5548,
      "期间": 5549,
      "pat": 5550,
      "oes": 5551,
      "tmp": 5552,
      "▁progress": 5553,
      "▁password": 5554,
      "▁channel": 5555,
      "快速": 5556,
      "过程中": 5557,
      "Search": 5558,
      "gree": 5559,
      "召开": 5560,
      "▁directly": 5561,
      "FAULT": 5562,
      "▁Tech": 5563,
      "Column": 5564,
      "▁Let": 5565,
      "ERROR": 5566,
      "▁beautiful": 5567,
      "pop": 5568,
      "more": 5569,
      "农村": 5570,
      "jav": 5571,
      "时尚": 5572,
      "Br": 5573,
      "drop": 5574,
      "▁Austral": 5575,
      "▁itself": 5576,
      "arter": 5577,
      "▁party": 5578,
      "cloud": 5579,
      "移动": 5580,
      "评分": 5581,
      "nHe": 5582,
      "tree": 5583,
      "incip": 5584,
      "MO": 5585,
      "员工": 5586,
      "(*": 5587,
      "▁professional": 5588,
      "ATA": 5589,
      "▁machine": 5590,
      "ncy": 5591,
      "Port": 5592,
      "长期": 5593,
      "正式": 5594,
      "最高": 5595,
      "\\\"),\\": 5596,
      "▁iter": 5597,
      "▁vector": 5598,
      "▁sound": 5599,
      "usr": 5600,
      "GB": 5601,
      "ón": 5602,
      "▁November": 5603,
      "boot": 5604,
      "Dr": 5605,
      "free": 5606,
      "▁band": 5607,
      "▁年": 5608,
      "除了": 5609,
      "▁callback": 5610,
      "▁First": 5611,
      "▁board": 5612,
      "ees": 5613,
      "▁usually": 5614,
      "site": 5615,
      "▁returned": 5616,
      "▁Google": 5617,
      "second": 5618,
      "手术": 5619,
      "ria": 5620,
      "________________": 5621,
      "中华": 5622,
      "illing": 5623,
      "▁generate": 5624,
      "thern": 5625,
      "不可": 5626,
      "otype": 5627,
      "考虑": 5628,
      "grid": 5629,
      "copy": 5630,
      "holder": 5631,
      "▁Port": 5632,
      "▁considered": 5633,
      "ara": 5634,
      "case": 5635,
      "':\\": 5636,
      "\\\"]\\": 5637,
      "arrow": 5638,
      "apan": 5639,
      "nU": 5640,
      "chedule": 5641,
      "访问": 5642,
      "分类": 5643,
      "loss": 5644,
      "▁公司": 5645,
      "▁dom": 5646,
      "Top": 5647,
      "plete": 5648,
      "Body": 5649,
      "anges": 5650,
      "▁er": 5651,
      "ACK": 5652,
      "▁education": 5653,
      "联合": 5654,
      "cb": 5655,
      "▁),\\": 5656,
      "▁Center": 5657,
      "aul": 5658,
      "▁sing": 5659,
      "Ab": 5660,
      "的发展": 5661,
      "不错": 5662,
      "▁steps": 5663,
      "=\\\"{{": 5664,
      "措施": 5665,
      "Integer": 5666,
      "styles": 5667,
      "下午": 5668,
      "▁absol": 5669,
      "中央": 5670,
      "优势": 5671,
      "测试": 5672,
      "改变": 5673,
      "aml": 5674,
      "严重": 5675,
      "ped": 5676,
      "ctor": 5677,
      "public": 5678,
      "nAl": 5679,
      "▁mention": 5680,
      "成绩": 5681,
      "稳定": 5682,
      "OW": 5683,
      "减少": 5684,
      "icensed": 5685,
      "▁高": 5686,
      "▁yourself": 5687,
      "生命": 5688,
      "认识": 5689,
      "▁December": 5690,
      "▁Answer": 5691,
      "▁Stud": 5692,
      "cing": 5693,
      "▁deep": 5694,
      "安排": 5695,
      "▁phone": 5696,
      "▁parts": 5697,
      "\\\"));\\": 5698,
      "Bo": 5699,
      "▁++": 5700,
      "hell": 5701,
      "ndefined": 5702,
      "Product": 5703,
      "▁日": 5704,
      "Const": 5705,
      "double": 5706,
      "plicit": 5707,
      "▁birth": 5708,
      "统计": 5709,
      "func": 5710,
      "HER": 5711,
      "代理": 5712,
      "▁cas": 5713,
      "WAR": 5714,
      "文字": 5715,
      "access": 5716,
      "消费者": 5717,
      "cape": 5718,
      "▁movie": 5719,
      "aign": 5720,
      "▁ok": 5721,
      "▁behind": 5722,
      "▁patients": 5723,
      "▁population": 5724,
      "平方": 5725,
      "JSON": 5726,
      "ategories": 5727,
      "▁storage": 5728,
      "▁container": 5729,
      "Current": 5730,
      "数量": 5731,
      "▁Azure": 5732,
      "▁Value": 5733,
      "tep": 5734,
      "orig": 5735,
      "▁road": 5736,
      "▁JSON": 5737,
      "{}": 5738,
      "settings": 5739,
      "hs": 5740,
      "NE": 5741,
      "▁setting": 5742,
      "impl": 5743,
      "lood": 5744,
      "CK": 5745,
      "components": 5746,
      "▁behavior": 5747,
      "▁pull": 5748,
      "sort": 5749,
      "nSo": 5750,
      "所在": 5751,
      "attle": 5752,
      "WORD": 5753,
      "女性": 5754,
      "成本": 5755,
      "itect": 5756,
      "▁concept": 5757,
      "Collection": 5758,
      "针对": 5759,
      "nint": 5760,
      "equ": 5761,
      "▁proper": 5762,
      "▁useful": 5763,
      "comes": 5764,
      "疾病": 5765,
      "CM": 5766,
      "那些": 5767,
      "做好": 5768,
      "▁travel": 5769,
      "▁receive": 5770,
      "压力": 5771,
      "▁Air": 5772,
      "final": 5773,
      "ses": 5774,
      "▁understanding": 5775,
      "那个": 5776,
      "▁ign": 5777,
      "install": 5778,
      "▁北京": 5779,
      "参考": 5780,
      "volution": 5781,
      "▁notice": 5782,
      "▁comments": 5783,
      "ials": 5784,
      "Async": 5785,
      "dest": 5786,
      "▁operation": 5787,
      "▁treatment": 5788,
      "bert": 5789,
      "山东": 5790,
      "▁coming": 5791,
      "Render": 5792,
      "▁Color": 5793,
      "都有": 5794,
      "重庆": 5795,
      "真正": 5796,
      "ores": 5797,
      "▁town": 5798,
      "娱乐": 5799,
      "sup": 5800,
      "hem": 5801,
      "▁Model": 5802,
      "insert": 5803,
      "Mem": 5804,
      "▁techn": 5805,
      "covery": 5806,
      "▁goal": 5807,
      "▁distribution": 5808,
      "阶段": 5809,
      "▁tra": 5810,
      "chen": 5811,
      "apped": 5812,
      "州市": 5813,
      "▁began": 5814,
      "评价": 5815,
      "sem": 5816,
      "▁ones": 5817,
      "account": 5818,
      "help": 5819,
      "▁namespace": 5820,
      "▁sym": 5821,
      "▁House": 5822,
      "ecurity": 5823,
      "uge": 5824,
      "密码": 5825,
      "本题": 5826,
      "故选": 5827,
      "化学": 5828,
      "▁、": 5829,
      "故事": 5830,
      "rupt": 5831,
      "<<": 5832,
      "anner": 5833,
      "oom": 5834,
      "▁pour": 5835,
      "翻译": 5836,
      "体的": 5837,
      "resol": 5838,
      "当然": 5839,
      "QQ": 5840,
      "Application": 5841,
      "login": 5842,
      "出口": 5843,
      "▁fixed": 5844,
      "Auth": 5845,
      "▁Assert": 5846,
      "▁PM": 5847,
      "ington": 5848,
      "▁license": 5849,
      "▁Dav": 5850,
      "EXT": 5851,
      "Reader": 5852,
      "▁ready": 5853,
      "▁Math": 5854,
      "game": 5855,
      "▁sus": 5856,
      "▁staff": 5857,
      "▁recommend": 5858,
      "▁origin": 5859,
      "atio": 5860,
      "PP": 5861,
      "▁Bro": 5862,
      "scope": 5863,
      "ascript": 5864,
      "后的": 5865,
      "另外": 5866,
      "random": 5867,
      "▁URL": 5868,
      "DD": 5869,
      "▁choice": 5870,
      "▁btn": 5871,
      "当时": 5872,
      "Del": 5873,
      "浙江": 5874,
      "\\\":\\": 5875,
      "ifest": 5876,
      "nname": 5877,
      "Enc": 5878,
      "▁updated": 5879,
      "application": 5880,
      "▁qual": 5881,
      "icip": 5882,
      "一点": 5883,
      "Icon": 5884,
      "最近": 5885,
      "只能": 5886,
      "▁actions": 5887,
      "▁bre": 5888,
      "▁encour": 5889,
      "▁force": 5890,
      "大量": 5891,
      "因素": 5892,
      "hr": 5893,
      "▁designed": 5894,
      "▁activity": 5895,
      "现象": 5896,
      "也有": 5897,
      "认真": 5898,
      "▁lives": 5899,
      "▁leave": 5900,
      "itch": 5901,
      "ocr": 5902,
      "▁difference": 5903,
      "SL": 5904,
      "returns": 5905,
      "▁nice": 5906,
      "▁optim": 5907,
      "费用": 5908,
      "结束": 5909,
      "ensity": 5910,
      "criptor": 5911,
      "▁Apache": 5912,
      "enge": 5913,
      "oph": 5914,
      "是什么": 5915,
      "特色": 5916,
      "▁func": 5917,
      "thread": 5918,
      "words": 5919,
      "▁multi": 5920,
      "培养": 5921,
      "▁starting": 5922,
      "illed": 5923,
      "▁Ob": 5924,
      "esh": 5925,
      "持续": 5926,
      "▁convert": 5927,
      "▁theme": 5928,
      "ails": 5929,
      "egr": 5930,
      "程度": 5931,
      "确定": 5932,
      "年来": 5933,
      "range": 5934,
      "监督": 5935,
      "Description": 5936,
      "alls": 5937,
      "ares": 5938,
      "telse": 5939,
      "▁bed": 5940,
      "One": 5941,
      "规范": 5942,
      "过去": 5943,
      "▁shop": 5944,
      "Args": 5945,
      "▁reported": 5946,
      "▁worth": 5947,
      "事业": 5948,
      "Logger": 5949,
      "▁cells": 5950,
      "mitted": 5951,
      "player": 5952,
      "时代": 5953,
      "未来": 5954,
      "整个": 5955,
      "Activity": 5956,
      "办法": 5957,
      "plugin": 5958,
      "column": 5959,
      "▁throughout": 5960,
      "▁sil": 5961,
      "▁lost": 5962,
      "维护": 5963,
      "▁Cour": 5964,
      "ODO": 5965,
      "▁speed": 5966,
      "▁equal": 5967,
      "▁projects": 5968,
      "▁passed": 5969,
      "EE": 5970,
      "Mon": 5971,
      "cap": 5972,
      "quired": 5973,
      "LOG": 5974,
      "SET": 5975,
      "▁generated": 5976,
      "▁Top": 5977,
      "▁execut": 5978,
      "▁当前": 5979,
      "体系": 5980,
      "去年": 5981,
      "▁constant": 5982,
      "rate": 5983,
      "Account": 5984,
      "▁Returns": 5985,
      "ANTIES": 5986,
      "▁King": 5987,
      "rd": 5988,
      "▁shape": 5989,
      "适合": 5990,
      "▁io": 5991,
      "ampion": 5992,
      "意识": 5993,
      "互联": 5994,
      "pers": 5995,
      "Device": 5996,
      "▁objects": 5997,
      "▁Config": 5998,
      "▁asked": 5999,
      "课程": 6000,
      "实践": 6001,
      "统一": 6002,
      "▁allowed": 6003,
      "▁practice": 6004,
      "下列": 6005,
      "▁anyone": 6006,
      "▁books": 6007,
      ";;": 6008,
      "▁{}": 6009,
      "▁customer": 6010,
      "▁WARRANTIES": 6011,
      "Ptr": 6012,
      "▁rot": 6013,
      "▁operator": 6014,
      "就会": 6015,
      "band": 6016,
      "za": 6017,
      "▁Day": 6018,
      "(){\\": 6019,
      "dates": 6020,
      "▁Spec": 6021,
      "数字": 6022,
      "计算机": 6023,
      "bon": 6024,
      "▁temper": 6025,
      "▁byte": 6026,
      "users": 6027,
      "的工作": 6028,
      "TA": 6029,
      "▁inform": 6030,
      "▁club": 6031,
      "书记": 6032,
      "删除": 6033,
      "▁Health": 6034,
      "▁Pat": 6035,
      "▁gets": 6036,
      "points": 6037,
      "小学": 6038,
      "tre": 6039,
      "不少": 6040,
      "Parser": 6041,
      "▁Ag": 6042,
      "My": 6043,
      "▁\\\",": 6044,
      "▁Har": 6045,
      "▁('": 6046,
      "aby": 6047,
      "▁layer": 6048,
      "▁creating": 6049,
      "▁Her": 6050,
      "uple": 6051,
      "Record": 6052,
      "avy": 6053,
      "返回": 6054,
      "位于": 6055,
      "▁described": 6056,
      "phone": 6057,
      "组成": 6058,
      "strap": 6059,
      "scale": 6060,
      "▁Black": 6061,
      "▁levels": 6062,
      "Graph": 6063,
      "首先": 6064,
      "Callback": 6065,
      "广大": 6066,
      "▁East": 6067,
      "▁decision": 6068,
      "allow": 6069,
      "hold": 6070,
      "ipeline": 6071,
      "▁..": 6072,
      ",'": 6073,
      "aws": 6074,
      "▁Image": 6075,
      "ango": 6076,
      "nSt": 6077,
      "▁三": 6078,
      "SQL": 6079,
      "日报": 6080,
      "▁independ": 6081,
      "Template": 6082,
      "距离": 6083,
      "RES": 6084,
      "HOUT": 6085,
      "▁dé": 6086,
      "ership": 6087,
      "PORT": 6088,
      "劳动": 6089,
      "▁core": 6090,
      "front": 6091,
      "▁``": 6092,
      "▁React": 6093,
      "Local": 6094,
      "▁Project": 6095,
      ".)": 6096,
      "то": 6097,
      "ondon": 6098,
      "eg": 6099,
      "Impl": 6100,
      "▁aud": 6101,
      "▁FOR": 6102,
      "full": 6103,
      "_.": 6104,
      "加入": 6105,
      "大小": 6106,
      "▁Russ": 6107,
      "▁下一": 6108,
      "加工": 6109,
      "不知道": 6110,
      "Cell": 6111,
      "Values": 6112,
      "▁oil": 6113,
      "▁Sim": 6114,
      "▁Afr": 6115,
      ".__": 6116,
      "Document": 6117,
      "logger": 6118,
      "的新": 6119,
      "how": 6120,
      "协议": 6121,
      "▁contain": 6122,
      "sets": 6123,
      "营销": 6124,
      "asons": 6125,
      "▁mid": 6126,
      "▁elif": 6127,
      "▁essential": 6128,
      "bur": 6129,
      "MAX": 6130,
      "argument": 6131,
      "▁Home": 6132,
      "▁py": 6133,
      "itution": 6134,
      "▁February": 6135,
      "ining": 6136,
      "▁Option": 6137,
      "▁•": 6138,
      "▁variables": 6139,
      "Load": 6140,
      "▁weeks": 6141,
      "▁软件": 6142,
      "面的": 6143,
      "▁Christian": 6144,
      "▁cli": 6145,
      "▁javax": 6146,
      "▁End": 6147,
      "Range": 6148,
      "▁para": 6149,
      "ipment": 6150,
      "▁tools": 6151,
      "进行了": 6152,
      "oon": 6153,
      "oke": 6154,
      "▁Id": 6155,
      "Edit": 6156,
      "▁aspect": 6157,
      "omic": 6158,
      "▁resid": 6159,
      "▁Book": 6160,
      "的情况": 6161,
      "▁implementation": 6162,
      "▁lock": 6163,
      "▁playing": 6164,
      "ford": 6165,
      "▁inc": 6166,
      "agon": 6167,
      "fd": 6168,
      "▁prec": 6169,
      "addr": 6170,
      "arp": 6171,
      "term": 6172,
      "▁SO": 6173,
      "▁PRO": 6174,
      "Storage": 6175,
      "▁customers": 6176,
      "▁seek": 6177,
      "▁agreed": 6178,
      "确保": 6179,
      "▁Event": 6180,
      "equals": 6181,
      "▁ability": 6182,
      "ja": 6183,
      "▁Base": 6184,
      "▁bottom": 6185,
      "ini": 6186,
      "▁skills": 6187,
      "CN": 6188,
      "▁liter": 6189,
      "cmd": 6190,
      "如此": 6191,
      "names": 6192,
      "▁classes": 6193,
      "interface": 6194,
      "EO": 6195,
      "事件": 6196,
      "带来": 6197,
      ")、": 6198,
      "ental": 6199,
      "ugins": 6200,
      "▁saf": 6201,
      "生成": 6202,
      "▁effective": 6203,
      "SA": 6204,
      "clear": 6205,
      "▁Any": 6206,
      "▁├": 6207,
      "▁involved": 6208,
      "▁happy": 6209,
      "..\\": 6210,
      "▁cop": 6211,
      "▁ideas": 6212,
      "▁saw": 6213,
      "▁coord": 6214,
      "▁While": 6215,
      "required": 6216,
      "(:": 6217,
      "▁Of": 6218,
      "▁sec": 6219,
      "itute": 6220,
      ")/": 6221,
      "▁international": 6222,
      "▁sens": 6223,
      "▁woman": 6224,
      "Next": 6225,
      "▁Link": 6226,
      "ael": 6227,
      "▁*/": 6228,
      "▁led": 6229,
      "▁listen": 6230,
      "▁documentation": 6231,
      "'],": 6232,
      "公开": 6233,
      ")->": 6234,
      "▁computer": 6235,
      "zy": 6236,
      "SO": 6237,
      "isions": 6238,
      "▁rules": 6239,
      "▁TH": 6240,
      "句子": 6241,
      "component": 6242,
      "昨天": 6243,
      "一切": 6244,
      "▁improve": 6245,
      "样的": 6246,
      "widget": 6247,
      "▁financial": 6248,
      "SION": 6249,
      "▁stage": 6250,
      "fill": 6251,
      "类别": 6252,
      "iki": 6253,
      "region": 6254,
      "报名": 6255,
      "装修": 6256,
      "ictionary": 6257,
      "最终": 6258,
      "println": 6259,
      "▁Start": 6260,
      "文明": 6261,
      "Player": 6262,
      "▁influ": 6263,
      "ospital": 6264,
      "plications": 6265,
      "ida": 6266,
      "lines": 6267,
      "Properties": 6268,
      "nthe": 6269,
      "peed": 6270,
      "rote": 6271,
      "atically": 6272,
      "}.": 6273,
      "duc": 6274,
      "里的": 6275,
      "▁gives": 6276,
      "越来": 6277,
      "▁effects": 6278,
      "▁supported": 6279,
      "▁primary": 6280,
      "ulate": 6281,
      "▁imm": 6282,
      "icket": 6283,
      "理论": 6284,
      "▁evid": 6285,
      "▁remember": 6286,
      "▁Over": 6287,
      "▁slow": 6288,
      "nBut": 6289,
      "▁insp": 6290,
      "▁无": 6291,
      "  ": 6292,
      "”\\": 6293,
      "^^": 6294,
      "▁点击": 6295,
      "hi": 6296,
      "完善": 6297,
      "cert": 6298,
      "▁出": 6299,
      "性能": 6300,
      "svg": 6301,
      "di": 6302,
      "▁easily": 6303,
      "emo": 6304,
      "▁International": 6305,
      "▁exam": 6306,
      "▁/**": 6307,
      "mselves": 6308,
      "zon": 6309,
      "Red": 6310,
      "lying": 6311,
      "越来越": 6312,
      "准确": 6313,
      "▁distance": 6314,
      "Last": 6315,
      "pass": 6316,
      "▁numer": 6317,
      "▁bytes": 6318,
      "战略": 6319,
      "rome": 6320,
      "nw": 6321,
      "Eng": 6322,
      "mock": 6323,
      "Go": 6324,
      "▁America": 6325,
      "▁reach": 6326,
      "推进": 6327,
      "▁safe": 6328,
      "▁tried": 6329,
      "oms": 6330,
      ")\\\\": 6331,
      "▁San": 6332,
      "团队": 6333,
      "意义": 6334,
      "配置": 6335,
      "azure": 6336,
      "▁suff": 6337,
      "('#": 6338,
      "........": 6339,
      "ris": 6340,
      "inder": 6341,
      "提示": 6342,
      "▁altern": 6343,
      "▁WITHOUT": 6344,
      "▁basic": 6345,
      "▁sal": 6346,
      "force": 6347,
      "Serial": 6348,
      "erry": 6349,
      "▁themselves": 6350,
      "▁push": 6351,
      "妈妈": 6352,
      "证券": 6353,
      "\\\"))": 6354,
      "ipping": 6355,
      "Sign": 6356,
      "▁applicable": 6357,
      "▁ten": 6358,
      "最好": 6359,
      "满足": 6360,
      "inline": 6361,
      "}}\\": 6362,
      "▁相关": 6363,
      "▁plant": 6364,
      "ancy": 6365,
      "多的": 6366,
      "皮肤": 6367,
      "可是": 6368,
      "就业": 6369,
      "orge": 6370,
      "▁testing": 6371,
      "上一": 6372,
      "stop": 6373,
      "icks": 6374,
      "▁applications": 6375,
      "▁successful": 6376,
      "urt": 6377,
      "MENT": 6378,
      "▁plus": 6379,
      "vision": 6380,
      "自由": 6381,
      "看看": 6382,
      "IGHT": 6383,
      "Custom": 6384,
      "SIZE": 6385,
      "协会": 6386,
      "plements": 6387,
      "▁leading": 6388,
      "Match": 6389,
      "▁political": 6390,
      "Que": 6391,
      "▁score": 6392,
      "▁direction": 6393,
      "法规": 6394,
      "贸易": 6395,
      "aly": 6396,
      "▁rule": 6397,
      "plet": 6398,
      "▁park": 6399,
      "annels": 6400,
      "AV": 6401,
      "▁sou": 6402,
      ":\\\\": 6403,
      "▁Met": 6404,
      "▁金": 6405,
      "▁Canada": 6406,
      "cos": 6407,
      "▁immedi": 6408,
      "=(": 6409,
      "_{\\\\": 6410,
      "▁activities": 6411,
      "▁rout": 6412,
      "▁define": 6413,
      "▁(*": 6414,
      "▁student": 6415,
      "▁collect": 6416,
      "▁viol": 6417,
      "dl": 6418,
      "世纪": 6419,
      "▁Associ": 6420,
      "▁hash": 6421,
      "▁central": 6422,
      "uous": 6423,
      "▁Mich": 6424,
      "▁首页": 6425,
      "internal": 6426,
      "▁master": 6427,
      "ountry": 6428,
      "wood": 6429,
      "licenses": 6430,
      "▁Vis": 6431,
      "▁reserved": 6432,
      "illa": 6433,
      "▁missing": 6434,
      "isation": 6435,
      "▁convers": 6436,
      "▁goes": 6437,
      "views": 6438,
      "velopment": 6439,
      "ker": 6440,
      "▁''": 6441,
      "olec": 6442,
      "▁expression": 6443,
      "▁prevent": 6444,
      "▁fine": 6445,
      "kw": 6446,
      "ignment": 6447,
      "十分": 6448,
      "发展的": 6449,
      "elcome": 6450,
      "核心": 6451,
      "License": 6452,
      "pub": 6453,
      "Dialog": 6454,
      "▁上海": 6455,
      "下的": 6456,
      "'],\\": 6457,
      "▁neigh": 6458,
      "找到": 6459,
      "▁网": 6460,
      "Mock": 6461,
      "Host": 6462,
      "上市": 6463,
      "POST": 6464,
      "▁stock": 6465,
      "▁页": 6466,
      "temp": 6467,
      "\\\"\\\"\\\"\\": 6468,
      "endar": 6469,
      "▁来源": 6470,
      "▁um": 6471,
      "operator": 6472,
      "uri": 6473,
      "ican": 6474,
      "mask": 6475,
      "▁requires": 6476,
      "儿童": 6477,
      "▁setup": 6478,
      "▁discover": 6479,
      "Offset": 6480,
      "▁streng": 6481,
      "▁AM": 6482,
      "▁accur": 6483,
      "▁TV": 6484,
      "▁logger": 6485,
      "URE": 6486,
      "$,": 6487,
      "机关": 6488,
      "Found": 6489,
      "▁icon": 6490,
      "Users": 6491,
      "Widget": 6492,
      "sig": 6493,
      "氧化": 6494,
      "cite": 6495,
      "▁undefined": 6496,
      "▁dro": 6497,
      "▁Product": 6498,
      "acement": 6499,
      "相信": 6500,
      "imately": 6501,
      "sembly": 6502,
      "▁prop": 6503,
      "onstr": 6504,
      "real": 6505,
      "track": 6506,
      "人士": 6507,
      "▁veh": 6508,
      "▁unsigned": 6509,
      "nCom": 6510,
      "▁cache": 6511,
      "▁用": 6512,
      "ifications": 6513,
      "▁satisf": 6514,
      "Items": 6515,
      "IE": 6516,
      "inux": 6517,
      "agram": 6518,
      "strict": 6519,
      "明确": 6520,
      "WS": 6521,
      "▁recently": 6522,
      "▁Japan": 6523,
      "▁fill": 6524,
      "掌握": 6525,
      "▁Ben": 6526,
      "irit": 6527,
      "riend": 6528,
      "▁Other": 6529,
      "▁decided": 6530,
      "normal": 6531,
      ")).": 6532,
      "▁python": 6533,
      "iring": 6534,
      "Are": 6535,
      "是一种": 6536,
      "DA": 6537,
      "▁Table": 6538,
      ".[": 6539,
      "\\\"、\\\"": 6540,
      "▁stack": 6541,
      "▁Del": 6542,
      "itation": 6543,
      "▁drop": 6544,
      "manager": 6545,
      "用的": 6546,
      "foo": 6547,
      "zip": 6548,
      "hidden": 6549,
      "深入": 6550,
      "▁!==": 6551,
      "写出": 6552,
      "名字": 6553,
      "▁reli": 6554,
      "▁Title": 6555,
      "▁---": 6556,
      "下来": 6557,
      "ailed": 6558,
      "acket": 6559,
      "动物": 6560,
      "printf": 6561,
      "▁AR": 6562,
      "ilies": 6563,
      "ро": 6564,
      "ILITY": 6565,
      "▁如果": 6566,
      "IV": 6567,
      "▁Python": 6568,
      "ooth": 6569,
      "元素": 6570,
      "▁arguments": 6571,
      "none": 6572,
      "▁domain": 6573,
      "rib": 6574,
      "modal": 6575,
      "公告": 6576,
      "▁permissions": 6577,
      "动态": 6578,
      "力的": 6579,
      "▁Update": 6580,
      "▁components": 6581,
      "落实": 6582,
      "▁Dec": 6583,
      "ometry": 6584,
      "het": 6585,
      "▁implied": 6586,
      "▁finally": 6587,
      "经常": 6588,
      "PH": 6589,
      "江苏": 6590,
      "▁developed": 6591,
      "Err": 6592,
      "lor": 6593,
      "Me": 6594,
      "urrency": 6595,
      "▁sell": 6596,
      "几个": 6597,
      "▁Hol": 6598,
      "▁dise": 6599,
      "不同的": 6600,
      "lier": 6601,
      "asy": 6602,
      "LICENSE": 6603,
      "合同": 6604,
      "▁football": 6605,
      "环保": 6606,
      "▁Server": 6607,
      "▁Also": 6608,
      "fc": 6609,
      "▁sn": 6610,
      "while": 6611,
      "▁bus": 6612,
      "DS": 6613,
      "比如": 6614,
      "▁studies": 6615,
      "展示": 6616,
      "▁amaz": 6617,
      "Co": 6618,
      ",\\\\": 6619,
      "asure": 6620,
      "▁modern": 6621,
      "▁il": 6622,
      "asc": 6623,
      "农民": 6624,
      "First": 6625,
      "▁Rel": 6626,
      "良好的": 6627,
      "▁ev": 6628,
      "$.": 6629,
      "▁mount": 6630,
      "包装": 6631,
      "▁Java": 6632,
      "▁fem": 6633,
      "▁countries": 6634,
      "▁bug": 6635,
      "▁Translate": 6636,
      "▁mechan": 6637,
      "医生": 6638,
      "Game": 6639,
      "基地": 6640,
      "▁histor": 6641,
      "有人": 6642,
      "Cre": 6643,
      "grade": 6644,
      "window": 6645,
      "levant": 6646,
      "profile": 6647,
      "PATH": 6648,
      "行动": 6649,
      "iding": 6650,
      "hentication": 6651,
      "▁Program": 6652,
      "sim": 6653,
      "▁к": 6654,
      "dec": 6655,
      "台湾": 6656,
      "▁temp": 6657,
      "上述": 6658,
      "工作的": 6659,
      "channel": 6660,
      "▁dark": 6661,
      "▁-->": 6662,
      "▁manufact": 6663,
      "ano": 6664,
      ")[": 6665,
      "▁middle": 6666,
      "=\\\"/": 6667,
      "委员会": 6668,
      "yntax": 6669,
      "Inst": 6670,
      "▁appropri": 6671,
      "▁subst": 6672,
      "ifying": 6673,
      "▁statement": 6674,
      "lambda": 6675,
      "南京": 6676,
      "窗口": 6677,
      "▁contr": 6678,
      "springframework": 6679,
      "▁EN": 6680,
      "amma": 6681,
      "▁brand": 6682,
      "房地产": 6683,
      "▁%}\\": 6684,
      "]]": 6685,
      "ión": 6686,
      "▁route": 6687,
      "'=>": 6688,
      "You": 6689,
      "▁Mem": 6690,
      "')->": 6691,
      "▁attention": 6692,
      "▁highlight": 6693,
      "▁fight": 6694,
      "贷款": 6695,
      "创业": 6696,
      "▁kids": 6697,
      "▁surface": 6698,
      "▁sentence": 6699,
      "最大的": 6700,
      "Doc": 6701,
      "次数": 6702,
      "子的": 6703,
      "▁medical": 6704,
      "▁inf": 6705,
      "▁cluster": 6706,
      "颜色": 6707,
      "股票": 6708,
      "▁nature": 6709,
      "▁entity": 6710,
      "▁env": 6711,
      "udget": 6712,
      "plies": 6713,
      "pu": 6714,
      "▁abs": 6715,
      "??": 6716,
      "▁London": 6717,
      "▁China": 6718,
      "▁College": 6719,
      "READ": 6720,
      "▁pool": 6721,
      "matrix": 6722,
      "▁Init": 6723,
      "och": 6724,
      "iation": 6725,
      "每个": 6726,
      "自行": 6727,
      "ixel": 6728,
      "Delete": 6729,
      "▁Make": 6730,
      "资产": 6731,
      "施工": 6732,
      "VID": 6733,
      "▁conduct": 6734,
      "ota": 6735,
      "edef": 6736,
      "batch": 6737,
      "▁protect": 6738,
      "▁sets": 6739,
      "proto": 6740,
      "initely": 6741,
      "nfor": 6742,
      "▁quickly": 6743,
      "hest": 6744,
      "▁二": 6745,
      "Left": 6746,
      "elebr": 6747,
      "▁'@": 6748,
      "izations": 6749,
      "ivery": 6750,
      "▁individuals": 6751,
      "举办": 6752,
      "BS": 6753,
      "?.": 6754,
      "▁relative": 6755,
      "Op": 6756,
      "▁menu": 6757,
      "▁Ill": 6758,
      "▁req": 6759,
      "▁Main": 6760,
      "▁和": 6761,
      "成了": 6762,
      "usion": 6763,
      "》,": 6764,
      "!.": 6765,
      "`.\\": 6766,
      "▁category": 6767,
      "Each": 6768,
      "DIT": 6769,
      "antic": 6770,
      "▁mis": 6771,
      "blem": 6772,
      ")}": 6773,
      "创造": 6774,
      "sample": 6775,
      "▁…": 6776,
      "Schema": 6777,
      "▁|-": 6778,
      "issues": 6779,
      "$^{": 6780,
      "修改": 6781,
      "▁zero": 6782,
      "UID": 6783,
      "rial": 6784,
      "cpp": 6785,
      "▁compliance": 6786,
      "互联网": 6787,
      "enter": 6788,
      "oded": 6789,
      "▁flag": 6790,
      "▁prem": 6791,
      "Props": 6792,
      "Obj": 6793,
      "area": 6794,
      "当地": 6795,
      "look": 6796,
      "▁Street": 6797,
      "对象": 6798,
      "未经": 6799,
      "采购": 6800,
      "tee": 6801,
      "ipped": 6802,
      "Reference": 6803,
      "▁plot": 6804,
      "role": 6805,
      "▁touch": 6806,
      "▁station": 6807,
      "▁sold": 6808,
      "Long": 6809,
      "▁Direct": 6810,
      ";</": 6811,
      "女人": 6812,
      "ulations": 6813,
      "kt": 6814,
      "bytes": 6815,
      "▁Mr": 6816,
      "▁pattern": 6817,
      "▁green": 6818,
      "▁physical": 6819,
      "各项": 6820,
      "▁candid": 6821,
      "BUG": 6822,
      "pite": 6823,
      "++++": 6824,
      "从事": 6825,
      "工艺": 6826,
      "英国": 6827,
      "开放": 6828,
      "aints": 6829,
      "▁Long": 6830,
      "▁President": 6831,
      "▁Sum": 6832,
      "iforn": 6833,
      "vest": 6834,
      "▁下载": 6835,
      "添加": 6836,
      "icker": 6837,
      "▁Note": 6838,
      "csv": 6839,
      "▁{'": 6840,
      "就可以": 6841,
      "tool": 6842,
      "Grid": 6843,
      "▁rock": 6844,
      "iny": 6845,
      "发挥": 6846,
      "Handle": 6847,
      "si": 6848,
      "etimes": 6849,
      "▁scen": 6850,
      "这次": 6851,
      "▁vill": 6852,
      "lem": 6853,
      "ounced": 6854,
      "zen": 6855,
      "▁д": 6856,
      "():": 6857,
      "▁;\\": 6858,
      "bd": 6859,
      "▁towards": 6860,
      "lg": 6861,
      "快乐": 6862,
      "Rel": 6863,
      "▁proced": 6864,
      "▁mus": 6865,
      "nh": 6866,
      "她的": 6867,
      "ан": 6868,
      "▁drug": 6869,
      "▁describe": 6870,
      "Bytes": 6871,
      "▁operations": 6872,
      "jection": 6873,
      "queue": 6874,
      "公司的": 6875,
      "BR": 6876,
      "频道": 6877,
      "▁comfort": 6878,
      "nel": 6879,
      "采取": 6880,
      "ecause": 6881,
      "▁api": 6882,
      "▁II": 6883,
      "化的": 6884,
      "▁deliver": 6885,
      "近日": 6886,
      "面对": 6887,
      "▁moved": 6888,
      "▁stuff": 6889,
      "prise": 6890,
      "LECT": 6891,
      "▁Mac": 6892,
      "va": 6893,
      "PU": 6894,
      "ynch": 6895,
      "▁Result": 6896,
      "lis": 6897,
      "Writer": 6898,
      "▁Us": 6899,
      "享受": 6900,
      "▁messages": 6901,
      "FILE": 6902,
      "Iter": 6903,
      "domain": 6904,
      "▁inj": 6905,
      "▁combin": 6906,
      "▁sales": 6907,
      "Channel": 6908,
      "▁pages": 6909,
      "月份": 6910,
      "▁bank": 6911,
      "▁exists": 6912,
      "▁\\\"$": 6913,
      "mu": 6914,
      "results": 6915,
      "▁wide": 6916,
      "arily": 6917,
      "▁parents": 6918,
      "▁charge": 6919,
      "Email": 6920,
      "ws": 6921,
      "▁observ": 6922,
      "▁ctx": 6923,
      "hter": 6924,
      "照片": 6925,
      "ulated": 6926,
      "haps": 6927,
      "fn": 6928,
      "tools": 6929,
      "istribut": 6930,
      "ucture": 6931,
      "ission": 6932,
      "ntype": 6933,
      "▁torch": 6934,
      "▁situation": 6935,
      "▁ip": 6936,
      "▁Ke": 6937,
      "ICE": 6938,
      "▁au": 6939,
      "prop": 6940,
      "兴趣": 6941,
      "集中": 6942,
      "annotation": 6943,
      "ti": 6944,
      "urb": 6945,
      "PRE": 6946,
      "▁otherwise": 6947,
      "android": 6948,
      "▁sites": 6949,
      "ACT": 6950,
      "▁demonstr": 6951,
      "办公室": 6952,
      "services": 6953,
      "▁solutions": 6954,
      "此次": 6955,
      "▁Acc": 6956,
      "▁born": 6957,
      "▁wrote": 6958,
      "▁challenges": 6959,
      "▁img": 6960,
      "▁programs": 6961,
      "▁Star": 6962,
      "幸福": 6963,
      "▁profile": 6964,
      "++;\\": 6965,
      "sys": 6966,
      "acebook": 6967,
      "▁completely": 6968,
      "beta": 6969,
      "分享": 6970,
      "ville": 6971,
      "▁maybe": 6972,
      "▁approx": 6973,
      "(!": 6974,
      "▁chance": 6975,
      "一年": 6976,
      "DO": 6977,
      "unsigned": 6978,
      "Names": 6979,
      "▁电": 6980,
      "bal": 6981,
      "global": 6982,
      "ishing": 6983,
      "股份": 6984,
      "▁forg": 6985,
      "rary": 6986,
      "▁British": 6987,
      "uby": 6988,
      "▁export": 6989,
      "▁binary": 6990,
      "rie": 6991,
      "▁Ver": 6992,
      "▁examples": 6993,
      "igen": 6994,
      "ifornia": 6995,
      "(\\\"/": 6996,
      "Panel": 6997,
      "▁meeting": 6998,
      "peat": 6999,
      "▁organization": 7000,
      "▁mother": 7001,
      "▁ا": 7002,
      "reshold": 7003,
      "▁UK": 7004,
      "private": 7005,
      "▁credit": 7006,
      "SU": 7007,
      "wrap": 7008,
      "如下": 7009,
      "▁depart": 7010,
      "Database": 7011,
      "GR": 7012,
      "▁产品": 7013,
      "整体": 7014,
      "arden": 7015,
      "▁TO": 7016,
      "ais": 7017,
      "ACE": 7018,
      "tconst": 7019,
      "fast": 7020,
      "shot": 7021,
      "▁skin": 7022,
      "Right": 7023,
      "▁follows": 7024,
      "▁tab": 7025,
      "▁opportunity": 7026,
      "独立": 7027,
      "▁meaning": 7028,
      "原则": 7029,
      "从而": 7030,
      "为主": 7031,
      "Pay": 7032,
      "ilitary": 7033,
      "nQ": 7034,
      "nl": 7035,
      "ky": 7036,
      "▁vs": 7037,
      "▁materials": 7038,
      "nCon": 7039,
      "▁gave": 7040,
      "降低": 7041,
      "▁Power": 7042,
      "▁counter": 7043,
      "=$": 7044,
      "iform": 7045,
      "▁shared": 7046,
      "oted": 7047,
      "cons": 7048,
      "▁vict": 7049,
      "▁Jack": 7050,
      "▁drive": 7051,
      "▁extension": 7052,
      "network": 7053,
      "MB": 7054,
      "土地": 7055,
      "青年": 7056,
      "nother": 7057,
      "▁sometimes": 7058,
      "都会": 7059,
      "▁^": 7060,
      "▁Node": 7061,
      "增强": 7062,
      "LS": 7063,
      "指出": 7064,
      "▁India": 7065,
      "\\\"))\\": 7066,
      "ibly": 7067,
      "力量": 7068,
      "▁pair": 7069,
      "scal": 7070,
      "%%%%": 7071,
      "了一个": 7072,
      "▁Task": 7073,
      "exception": 7074,
      "▁Custom": 7075,
      "▁distr": 7076,
      "▁bi": 7077,
      "Main": 7078,
      "▁maximum": 7079,
      "gent": 7080,
      "恢复": 7081,
      "`.": 7082,
      "те": 7083,
      "三个": 7084,
      "dot": 7085,
      "▁transport": 7086,
      "tk": 7087,
      "▁tf": 7088,
      "身份": 7089,
      "优惠": 7090,
      "▁*)": 7091,
      "icated": 7092,
      "▁KIND": 7093,
      "▁Number": 7094,
      "▁branch": 7095,
      "▁myself": 7096,
      "aling": 7097,
      "▁Foundation": 7098,
      "Job": 7099,
      "创建": 7100,
      "ieved": 7101,
      "▁cool": 7102,
      "PER": 7103,
      "▁exit": 7104,
      "▁html": 7105,
      "▁deploy": 7106,
      "FORM": 7107,
      "▁News": 7108,
      "bad": 7109,
      "▁exactly": 7110,
      "Print": 7111,
      "▁batch": 7112,
      "▁/>": 7113,
      "▁edge": 7114,
      "体验": 7115,
      "微博": 7116,
      "▁dans": 7117,
      "▁helps": 7118,
      "▁closed": 7119,
      "▁jud": 7120,
      "ffff": 7121,
      "▁limitations": 7122,
      "structions": 7123,
      "服装": 7124,
      "资讯": 7125,
      "很好": 7126,
      "检测": 7127,
      "blog": 7128,
      "Admin": 7129,
      "MT": 7130,
      "Root": 7131,
      "生态": 7132,
      "▁Hand": 7133,
      "house": 7134,
      "年度": 7135,
      "fields": 7136,
      "Password": 7137,
      "的时间": 7138,
      "表达": 7139,
      "errors": 7140,
      "资格": 7141,
      "▁figure": 7142,
      "▁scal": 7143,
      "support": 7144,
      "▁Function": 7145,
      "Matrix": 7146,
      "microsoft": 7147,
      "gb": 7148,
      "ste": 7149,
      "▁purpose": 7150,
      "Files": 7151,
      "nAfter": 7152,
      "▁conv": 7153,
      "igration": 7154,
      "cheme": 7155,
      "aming": 7156,
      "▁blue": 7157,
      "reset": 7158,
      "Debug": 7159,
      "border": 7160,
      "▁在线": 7161,
      "jango": 7162,
      "javascript": 7163,
      "▁sleep": 7164,
      "▁Big": 7165,
      "tests": 7166,
      "▁served": 7167,
      "▁girl": 7168,
      "▁Hot": 7169,
      "▁grid": 7170,
      "▁termin": 7171,
      "▁selection": 7172,
      "atively": 7173,
      "▁spect": 7174,
      "\\\".\\": 7175,
      "▁manager": 7176,
      "▁mobile": 7177,
      "▁Request": 7178,
      "report": 7179,
      "▁thinking": 7180,
      "ji": 7181,
      "family": 7182,
      "pool": 7183,
      "▁scope": 7184,
      "ror": 7185,
      "▁species": 7186,
      "经历": 7187,
      "▁parser": 7188,
      "▁micro": 7189,
      "▁charg": 7190,
      "▁greater": 7191,
      "格式": 7192,
      "金属": 7193,
      "▁sun": 7194,
      "ederal": 7195,
      "生的": 7196,
      "▁ord": 7197,
      "Ke": 7198,
      "讨论": 7199,
      "▁providing": 7200,
      "▁learned": 7201,
      "▁father": 7202,
      "▁requests": 7203,
      "Card": 7204,
      "ads": 7205,
      "沟通": 7206,
      "istrict": 7207,
      "$\\": 7208,
      "▁star": 7209,
      "▁TODO": 7210,
      "▁sys": 7211,
      "▁anim": 7212,
      "NN": 7213,
      "宝宝": 7214,
      "大会": 7215,
      "以前": 7216,
      "PM": 7217,
      "推广": 7218,
      "▁dir": 7219,
      "ems": 7220,
      "▁appre": 7221,
      "▁mock": 7222,
      "yd": 7223,
      "引用": 7224,
      "{%": 7225,
      "ggle": 7226,
      "▁最后": 7227,
      "▁Oper": 7228,
      "尤其": 7229,
      "▁fully": 7230,
      "ato": 7231,
      "满意": 7232,
      "▁attribute": 7233,
      "esome": 7234,
      "平均": 7235,
      "支付": 7236,
      "▁degree": 7237,
      "物流": 7238,
      "▁factor": 7239,
      "lap": 7240,
      "Changed": 7241,
      "cut": 7242,
      "▁Services": 7243,
      "形象": 7244,
      "▁Default": 7245,
      "性质": 7246,
      "▁piece": 7247,
      "▁Department": 7248,
      "▁experiment": 7249,
      "▁compared": 7250,
      "▁adding": 7251,
      "vement": 7252,
      "pdf": 7253,
      "▁edit": 7254,
      "ago": 7255,
      "▁NO": 7256,
      "ection": 7257,
      "ester": 7258,
      "'))": 7259,
      "▁Information": 7260,
      "pective": 7261,
      "▁broad": 7262,
      "}^{": 7263,
      "▁sequence": 7264,
      "四川": 7265,
      "▁reviews": 7266,
      "▁df": 7267,
      "▁Since": 7268,
      "▁Cons": 7269,
      "根本": 7270,
      "▁raw": 7271,
      "▁AS": 7272,
      "cellent": 7273,
      "▁split": 7274,
      "clusion": 7275,
      "▁Show": 7276,
      "别人": 7277,
      "▁clients": 7278,
      "▁variety": 7279,
      "prefix": 7280,
      "内的": 7281,
      "ificate": 7282,
      "▁Input": 7283,
      "▁secret": 7284,
      "upload": 7285,
      "相对": 7286,
      "Variable": 7287,
      "学历": 7288,
      "智能": 7289,
      "Adapter": 7290,
      "usercontent": 7291,
      "▁pen": 7292,
      "邮件": 7293,
      "▁Call": 7294,
      "推动": 7295,
      "porary": 7296,
      "父母": 7297,
      "▁inline": 7298,
      "inct": 7299,
      "▁thanks": 7300,
      "Parameters": 7301,
      "times": 7302,
      "平方米": 7303,
      "istant": 7304,
      "rought": 7305,
      "▁wasn": 7306,
      "Active": 7307,
      "▁关闭": 7308,
      "▁ou": 7309,
      "▁Phil": 7310,
      "肯定": 7311,
      "教授": 7312,
      "▁Vector": 7313,
      "▁completed": 7314,
      "▁hair": 7315,
      ")-": 7316,
      "▁plugin": 7317,
      "上午": 7318,
      "ustr": 7319,
      "(\\\"#": 7320,
      "▁expand": 7321,
      "▁cast": 7322,
      "▁reve": 7323,
      "▁limited": 7324,
      "igate": 7325,
      "shared": 7326,
      "避免": 7327,
      "他们的": 7328,
      "Float": 7329,
      "▁loop": 7330,
      "利益": 7331,
      ".'": 7332,
      "tl": 7333,
      "空气": 7334,
      "Mark": 7335,
      "▁lack": 7336,
      "▁da": 7337,
      "dc": 7338,
      "▁IO": 7339,
      "ivil": 7340,
      "▁summer": 7341,
      "dep": 7342,
      "▁Ant": 7343,
      "IA": 7344,
      "nand": 7345,
      "Hub": 7346,
      "uminate": 7347,
      "▁Question": 7348,
      "Font": 7349,
      "▁campaign": 7350,
      "▁construct": 7351,
      "ixed": 7352,
      "▁compar": 7353,
      "ONE": 7354,
      "▁visual": 7355,
      "route": 7356,
      "▁fair": 7357,
      "Cal": 7358,
      "storage": 7359,
      "xs": 7360,
      "'，": 7361,
      "Display": 7362,
      "Queue": 7363,
      "▁driver": 7364,
      "sqrt": 7365,
      "▁surv": 7366,
      "温度": 7367,
      "но": 7368,
      "岗位": 7369,
      "▁enh": 7370,
      "▁tim": 7371,
      "▁Research": 7372,
      "▁Game": 7373,
      "植物": 7374,
      "公里": 7375,
      "▁gold": 7376,
      "schema": 7377,
      "▁reflect": 7378,
      "entials": 7379,
      "selected": 7380,
      "▁kit": 7381,
      "▁Back": 7382,
      "high": 7383,
      "faces": 7384,
      "oday": 7385,
      "▁requirements": 7386,
      "IST": 7387,
      "▁constructor": 7388,
      "Sup": 7389,
      "地点": 7390,
      "▁culture": 7391,
      "plates": 7392,
      "vs": 7393,
      "\\\"`\\": 7394,
      "Operation": 7395,
      "▁William": 7396,
      "Byte": 7397,
      "升级": 7398,
      "▁calls": 7399,
      "▁removed": 7400,
      "▁->\\": 7401,
      "\\\\+": 7402,
      "色的": 7403,
      "立即": 7404,
      "▁Bel": 7405,
      ".$": 7406,
      "公共": 7407,
      "韩国": 7408,
      "ancel": 7409,
      "▁speak": 7410,
      "▁Example": 7411,
      "版本": 7412,
      "▁keys": 7413,
      "它们": 7414,
      "▁rap": 7415,
      "plt": 7416,
      "FC": 7417,
      "which": 7418,
      "玩家": 7419,
      "▁evidence": 7420,
      "scription": 7421,
      "男人": 7422,
      "启动": 7423,
      ".\\\\": 7424,
      "▁Business": 7425,
      "SR": 7426,
      "▁查看": 7427,
      "▁Che": 7428,
      "▁hol": 7429,
      "▁Yes": 7430,
      "▁nodes": 7431,
      "公布": 7432,
      "▁runs": 7433,
      "的地方": 7434,
      "bound": 7435,
      "allel": 7436,
      "▁implements": 7437,
      "▁morning": 7438,
      "iveness": 7439,
      "▁moving": 7440,
      "[$": 7441,
      "Non": 7442,
      "▁basis": 7443,
      "etes": 7444,
      "▁Best": 7445,
      "FR": 7446,
      "PAR": 7447,
      "DC": 7448,
      "alloc": 7449,
      "details": 7450,
      "状况": 7451,
      "Vert": 7452,
      "▁react": 7453,
      "▁applied": 7454,
      "▁FROM": 7455,
      "pons": 7456,
      "▁serious": 7457,
      "一位": 7458,
      "▁ ": 7459,
      "高级": 7460,
      "aled": 7461,
      "dy": 7462,
      "aver": 7463,
      "离线": 7464,
      "▁fresh": 7465,
      "()).": 7466,
      "NOT": 7467,
      "tassert": 7468,
      "riteria": 7469,
      "▁folder": 7470,
      "tg": 7471,
      "nOne": 7472,
      "▁places": 7473,
      "▁ré": 7474,
      "tbreak": 7475,
      "▁European": 7476,
      "%;": 7477,
      "▁whose": 7478,
      "arant": 7479,
      "▁工作": 7480,
      "▁blood": 7481,
      "▁打印": 7482,
      "▁Mag": 7483,
      "pa": 7484,
      "▁plans": 7485,
      "OST": 7486,
      "That": 7487,
      "▁increased": 7488,
      "▁Design": 7489,
      "▁established": 7490,
      "困难": 7491,
      "▁rank": 7492,
      "▁Page": 7493,
      "▁performed": 7494,
      "▁Dem": 7495,
      "PASS": 7496,
      "▁reduce": 7497,
      "▁Licensed": 7498,
      "河南": 7499,
      "▁企业": 7500,
      "▁strugg": 7501,
      "Tab": 7502,
      "TIM": 7503,
      "成都": 7504,
      "技能": 7505,
      "▁dead": 7506,
      "connection": 7507,
      "它的": 7508,
      "▁produced": 7509,
      "▁ded": 7510,
      "连接": 7511,
      "inger": 7512,
      "给我": 7513,
      "▁owner": 7514,
      "▁legal": 7515,
      "=\\": 7516,
      "严格": 7517,
      "▁goals": 7518,
      "风格": 7519,
      "▁determine": 7520,
      "Ident": 7521,
      "ercise": 7522,
      "ABILITY": 7523,
      "▁extract": 7524,
      "\\\";": 7525,
      "▁norm": 7526,
      "pute": 7527,
      "_\\": 7528,
      "办理": 7529,
      "▁gas": 7530,
      "men": 7531,
      "贡献": 7532,
      "Msg": 7533,
      "将在": 7534,
      "Pool": 7535,
      "▁Ear": 7536,
      "▁sizeof": 7537,
      "(`": 7538,
      "abilities": 7539,
      "涉及": 7540,
      "我是": 7541,
      "▁##": 7542,
      "▁followed": 7543,
      "erved": 7544,
      "▁volume": 7545,
      "testing": 7546,
      "▁yield": 7547,
      "▁daily": 7548,
      "▁estim": 7549,
      "财政": 7550,
      "相同": 7551,
      "▁phase": 7552,
      "▁roll": 7553,
      "推出": 7554,
      "score": 7555,
      "includ": 7556,
      "nReferences": 7557,
      "▁police": 7558,
      "▁Law": 7559,
      "eries": 7560,
      "▁felt": 7561,
      "▁traditional": 7562,
      "特殊": 7563,
      "负责人": 7564,
      "▁mask": 7565,
      "▁enable": 7566,
      "▁元": 7567,
      "hot": 7568,
      "NU": 7569,
      "出版": 7570,
      "▁foreach": 7571,
      "▁writer": 7572,
      "▁assess": 7573,
      "▁MA": 7574,
      "▁pan": 7575,
      "▁California": 7576,
      "ouncil": 7577,
      "▁dataset": 7578,
      "white": 7579,
      "▁pul": 7580,
      "Bundle": 7581,
      "ald": 7582,
      "IGN": 7583,
      "▁TR": 7584,
      "HTML": 7585,
      "▁translate": 7586,
      "Enabled": 7587,
      "▁theory": 7588,
      "▁highly": 7589,
      "Rule": 7590,
      "nPro": 7591,
      "▁picture": 7592,
      "Expression": 7593,
      "加盟": 7594,
      "ре": 7595,
      "▁这": 7596,
      "radius": 7597,
      "▁SQL": 7598,
      "▁shall": 7599,
      "NET": 7600,
      "erve": 7601,
      "iced": 7602,
      "ée": 7603,
      "▁construction": 7604,
      "▁digital": 7605,
      "为您": 7606,
      "▁imag": 7607,
      "ette": 7608,
      "复制": 7609,
      "▁beginning": 7610,
      "真实性": 7611,
      "▁eth": 7612,
      "bc": 7613,
      "▁guide": 7614,
      "▁hour": 7615,
      "olog": 7616,
      "npm": 7617,
      "让我": 7618,
      "Argument": 7619,
      "短信": 7620,
      "▁Description": 7621,
      "▁demand": 7622,
      "wd": 7623,
      "▁Method": 7624,
      "专题": 7625,
      "也可以": 7626,
      "inn": 7627,
      "▁larger": 7628,
      "▁chem": 7629,
      "Assert": 7630,
      "▁David": 7631,
      "▁himself": 7632,
      "通讯": 7633,
      "▁communication": 7634,
      "————": 7635,
      "相当": 7636,
      "▁saying": 7637,
      "'),": 7638,
      "▁请判断": 7639,
      "▁decre": 7640,
      "道德": 7641,
      "▁relationships": 7642,
      "▁favorite": 7643,
      "▁linear": 7644,
      "高的": 7645,
      "体现": 7646,
      "▁giving": 7647,
      "_,": 7648,
      "维修": 7649,
      "▁Sen": 7650,
      "quot": 7651,
      "▁精华": 7652,
      "▁princip": 7653,
      "▁amazing": 7654,
      "书籍": 7655,
      "▁Gover": 7656,
      "▁although": 7657,
      "居民": 7658,
      "证明": 7659,
      "下降": 7660,
      "console": 7661,
      "▁Max": 7662,
      "、《": 7663,
      "▁overall": 7664,
      "udo": 7665,
      "uman": 7666,
      "党员": 7667,
      "▁governing": 7668,
      "footer": 7669,
      "职工": 7670,
      "packages": 7671,
      "▁copyright": 7672,
      "pret": 7673,
      "▁respond": 7674,
      "连续": 7675,
      "▁Dat": 7676,
      "▁Point": 7677,
      "▁finished": 7678,
      "/.": 7679,
      "▁stories": 7680,
      "▁是": 7681,
      "('.": 7682,
      "▁根据": 7683,
      "▁pressure": 7684,
      "price": 7685,
      "▁celebr": 7686,
      "▁hear": 7687,
      "人类": 7688,
      "▁topic": 7689,
      "▁Network": 7690,
      "美丽": 7691,
      "▁?>\\": 7692,
      "▁dict": 7693,
      "▁阅读": 7694,
      "jo": 7695,
      "olar": 7696,
      "自身": 7697,
      "move": 7698,
      "craft": 7699,
      "lands": 7700,
      "ooks": 7701,
      "▁teams": 7702,
      "爱情": 7703,
      "emp": 7704,
      "TC": 7705,
      "Invalid": 7706,
      "多种": 7707,
      "ampl": 7708,
      "bi": 7709,
      "▁hidden": 7710,
      "公安": 7711,
      "▁dating": 7712,
      "▁relevant": 7713,
      "▁interested": 7714,
      "▁court": 7715,
      "▁forms": 7716,
      "▁→": 7717,
      "ded": 7718,
      "▁cred": 7719,
      "让人": 7720,
      "习惯": 7721,
      "release": 7722,
      "pet": 7723,
      "▁costs": 7724,
      "购物": 7725,
      "'];\\": 7726,
      "▁plt": 7727,
      "feature": 7728,
      "各类": 7729,
      "reference": 7730,
      "的重要": 7731,
      "Engine": 7732,
      "ora": 7733,
      "ady": 7734,
      "venue": 7735,
      "ione": 7736,
      "Exp": 7737,
      "▁incor": 7738,
      "*)": 7739,
      "▁appropriate": 7740,
      "ben": 7741,
      "nWith": 7742,
      "▁molec": 7743,
      "andard": 7744,
      "运输": 7745,
      "tex": 7746,
      "mount": 7747,
      "▁Integer": 7748,
      "名的": 7749,
      "▁//\\": 7750,
      "▁Indian": 7751,
      "大型": 7752,
      "mean": 7753,
      "Phone": 7754,
      "▁wood": 7755,
      "重新": 7756,
      "▁benefits": 7757,
      "Category": 7758,
      "年轻": 7759,
      "训练": 7760,
      "▁suit": 7761,
      "哪些": 7762,
      "理念": 7763,
      "chain": 7764,
      "mult": 7765,
      "cribe": 7766,
      "能源": 7767,
      "Close": 7768,
      "ums": 7769,
      "(()": 7770,
      "ura": 7771,
      "再次": 7772,
      "note": 7773,
      "ki": 7774,
      "▁safety": 7775,
      "▁installed": 7776,
      "▁camera": 7777,
      "▁hands": 7778,
      "▁:\\": 7779,
      "Te": 7780,
      "mac": 7781,
      "unday": 7782,
      "考生": 7783,
      "ims": 7784,
      "▁devices": 7785,
      "感谢": 7786,
      "controller": 7787,
      "▁Ir": 7788,
      "execute": 7789,
      "legal": 7790,
      "无论": 7791,
      "ture": 7792,
      "idence": 7793,
      "一定要": 7794,
      "wers": 7795,
      "▁race": 7796,
      "内部": 7797,
      "▁本站": 7798,
      "exists": 7799,
      "▁temperature": 7800,
      "性和": 7801,
      "▁algorithm": 7802,
      "分子": 7803,
      "▁lay": 7804,
      "Show": 7805,
      "▁League": 7806,
      "created": 7807,
      "▁particularly": 7808,
      "会计": 7809,
      "▁increasing": 7810,
      "▁Win": 7811,
      "▁$$": 7812,
      "▁Good": 7813,
      "▁strategy": 7814,
      "tip": 7815,
      "不好": 7816,
      "hpp": 7817,
      "olf": 7818,
      "▁refer": 7819,
      "INFO": 7820,
      "small": 7821,
      "pull": 7822,
      "▁definition": 7823,
      "▁电话": 7824,
      "服务器": 7825,
      "important": 7826,
      "▁knew": 7827,
      "最佳": 7828,
      "▁注册时间": 7829,
      "metadata": 7830,
      "投入": 7831,
      "Resol": 7832,
      "广泛": 7833,
      "▁Param": 7834,
      ".\\\"\\\"": 7835,
      "▁White": 7836,
      "机制": 7837,
      "Nav": 7838,
      "爱的": 7839,
      "太阳": 7840,
      "▁Sur": 7841,
      "▁seconds": 7842,
      "▁editor": 7843,
      "eed": 7844,
      "我想": 7845,
      "成长": 7846,
      "人数": 7847,
      "allet": 7848,
      "▁adjust": 7849,
      "多数": 7850,
      "ynchron": 7851,
      "后来": 7852,
      "进口": 7853,
      "ya": 7854,
      "▁wish": 7855,
      "▁grand": 7856,
      "/**": 7857,
      "Has": 7858,
      "record": 7859,
      "▁door": 7860,
      "Can": 7861,
      "▁van": 7862,
      "会有": 7863,
      "▁Most": 7864,
      "Ver": 7865,
      "打造": 7866,
      "▁nor": 7867,
      "inated": 7868,
      "nTr": 7869,
      "tv": 7870,
      "▁Great": 7871,
      "于是": 7872,
      "▁Arch": 7873,
      "▁Wash": 7874,
      "scribe": 7875,
      "▁Council": 7876,
      "async": 7877,
      "}(": 7878,
      "enty": 7879,
      "▁pm": 7880,
      "声音": 7881,
      "武汉": 7882,
      "callback": 7883,
      "▁mac": 7884,
      "overs": 7885,
      "eting": 7886,
      "欧洲": 7887,
      "apply": 7888,
      "多个": 7889,
      "的位置": 7890,
      "▁wife": 7891,
      "Plugin": 7892,
      "▁BAS": 7893,
      "▁bur": 7894,
      "中学": 7895,
      "ying": 7896,
      "▁signal": 7897,
      "▁张": 7898,
      "品质": 7899,
      "▁Je": 7900,
      "ups": 7901,
      "▁na": 7902,
      "wait": 7903,
      "绝对": 7904,
      "▁£": 7905,
      "▁上一": 7906,
      "▁\\\"\\": 7907,
      "表明": 7908,
      "phas": 7909,
      "▁Nor": 7910,
      "▁district": 7911,
      "primary": 7912,
      "ita": 7913,
      "utter": 7914,
      "stat": 7915,
      "acts": 7916,
      "▁dialog": 7917,
      "olic": 7918,
      "organ": 7919,
      "++)\\": 7920,
      "▁Year": 7921,
      "nAt": 7922,
      "WARE": 7923,
      "▁deb": 7924,
      "anted": 7925,
      "哈哈": 7926,
      "nThanks": 7927,
      "angular": 7928,
      "aturday": 7929,
      "突然": 7930,
      "▁sale": 7931,
      "▁guess": 7932,
      "▁sources": 7933,
      "screen": 7934,
      "▁century": 7935,
      "inese": 7936,
      "时期": 7937,
      "▁daug": 7938,
      "▁点": 7939,
      "acle": 7940,
      "▁为": 7941,
      "▁>\\": 7942,
      "之间的": 7943,
      "重要的": 7944,
      "Support": 7945,
      "Ge": 7946,
      "So": 7947,
      "▁Field": 7948,
      "!(": 7949,
      "总是": 7950,
      "Route": 7951,
      "osh": 7952,
      "▁...\\": 7953,
      "security": 7954,
      "吸引": 7955,
      "Details": 7956,
      "endor": 7957,
      "▁Message": 7958,
      "▁une": 7959,
      "nWh": 7960,
      "▁sen": 7961,
      "营养": 7962,
      "▁readonly": 7963,
      "Bit": 7964,
      "？\\": 7965,
      "心的": 7966,
      "▁serve": 7967,
      "▁guid": 7968,
      "ounce": 7969,
      "▁announced": 7970,
      "ban": 7971,
      "▁stress": 7972,
      "▁thus": 7973,
      "▁Ang": 7974,
      "▁aware": 7975,
      "重大": 7976,
      "▁browser": 7977,
      "ITE": 7978,
      "PA": 7979,
      "▁月": 7980,
      "▁我的": 7981,
      "desc": 7982,
      "▁economic": 7983,
      "▁advant": 7984,
      "制定": 7985,
      "unities": 7986,
      "▁scient": 7987,
      "▁ce": 7988,
      "Rect": 7989,
      "aight": 7990,
      "▁factors": 7991,
      "TD": 7992,
      "▁CH": 7993,
      "所属": 7994,
      "都不": 7995,
      "▁carry": 7996,
      "昨日": 7997,
      "▁happened": 7998,
      "Timeout": 7999,
      "LED": 8000,
      "▁Every": 8001,
      "▁produce": 8002,
      "under": 8003,
      "VD": 8004,
      "ycl": 8005,
      "ashboard": 8006,
      "▁<-": 8007,
      "vc": 8008,
      "uler": 8009,
      "greg": 8010,
      "绿色": 8011,
      "▁marketing": 8012,
      "▁award": 8013,
      "▁mill": 8014,
      "车辆": 8015,
      "ronic": 8016,
      "▁remain": 8017,
      "cores": 8018,
      "保留": 8019,
      "▁integer": 8020,
      "▁priv": 8021,
      "▁Green": 8022,
      "NULL": 8023,
      "▁separate": 8024,
      "▁emerg": 8025,
      "▁Que": 8026,
      "▁containing": 8027,
      "▁serial": 8028,
      "▁college": 8029,
      "症状": 8030,
      "nor": 8031,
      "▁stri": 8032,
      "▁died": 8033,
      "▁IT": 8034,
      "▁tmp": 8035,
      "▁earlier": 8036,
      "nMy": 8037,
      "ournal": 8038,
      "▁views": 8039,
      "传播": 8040,
      "VERSION": 8041,
      "wide": 8042,
      "-->\\": 8043,
      "▁Ok": 8044,
      "▁[];\\": 8045,
      "委会": 8046,
      "handler": 8047,
      "ongo": 8048,
      "▁advice": 8049,
      ">.": 8050,
      "▁Wed": 8051,
      "isode": 8052,
      "Directory": 8053,
      "房产": 8054,
      "Selector": 8055,
      "▁----": 8056,
      "图书": 8057,
      "▁Mal": 8058,
      "abric": 8059,
      "▁connected": 8060,
      "▁reader": 8061,
      "loader": 8062,
      "utf": 8063,
      "▁DB": 8064,
      "▁Response": 8065,
      "nAll": 8066,
      "▁Line": 8067,
      "反映": 8068,
      "▁insurance": 8069,
      "▁ther": 8070,
      "杭州": 8071,
      "▁letter": 8072,
      "有了": 8073,
      "creens": 8074,
      "verter": 8075,
      "▁transition": 8076,
      "▁insert": 8077,
      "▁Av": 8078,
      "▁appreci": 8079,
      "运用": 8080,
      "ARY": 8081,
      "▁consult": 8082,
      "▁external": 8083,
      "posite": 8084,
      "▁readers": 8085,
      "produce": 8086,
      "Collections": 8087,
      "▁Div": 8088,
      "▁Path": 8089,
      "lat": 8090,
      "ção": 8091,
      "和国": 8092,
      "osen": 8093,
      "▁presented": 8094,
      "mos": 8095,
      "Head": 8096,
      "allery": 8097,
      "▁earn": 8098,
      "=[": 8099,
      "▁HTTP": 8100,
      "终于": 8101,
      "▁formula": 8102,
      "▁conversation": 8103,
      "▁critical": 8104,
      "ional": 8105,
      "▁»": 8106,
      "▁Engine": 8107,
      "必要": 8108,
      "的所有": 8109,
      "(@": 8110,
      "Metadata": 8111,
      "▁wall": 8112,
      "▁relig": 8113,
      "Transaction": 8114,
      "游客": 8115,
      "▁huge": 8116,
      "VM": 8117,
      "▁independent": 8118,
      "article": 8119,
      "dig": 8120,
      "LA": 8121,
      "等等": 8122,
      "▁{\\\\": 8123,
      "ston": 8124,
      "▁concern": 8125,
      "▁equipment": 8126,
      "member": 8127,
      "▁powerful": 8128,
      "ideos": 8129,
      "▁Anal": 8130,
      "CRE": 8131,
      "aching": 8132,
      "oma": 8133,
      "nx": 8134,
      "ito": 8135,
      "road": 8136,
      "▁ball": 8137,
      "在于": 8138,
      "builder": 8139,
      "▁science": 8140,
      "izont": 8141,
      "▁strength": 8142,
      "▁Company": 8143,
      "热线": 8144,
      "ourse": 8145,
      "▁Find": 8146,
      "axis": 8147,
      "Policy": 8148,
      "▁drink": 8149,
      "nth": 8150,
      "▁corresponding": 8151,
      "contains": 8152,
      "fol": 8153,
      "迅速": 8154,
      "▁Why": 8155,
      "eration": 8156,
      "=\\\\": 8157,
      "▁upper": 8158,
      "▁Facebook": 8159,
      "▁SD": 8160,
      "▁OUT": 8161,
      "hover": 8162,
      "素质": 8163,
      "几乎": 8164,
      "▁Play": 8165,
      "▁identity": 8166,
      "Track": 8167,
      "▁agree": 8168,
      "▁CD": 8169,
      "▁CONDIT": 8170,
      "nBy": 8171,
      "意思": 8172,
      "重视": 8173,
      "▁proposed": 8174,
      "▁Http": 8175,
      "▁}}\\": 8176,
      "▁commerc": 8177,
      "IX": 8178,
      "emon": 8179,
      "▁dou": 8180,
      "▁adult": 8181,
      "▁?>": 8182,
      "▁=>\\": 8183,
      "ktop": 8184,
      "iqu": 8185,
      "Do": 8186,
      "▁turned": 8187,
      "▁terr": 8188,
      "对方": 8189,
      "▁spent": 8190,
      "▁scene": 8191,
      "双方": 8192,
      "到的": 8193,
      "▁reports": 8194,
      "power": 8195,
      "▁Unless": 8196,
      "▁hous": 8197,
      "家长": 8198,
      "Generic": 8199,
      "▁Lear": 8200,
      "▁共": 8201,
      "各地": 8202,
      "▁axis": 8203,
      "▁absolute": 8204,
      "▁LI": 8205,
      "工商": 8206,
      "▁chart": 8207,
      "市民": 8208,
      "▁AD": 8209,
      ")));\\": 8210,
      "orry": 8211,
      "有点": 8212,
      "roke": 8213,
      "▁主": 8214,
      "straint": 8215,
      "▁Republic": 8216,
      "Role": 8217,
      "▁records": 8218,
      "▁purchase": 8219,
      "▁shift": 8220,
      "Network": 8221,
      "▁monitor": 8222,
      ")</": 8223,
      "napshot": 8224,
      "MIN": 8225,
      "present": 8226,
      "uzz": 8227,
      "Loader": 8228,
      "plus": 8229,
      "▁architect": 8230,
      "kin": 8231,
      "sive": 8232,
      "plan": 8233,
      "ested": 8234,
      "Down": 8235,
      "tat": 8236,
      "Meta": 8237,
      "▁Vol": 8238,
      "本人": 8239,
      "leted": 8240,
      "改善": 8241,
      "cli": 8242,
      "▁cat": 8243,
      "pred": 8244,
      "anned": 8245,
      "强的": 8246,
      "ea": 8247,
      "▁ing": 8248,
      "▁patient": 8249,
      "▁Mor": 8250,
      "▁BASIS": 8251,
      "Profile": 8252,
      "▁CONDITIONS": 8253,
      "circ": 8254,
      "一天": 8255,
      "lab": 8256,
      "优质": 8257,
      "▁faith": 8258,
      "▁hop": 8259,
      "内容的": 8260,
      "方面的": 8261,
      "▁[[": 8262,
      "▁remote": 8263,
      "▁Gold": 8264,
      "▁therefore": 8265,
      "variable": 8266,
      "▁modify": 8267,
      "world": 8268,
      "给出": 8269,
      "Author": 8270,
      "clip": 8271,
      "▁regarding": 8272,
      "big": 8273,
      "曾经": 8274,
      "TEST": 8275,
      "Report": 8276,
      "▁\\\"-": 8277,
      "上涨": 8278,
      "▁definitely": 8279,
      "▁帖子": 8280,
      "提醒": 8281,
      "\\\"/>\\": 8282,
      "yg": 8283,
      "ducation": 8284,
      "湖南": 8285,
      "更多的": 8286,
      "法律责任": 8287,
      "eller": 8288,
      "▁units": 8289,
      "▁ON": 8290,
      "▁Rich": 8291,
      "▁straight": 8292,
      "▁trade": 8293,
      "者的": 8294,
      "▁official": 8295,
      "▁repository": 8296,
      "||": 8297,
      "▁easier": 8298,
      "▁analy": 8299,
      "▁adapt": 8300,
      "第一次": 8301,
      "▁appoint": 8302,
      "▁capital": 8303,
      "病毒": 8304,
      ":</": 8305,
      "▁restaur": 8306,
      "▁-\\": 8307,
      "▁collabor": 8308,
      "▁Mo": 8309,
      "▁publish": 8310,
      "而是": 8311,
      "▁society": 8312,
      "ancing": 8313,
      "=-": 8314,
      "person": 8315,
      "▁bul": 8316,
      "ли": 8317,
      "▁opened": 8318,
      "Parent": 8319,
      "engine": 8320,
      "▁headers": 8321,
      "west": 8322,
      "▁Australia": 8323,
      "▁immediately": 8324,
      "▁cloud": 8325,
      "(__": 8326,
      "▁heard": 8327,
      "”，": 8328,
      "gers": 8329,
      "公路": 8330,
      "quis": 8331,
      "download": 8332,
      "▁journey": 8333,
      "▁James": 8334,
      "iverse": 8335,
      "▁floor": 8336,
      "ORE": 8337,
      "▁guest": 8338,
      "▁ul": 8339,
      ")\\\"": 8340,
      "情感": 8341,
      "的主要": 8342,
      "▁detail": 8343,
      "nHere": 8344,
      "▁brought": 8345,
      "▁planning": 8346,
      "OB": 8347,
      "\\\\_": 8348,
      "uplic": 8349,
      "▁obtained": 8350,
      "shop": 8351,
      "▁depth": 8352,
      "crete": 8353,
      "language": 8354,
      "▁Church": 8355,
      "▁©": 8356,
      "来了": 8357,
      "▁minimum": 8358,
      "▁attr": 8359,
      "COL": 8360,
      "依法": 8361,
      "校园": 8362,
      "inates": 8363,
      "▁cmd": 8364,
      "指数": 8365,
      "然而": 8366,
      "晚上": 8367,
      "boolean": 8368,
      "short": 8369,
      "PASSWORD": 8370,
      "▁logging": 8371,
      "此外": 8372,
      "▁HTML": 8373,
      "▁south": 8374,
      "▁Author": 8375,
      "▁north": 8376,
      "登记": 8377,
      "幼儿": 8378,
      "▁transfer": 8379,
      "%\\": 8380,
      "STAT": 8381,
      "资本": 8382,
      "▁Dan": 8383,
      "▁м": 8384,
      "认证": 8385,
      "▁mist": 8386,
      "▁automatically": 8387,
      "iller": 8388,
      "pared": 8389,
      ")]": 8390,
      "ERS": 8391,
      "污染": 8392,
      "care": 8393,
      "德国": 8394,
      "一个人": 8395,
      "▁Friday": 8396,
      "态度": 8397,
      "今日": 8398,
      "Enum": 8399,
      "包含": 8400,
      "▁processing": 8401,
      "native": 8402,
      "FTWARE": 8403,
      "打开": 8404,
      "▁unless": 8405,
      "platform": 8406,
      "▁agent": 8407,
      "▁yes": 8408,
      "](#": 8409,
      "来看": 8410,
      "▁experiences": 8411,
      "附近": 8412,
      "tags": 8413,
      "论文": 8414,
      "PUT": 8415,
      "bing": 8416,
      "▁alert": 8417,
      "▁Road": 8418,
      "▁Association": 8419,
      "▁disease": 8420,
      "▁replace": 8421,
      "та": 8422,
      "▁director": 8423,
      "▁builder": 8424,
      "nam": 8425,
      "TS": 8426,
      "▁Fire": 8427,
      "人口": 8428,
      "born": 8429,
      "▁Management": 8430,
      "翻译成": 8431,
      "ella": 8432,
      "▁versions": 8433,
      "vi": 8434,
      "FS": 8435,
      "▁pd": 8436,
      "ntitle": 8437,
      "企业的": 8438,
      "高速": 8439,
      "kwargs": 8440,
      "▁schools": 8441,
      "▁becomes": 8442,
      "submit": 8443,
      "产品的": 8444,
      "claim": 8445,
      "▁continued": 8446,
      "主动": 8447,
      "▁dream": 8448,
      "▁Paul": 8449,
      "▁'../": 8450,
      "oration": 8451,
      "Microsoft": 8452,
      "的心": 8453,
      "▁Exec": 8454,
      "▁Hash": 8455,
      "相应": 8456,
      "berg": 8457,
      "Transform": 8458,
      "legate": 8459,
      "Definition": 8460,
      "背景": 8461,
      "Success": 8462,
      "另一": 8463,
      "财务": 8464,
      "房屋": 8465,
      "概念": 8466,
      "van": 8467,
      "▁finish": 8468,
      "▁GL": 8469,
      "zone": 8470,
      "orem": 8471,
      "gest": 8472,
      "具备": 8473,
      "localhost": 8474,
      "▁filename": 8475,
      "apy": 8476,
      "Step": 8477,
      "▁Court": 8478,
      "▁failure": 8479,
      "编号": 8480,
      "▁challenge": 8481,
      "▁回复": 8482,
      "▁church": 8483,
      "）\\": 8484,
      "▁wants": 8485,
      "小区": 8486,
      "parser": 8487,
      "▁River": 8488,
      "英文": 8489,
      "研发": 8490,
      "▁/*\\": 8491,
      "nolog": 8492,
      "(['": 8493,
      "▁photos": 8494,
      "▁eyes": 8495,
      "conn": 8496,
      "成员": 8497,
      "cha": 8498,
      "niques": 8499,
      "edge": 8500,
      "voke": 8501,
      "ashion": 8502,
      "列表": 8503,
      "▁ER": 8504,
      "dfrac": 8505,
      "去了": 8506,
      "▁aspects": 8507,
      "版权所有": 8508,
      "▁邮": 8509,
      "▁Could": 8510,
      "不足": 8511,
      "▁provider": 8512,
      "capt": 8513,
      "玻璃": 8514,
      "}`": 8515,
      "▁families": 8516,
      "▁Each": 8517,
      "代码": 8518,
      "▁merge": 8519,
      "▁layout": 8520,
      "']['": 8521,
      "figure": 8522,
      "动力": 8523,
      "还要": 8524,
      "▁handler": 8525,
      "ivation": 8526,
      "等级": 8527,
      "总结": 8528,
      "▁largest": 8529,
      "值得": 8530,
      "▁rates": 8531,
      "获取": 8532,
      "▁SH": 8533,
      "omas": 8534,
      "dro": 8535,
      "children": 8536,
      "▁clin": 8537,
      "参数": 8538,
      "阳光": 8539,
      "道路": 8540,
      "Register": 8541,
      "▁heat": 8542,
      "食物": 8543,
      "onym": 8544,
      "实行": 8545,
      "▁西": 8546,
      "▁\\\"#": 8547,
      "Package": 8548,
      "urer": 8549,
      "▁−": 8550,
      "成果": 8551,
      "▁labels": 8552,
      "▁UN": 8553,
      "▁东": 8554,
      "ocity": 8555,
      "validate": 8556,
      "elines": 8557,
      "phere": 8558,
      "yy": 8559,
      "▁Under": 8560,
      "矛盾": 8561,
      "▁themes": 8562,
      "半年": 8563,
      "▁firm": 8564,
      "▁DIAL": 8565,
      "Models": 8566,
      "exas": 8567,
      "Only": 8568,
      "astr": 8569,
      "▁Rob": 8570,
      "》、《": 8571,
      "bes": 8572,
      "经典": 8573,
      "▁Promise": 8574,
      "well": 8575,
      "溶液": 8576,
      "▁Well": 8577,
      "Sum": 8578,
      "FFFF": 8579,
      "Mapping": 8580,
      "hav": 8581,
      "▁excellent": 8582,
      "本次": 8583,
      "related": 8584,
      "video": 8585,
      ".\\\");\\": 8586,
      "▁DIALOG": 8587,
      "合法": 8588,
      "uted": 8589,
      "yond": 8590,
      "摄影": 8591,
      "▁tasks": 8592,
      "Func": 8593,
      "怎样": 8594,
      "▁username": 8595,
      "▁jobs": 8596,
      "▁partners": 8597,
      "▁helpful": 8598,
      "▁CA": 8599,
      "自我": 8600,
      "▁loved": 8601,
      "▁colors": 8602,
      "美容": 8603,
      "▁District": 8604,
      "Forms": 8605,
      "▁debug": 8606,
      "▁symbol": 8607,
      "协调": 8608,
      "bose": 8609,
      "蛋白": 8610,
      "agent": 8611,
      "atever": 8612,
      "▁smaller": 8613,
      "的一个": 8614,
      "ously": 8615,
      "SY": 8616,
      "expr": 8617,
      "▁mo": 8618,
      "▁Office": 8619,
      "▁Fore": 8620,
      "iling": 8621,
      "nplt": 8622,
      "▁finding": 8623,
      "levision": 8624,
      "▁military": 8625,
      "star": 8626,
      "▁previously": 8627,
      "▁Internet": 8628,
      "▁Action": 8629,
      "▁poor": 8630,
      "}_": 8631,
      "alert": 8632,
      "装饰": 8633,
      "▁Search": 8634,
      "classes": 8635,
      "▁关于": 8636,
      "ador": 8637,
      "isc": 8638,
      "rf": 8639,
      "▁soft": 8640,
      "▁Command": 8641,
      "}</": 8642,
      "对此": 8643,
      "▁shot": 8644,
      "▁squ": 8645,
      "▁Git": 8646,
      "bootstrap": 8647,
      "▁listed": 8648,
      "▁achieve": 8649,
      "initial": 8650,
      "休闲": 8651,
      "黄金": 8652,
      "Layer": 8653,
      "▁establish": 8654,
      "▁Arg": 8655,
      "也许": 8656,
      ",,": 8657,
      "▁mentioned": 8658,
      "▁columns": 8659,
      "LC": 8660,
      "ils": 8661,
      "prototype": 8662,
      "Use": 8663,
      "▁Christmas": 8664,
      "blue": 8665,
      "精彩": 8666,
      "▁Order": 8667,
      "的好": 8668,
      "▁thank": 8669,
      "▁internet": 8670,
      "properties": 8671,
      "尊重": 8672,
      "virt": 8673,
      "uite": 8674,
      "Sync": 8675,
      "▁threat": 8676,
      "▁framework": 8677,
      "EG": 8678,
      "ECT": 8679,
      "ena": 8680,
      "▁spirit": 8681,
      "▁supports": 8682,
      "lots": 8683,
      "▁Process": 8684,
      "▁signed": 8685,
      "原创": 8686,
      "解释": 8687,
      "配合": 8688,
      "▁Jes": 8689,
      "ellig": 8690,
      "▁concer": 8691,
      "oting": 8692,
      "▁panel": 8693,
      "parameters": 8694,
      "一家": 8695,
      "Lock": 8696,
      "▁photo": 8697,
      "OUT": 8698,
      "▁west": 8699,
      "▁pod": 8700,
      "FIG": 8701,
      "izontal": 8702,
      "熟悉": 8703,
      "resents": 8704,
      "uing": 8705,
      "Av": 8706,
      "labels": 8707,
      "比例": 8708,
      "▁trip": 8709,
      "▁budget": 8710,
      "▁传": 8711,
      "上了": 8712,
      "无关": 8713,
      "nPost": 8714,
      "Wh": 8715,
      "▁optional": 8716,
      "▁onto": 8717,
      "ando": 8718,
      "▁nation": 8719,
      "▁Washington": 8720,
      "ani": 8721,
      "CODE": 8722,
      "phi": 8723,
      "diff": 8724,
      "限制": 8725,
      "dataset": 8726,
      "母亲": 8727,
      "Sl": 8728,
      "Editor": 8729,
      "mi": 8730,
      "清楚": 8731,
      "▁looked": 8732,
      "ali": 8733,
      "etailed": 8734,
      "▁Person": 8735,
      "也会": 8736,
      "▁spread": 8737,
      "证书": 8738,
      "▁ple": 8739,
      "▁helped": 8740,
      "▁Board": 8741,
      "▁UI": 8742,
      "▁strict": 8743,
      "▁\\\\\\\"": 8744,
      "▁truth": 8745,
      "linux": 8746,
      "登陆": 8747,
      "▁supply": 8748,
      "▁healthy": 8749,
      "▁海": 8750,
      "▁Plan": 8751,
      "▁Even": 8752,
      "\\\"}": 8753,
      "▁England": 8754,
      "歌曲": 8755,
      "nin": 8756,
      "▁Alex": 8757,
      "OLD": 8758,
      "▁extrem": 8759,
      "▁generally": 8760,
      "Parse": 8761,
      "▁ArrayList": 8762,
      "lower": 8763,
      "events": 8764,
      "Selected": 8765,
      "的影响": 8766,
      "空调": 8767,
      "prec": 8768,
      "▁certainly": 8769,
      "hol": 8770,
      "收费": 8771,
      "useum": 8772,
      "fg": 8773,
      "'));\\": 8774,
      "PD": 8775,
      "▁alone": 8776,
      "▁hus": 8777,
      "yr": 8778,
      "▁_,": 8779,
      "▁js": 8780,
      "SER": 8781,
      "anging": 8782,
      "break": 8783,
      "resources": 8784,
      "▁SOFTWARE": 8785,
      "▁president": 8786,
      "家的": 8787,
      "高度": 8788,
      "database": 8789,
      "及其": 8790,
      "▁equation": 8791,
      "人大": 8792,
      "▁Di": 8793,
      "▁请根据下面的": 8794,
      "▁fear": 8795,
      ":**": 8796,
      "nu": 8797,
      "▁upload": 8798,
      ">::": 8799,
      "▁appears": 8800,
      "=\\\\\\\"": 8801,
      "▁DEFAULT": 8802,
      "writ": 8803,
      "panel": 8804,
      "orrow": 8805,
      "▁Science": 8806,
      "fire": 8807,
      "det": 8808,
      "sey": 8809,
      "▁opening": 8810,
      "适应": 8811,
      "▁Union": 8812,
      "mazon": 8813,
      "▁'\\\\": 8814,
      "icons": 8815,
      "完整": 8816,
      "▁prefix": 8817,
      "▁solve": 8818,
      "▁expert": 8819,
      "▁文章": 8820,
      "stylesheet": 8821,
      "▁Prof": 8822,
      "sin": 8823,
      "▁Bay": 8824,
      "cn": 8825,
      "不了": 8826,
      "▁prices": 8827,
      "▁BO": 8828,
      "flag": 8829,
      "做到": 8830,
      "nections": 8831,
      "▁older": 8832,
      "事情": 8833,
      "▁beyond": 8834,
      "感到": 8835,
      "rum": 8836,
      "▁PC": 8837,
      "~~~~~~~~": 8838,
      "▁conflic": 8839,
      "姓名": 8840,
      "加快": 8841,
      "▁pet": 8842,
      "▁har": 8843,
      "人民币": 8844,
      ".)\\": 8845,
      "▁tags": 8846,
      "ectors": 8847,
      "▁assertEquals": 8848,
      "主席": 8849,
      "▁reasons": 8850,
      "美的": 8851,
      "共和国": 8852,
      "▁spr": 8853,
      "seq": 8854,
      "▁cancer": 8855,
      "limit": 8856,
      "OF": 8857,
      "icies": 8858,
      "plex": 8859,
      "科研": 8860,
      "▁Commit": 8861,
      "TV": 8862,
      "tvoid": 8863,
      "▁radio": 8864,
      "▁chain": 8865,
      "rian": 8866,
      "Gen": 8867,
      "▁opin": 8868,
      "广场": 8869,
      "▁partner": 8870,
      "市场的": 8871,
      "ummy": 8872,
      "▁tx": 8873,
      "cy": 8874,
      "▁Report": 8875,
      "ander": 8876,
      "▁Club": 8877,
      "▁surround": 8878,
      "iger": 8879,
      "扩大": 8880,
      "权利": 8881,
      "▁highest": 8882,
      "Prot": 8883,
      "▁Fre": 8884,
      "▁happens": 8885,
      "VENT": 8886,
      "nOur": 8887,
      "▁attributes": 8888,
      "ри": 8889,
      "attribute": 8890,
      "▁信息": 8891,
      "▁showed": 8892,
      "docker": 8893,
      "▁eight": 8894,
      "Fields": 8895,
      "WR": 8896,
      "▁推荐": 8897,
      "ateway": 8898,
      "大利": 8899,
      "处于": 8900,
      "法院": 8901,
      "▁growing": 8902,
      ")*": 8903,
      "cluster": 8904,
      "apers": 8905,
      "inds": 8906,
      "rier": 8907,
      "是个": 8908,
      "Rest": 8909,
      "▁Tom": 8910,
      "句话": 8911,
      "▁rent": 8912,
      "fx": 8913,
      "▁dress": 8914,
      "▁\\\".": 8915,
      "▁Card": 8916,
      "▁emphas": 8917,
      "招商": 8918,
      "▁Sign": 8919,
      "▁damage": 8920,
      "唯一": 8921,
      "▁Media": 8922,
      "▁./": 8923,
      "▁Child": 8924,
      "▁Commission": 8925,
      "▁全": 8926,
      "Auto": 8927,
      "事故": 8928,
      "fb": 8929,
      "osis": 8930,
      "会上": 8931,
      "发送": 8932,
      "▁发布时间": 8933,
      "播放": 8934,
      "CCESS": 8935,
      "▁feeling": 8936,
      "Sk": 8937,
      "量的": 8938,
      "▁enabled": 8939,
      "Member": 8940,
      "HP": 8941,
      "Total": 8942,
      "▁responsible": 8943,
      "herit": 8944,
      "▁git": 8945,
      "notation": 8946,
      "month": 8947,
      "▁propos": 8948,
      "女孩": 8949,
      "▁dog": 8950,
      "▁Mart": 8951,
      "▁Sunday": 8952,
      "▁Sun": 8953,
      "essions": 8954,
      "\\\")]\\": 8955,
      "让你": 8956,
      "Wrapper": 8957,
      "父亲": 8958,
      "▁Control": 8959,
      "▁slight": 8960,
      "▁identify": 8961,
      "atar": 8962,
      "▁eat": 8963,
      "bra": 8964,
      "确认": 8965,
      "foreach": 8966,
      "fetch": 8967,
      "节目": 8968,
      "toggle": 8969,
      "anal": 8970,
      "etic": 8971,
      "runtime": 8972,
      "▁spend": 8973,
      "▁│": 8974,
      "nce": 8975,
      "时的": 8976,
      "▁pointer": 8977,
      "里面": 8978,
      "日前": 8979,
      "ucket": 8980,
      "straints": 8981,
      "以为": 8982,
      "las": 8983,
      "ategy": 8984,
      "运营": 8985,
      "▁manage": 8986,
      "▁trigger": 8987,
      "感受": 8988,
      "features": 8989,
      "USER": 8990,
      "▁voc": 8991,
      "▁rows": 8992,
      "▁Mer": 8993,
      "永远": 8994,
      "▁Thank": 8995,
      "each": 8996,
      "ToString": 8997,
      "都在": 8998,
      "函数": 8999,
      "Play": 9000,
      "▁samples": 9001,
      "▁couldn": 9002,
      "▁balance": 9003,
      "team": 9004,
      "招生": 9005,
      "Java": 9006,
      "▁pow": 9007,
      "▁smart": 9008,
      "▁Next": 9009,
      "ол": 9010,
      "给予": 9011,
      "▁Super": 9012,
      "▁innov": 9013,
      "同样": 9014,
      "数学": 9015,
      "▁Love": 9016,
      "detail": 9017,
      "▁psy": 9018,
      "INS": 9019,
      "▁processes": 9020,
      "▁warm": 9021,
      "▁Status": 9022,
      "遵守": 9023,
      "PECT": 9024,
      "▁authors": 9025,
      "HERE": 9026,
      "▁qui": 9027,
      "▁Real": 9028,
      "说法": 9029,
      "▁gar": 9030,
      "▁Miss": 9031,
      "会在": 9032,
      "行的": 9033,
      "bg": 9034,
      "DATA": 9035,
      "setup": 9036,
      "oles": 9037,
      "至少": 9038,
      "人物": 9039,
      "Socket": 9040,
      "▁village": 9041,
      "latest": 9042,
      "强调": 9043,
      "encode": 9044,
      "Boolean": 9045,
      "ados": 9046,
      "▁Ham": 9047,
      "预计": 9048,
      "一段": 9049,
      "serve": 9050,
      "▁caused": 9051,
      "'))\\": 9052,
      "▁launch": 9053,
      "▁paid": 9054,
      "eper": 9055,
      "junit": 9056,
      "▁fmt": 9057,
      "porate": 9058,
      "▁representation": 9059,
      "▁matches": 9060,
      "▁).": 9061,
      "raz": 9062,
      "离开": 9063,
      "▁dry": 9064,
      "▁cam": 9065,
      "blank": 9066,
      "Media": 9067,
      "新华网": 9068,
      "文学": 9069,
      "　　": 9070,
      "ventory": 9071,
      "放在": 9072,
      "▁permission": 9073,
      "▁starts": 9074,
      "▁queue": 9075,
      "突破": 9076,
      ")),\\": 9077,
      "▁Take": 9078,
      "Descriptor": 9079,
      "▁hotel": 9080,
      "essor": 9081,
      "lam": 9082,
      "▁login": 9083,
      "▁Admin": 9084,
      "Rece": 9085,
      "▁resolve": 9086,
      ":.": 9087,
      "律师": 9088,
      "arks": 9089,
      "许可": 9090,
      "iency": 9091,
      "FLAG": 9092,
      "(\\\"\\\\": 9093,
      "ala": 9094,
      "队伍": 9095,
      "@@": 9096,
      "'])\\": 9097,
      "▁diagn": 9098,
      "的基础": 9099,
      "机器": 9100,
      "Results": 9101,
      "ius": 9102,
      "▁numpy": 9103,
      "REG": 9104,
      "眼睛": 9105,
      "pped": 9106,
      "▁schema": 9107,
      "────": 9108,
      "lu": 9109,
      "gba": 9110,
      "▁daughter": 9111,
      "相比": 9112,
      ",$": 9113,
      "▁anti": 9114,
      "工资": 9115,
      "▁native": 9116,
      "getName": 9117,
      "▁tit": 9118,
      "Pat": 9119,
      "▁eye": 9120,
      "感染": 9121,
      "▁abstract": 9122,
      "Any": 9123,
      "▁capacity": 9124,
      "flags": 9125,
      "assertEqual": 9126,
      "▁delay": 9127,
      "现实": 9128,
      "▁spot": 9129,
      "gi": 9130,
      "standing": 9131,
      "Trace": 9132,
      "▁flat": 9133,
      "icing": 9134,
      "革命": 9135,
      "▁vec": 9136,
      "▁Cam": 9137,
      "的产品": 9138,
      "▁Android": 9139,
      "kins": 9140,
      "DateTime": 9141,
      "追求": 9142,
      "▁OS": 9143,
      "▁summary": 9144,
      "sn": 9145,
      "▁sett": 9146,
      "效率": 9147,
      "▁employees": 9148,
      "▁seven": 9149,
      "▁techniques": 9150,
      "▁wild": 9151,
      "▁determined": 9152,
      "strument": 9153,
      "安徽": 9154,
      "ов": 9155,
      "▁Application": 9156,
      "▁Two": 9157,
      "▁NS": 9158,
      "sdk": 9159,
      "提交": 9160,
      "天津": 9161,
      "Double": 9162,
      "依据": 9163,
      "来到": 9164,
      "found": 9165,
      "▁voice": 9166,
      "▁successfully": 9167,
      "equation": 9168,
      "material": 9169,
      "河北": 9170,
      "JS": 9171,
      "loy": 9172,
      "化工": 9173,
      "…\\": 9174,
      "▁cit": 9175,
      "nSe": 9176,
      "▁Price": 9177,
      "趋势": 9178,
      "▁fra": 9179,
      "Space": 9180,
      "stats": 9181,
      "▁Cap": 9182,
      "★★": 9183,
      "▁Mary": 9184,
      "▁Saturday": 9185,
      "ications": 9186,
      "全市": 9187,
      "定义": 9188,
      "HTTP": 9189,
      "▁placed": 9190,
      "▁submit": 9191,
      "▁danger": 9192,
      "zh": 9193,
      "rollers": 9194,
      "▁movement": 9195,
      "aud": 9196,
      "bash": 9197,
      "▁Using": 9198,
      "▁Development": 9199,
      "▁efficient": 9200,
      "nAn": 9201,
      "+-": 9202,
      "\\\");": 9203,
      "号码": 9204,
      "▁calling": 9205,
      "ye": 9206,
      "▁Source": 9207,
      "▁math": 9208,
      "nDes": 9209,
      "▁Index": 9210,
      "MD": 9211,
      "▁Bas": 9212,
      "▁选择": 9213,
      "Generator": 9214,
      "▁thr": 9215,
      "ifies": 9216,
      "adr": 9217,
      "理想": 9218,
      "xi": 9219,
      "轻松": 9220,
      "每年": 9221,
      "ugar": 9222,
      ",-": 9223,
      "LINE": 9224,
      "Second": 9225,
      "▁SE": 9226,
      "uilt": 9227,
      "_;\\": 9228,
      "▁地": 9229,
      "▁baby": 9230,
      "本题考查": 9231,
      "▁opportunities": 9232,
      "cfg": 9233,
      "▁benefit": 9234,
      "▁observed": 9235,
      "二手": 9236,
      "▁commercial": 9237,
      "exports": 9238,
      "nAdd": 9239,
      "]{": 9240,
      "即使": 9241,
      "▁Ins": 9242,
      "▁\\\"./": 9243,
      "▁Block": 9244,
      "民主": 9245,
      "ursday": 9246,
      "▁controller": 9247,
      "ées": 9248,
      "redu": 9249,
      "▁Institute": 9250,
      "ет": 9251,
      "我就": 9252,
      "-(": 9253,
      "家具": 9254,
      "▁Support": 9255,
      "近期": 9256,
      "招标": 9257,
      "▁shoot": 9258,
      "theta": 9259,
      "▁redirect": 9260,
      "学会": 9261,
      "▁CC": 9262,
      "▁Michael": 9263,
      "▁transaction": 9264,
      "还可以": 9265,
      "▁interval": 9266,
      "▁metadata": 9267,
      "clusive": 9268,
      "的方法": 9269,
      "▁Many": 9270,
      "▁bath": 9271,
      "常见": 9272,
      "▁destroy": 9273,
      "▁gain": 9274,
      "istent": 9275,
      "▁sch": 9276,
      "sa": 9277,
      "通信": 9278,
      "仍然": 9279,
      ")+": 9280,
      "uesday": 9281,
      "▁notes": 9282,
      "▁updates": 9283,
      "▁nearly": 9284,
      "往往": 9285,
      "有什么": 9286,
      "nSee": 9287,
      "contin": 9288,
      "尽管": 9289,
      "uts": 9290,
      "complete": 9291,
      "字体": 9292,
      "有所": 9293,
      "-\\\\": 9294,
      "▁usage": 9295,
      "▁maintain": 9296,
      "enable": 9297,
      "少年": 9298,
      "看着": 9299,
      "▁strings": 9300,
      "ipes": 9301,
      "▁---\\": 9302,
      "azz": 9303,
      "的事情": 9304,
      "topic": 9305,
      "▁wonderful": 9306,
      "逐渐": 9307,
      "▁Local": 9308,
      "()));\\": 9309,
      "typename": 9310,
      "高校": 9311,
      "▁haven": 9312,
      "例如": 9313,
      "onic": 9314,
      "adian": 9315,
      "▁Sam": 9316,
      "library": 9317,
      "▁Hi": 9318,
      "Full": 9319,
      "night": 9320,
      "fail": 9321,
      "Press": 9322,
      "用品": 9323,
      "edy": 9324,
      "▁append": 9325,
      "DP": 9326,
      "anguages": 9327,
      "对话": 9328,
      "▁situ": 9329,
      "▁次": 9330,
      "uda": 9331,
      "▁desc": 9332,
      "▁execute": 9333,
      "uan": 9334,
      "▁pars": 9335,
      "▁square": 9336,
      "▁USA": 9337,
      "▁fol": 9338,
      "▁presence": 9339,
      "的信息": 9340,
      "zero": 9341,
      "iber": 9342,
      "传递": 9343,
      "山西": 9344,
      "asket": 9345,
      "undred": 9346,
      "▁reset": 9347,
      "▁面": 9348,
      "Xml": 9349,
      "▁Chinese": 9350,
      "nodes": 9351,
      "eps": 9352,
      "▁exhib": 9353,
      "Arr": 9354,
      "▁belong": 9355,
      "webkit": 9356,
      "reek": 9357,
      "不再": 9358,
      "国外": 9359,
      "▁aux": 9360,
      "选项": 9361,
      "预防": 9362,
      "▁Music": 9363,
      "▁vel": 9364,
      "电信": 9365,
      "▁Install": 9366,
      "▁fetch": 9367,
      "如果您": 9368,
      "▁Boolean": 9369,
      "conv": 9370,
      "▁给": 9371,
      "▁husband": 9372,
      "rent": 9373,
      "wrapper": 9374,
      "anta": 9375,
      "年龄": 9376,
      "▁Rights": 9377,
      "填写": 9378,
      "观察": 9379,
      "角度": 9380,
      "▁aren": 9381,
      "不用": 9382,
      "特别是": 9383,
      "TT": 9384,
      "Ret": 9385,
      "▁新闻": 9386,
      "atin": 9387,
      "pages": 9388,
      "不知": 9389,
      "resolve": 9390,
      "▁hyp": 9391,
      "▁王": 9392,
      "物理": 9393,
      "sect": 9394,
      "estival": 9395,
      "columns": 9396,
      "han": 9397,
      "▁Bank": 9398,
      "Tests": 9399,
      "▁saved": 9400,
      "ening": 9401,
      "▁protection": 9402,
      "▁GNU": 9403,
      "▁miles": 9404,
      "▁trend": 9405,
      "predict": 9406,
      "同志": 9407,
      "nPlease": 9408,
      "▁Online": 9409,
      "▁vehicle": 9410,
      "nhttps": 9411,
      "rael": 9412,
      "Login": 9413,
      "▁Access": 9414,
      "博客": 9415,
      "']);\\": 9416,
      "BL": 9417,
      "pkg": 9418,
      "战争": 9419,
      "=\\\"<?": 9420,
      "REF": 9421,
      "云南": 9422,
      "nThat": 9423,
      "uns": 9424,
      "似乎": 9425,
      "▁je": 9426,
      "想要": 9427,
      "▁UID": 9428,
      "▁(_": 9429,
      "Conf": 9430,
      "▁glass": 9431,
      "▁Oh": 9432,
      "▁Const": 9433,
      "各位": 9434,
      "awn": 9435,
      "投资者": 9436,
      "▁на": 9437,
      "在此": 9438,
      "大学生": 9439,
      "▁leader": 9440,
      "▁repo": 9441,
      "ilk": 9442,
      "▁南": 9443,
      "▁Ber": 9444,
      "bour": 9445,
      "'].": 9446,
      "▁hab": 9447,
      "odo": 9448,
      "aked": 9449,
      "▁当前离线": 9450,
      "加大": 9451,
      "ifndef": 9452,
      "利润": 9453,
      "nmodule": 9454,
      "▁Click": 9455,
      "loop": 9456,
      "▁offered": 9457,
      "Bean": 9458,
      "viewer": 9459,
      "加上": 9460,
      "▁Client": 9461,
      "▁embed": 9462,
      "▁Enter": 9463,
      "驾驶": 9464,
      "▁sports": 9465,
      "atalog": 9466,
      "▁sql": 9467,
      "所谓": 9468,
      "▁Lou": 9469,
      "法国": 9470,
      "friend": 9471,
      "El": 9472,
      "asset": 9473,
      "metric": 9474,
      "年代": 9475,
      "▁Team": 9476,
      "theme": 9477,
      "是不是": 9478,
      ". ": 9479,
      "福建": 9480,
      "Constants": 9481,
      "Drawing": 9482,
      "▁advert": 9483,
      "中国的": 9484,
      "▁inner": 9485,
      "▁aria": 9486,
      "说的": 9487,
      "ANG": 9488,
      "▁concent": 9489,
      "nesday": 9490,
      "▁李": 9491,
      "▁changing": 9492,
      "▁artist": 9493,
      "▁Life": 9494,
      "▁quarter": 9495,
      "十二": 9496,
      "▁nom": 9497,
      "}_{": 9498,
      "▁instanceof": 9499,
      "ntemplate": 9500,
      "▁Mount": 9501,
      "Cond": 9502,
      "agger": 9503,
      "突出": 9504,
      "和谐": 9505,
      "旅行": 9506,
      "▁introduced": 9507,
      "▁Texas": 9508,
      "▁Only": 9509,
      "Book": 9510,
      "▁tal": 9511,
      "▁xml": 9512,
      "▁joined": 9513,
      "▁electric": 9514,
      "▁Party": 9515,
      "▁pictures": 9516,
      "▁obvious": 9517,
      "What": 9518,
      "▁farm": 9519,
      "小组": 9520,
      "▁Sal": 9521,
      "▁Cup": 9522,
      "▁respectively": 9523,
      "▁typename": 9524,
      "▁remains": 9525,
      "神经": 9526,
      "rypto": 9527,
      "▁hospital": 9528,
      "▁vac": 9529,
      "▁Roy": 9530,
      "▁dynamic": 9531,
      "依然": 9532,
      "上下": 9533,
      "▁initi": 9534,
      "ytics": 9535,
      "lint": 9536,
      "▁boost": 9537,
      "▁stars": 9538,
      "数码": 9539,
      "▁income": 9540,
      "▁buf": 9541,
      "Save": 9542,
      "▁\\\"\\\"\\": 9543,
      "▁talking": 9544,
      "linear": 9545,
      "▁Pen": 9546,
      "CF": 9547,
      "nr": 9548,
      "利于": 9549,
      "THER": 9550,
      "到底": 9551,
      "▁generation": 9552,
      "USE": 9553,
      "Keys": 9554,
      "▁retr": 9555,
      "▁verify": 9556,
      "良好": 9557,
      "▁invalid": 9558,
      "物业": 9559,
      "Serv": 9560,
      "优化": 9561,
      "天气": 9562,
      "喜欢的": 9563,
      "收到": 9564,
      "lik": 9565,
      "uate": 9566,
      "▁'.": 9567,
      "▁'#": 9568,
      "药品": 9569,
      "\\\"],": 9570,
      "▁brain": 9571,
      "▁Ann": 9572,
      "Flags": 9573,
      "▁showing": 9574,
      "ola": 9575,
      "toBe": 9576,
      "我也": 9577,
      "顺利": 9578,
      "▁implemented": 9579,
      "/>\\": 9580,
      "▁sharing": 9581,
      "▁dimension": 9582,
      "nNow": 9583,
      "▁male": 9584,
      "▁Mont": 9585,
      "cle": 9586,
      "▁ahead": 9587,
      "[:,": 9588,
      "▁feet": 9589,
      "▁harm": 9590,
      "▁Valid": 9591,
      "还没有": 9592,
      "Common": 9593,
      "Events": 9594,
      "▁Leg": 9595,
      "atible": 9596,
      "▁，": 9597,
      "plugins": 9598,
      "Program": 9599,
      "dp": 9600,
      "Anal": 9601,
      "愿意": 9602,
      "directory": 9603,
      "▁Security": 9604,
      "▁weather": 9605,
      "原来": 9606,
      "pair": 9607,
      "公园": 9608,
      "jet": 9609,
      "▁east": 9610,
      "ité": 9611,
      "chat": 9612,
      "▁Rest": 9613,
      "特征": 9614,
      "ools": 9615,
      "Send": 9616,
      "ered": 9617,
      "arian": 9618,
      "IMIT": 9619,
      "▁mail": 9620,
      "▁Champion": 9621,
      "▁efforts": 9622,
      "Simple": 9623,
      "▁Central": 9624,
      "▁gift": 9625,
      "▁\\\"%": 9626,
      "Copy": 9627,
      "uality": 9628,
      "人民共和国": 9629,
      "▁weekend": 9630,
      "湖北": 9631,
      "Fail": 9632,
      "▁workers": 9633,
      "▁attract": 9634,
      "▁journal": 9635,
      "yaml": 9636,
      "▁cup": 9637,
      "avour": 9638,
      "lers": 9639,
      "▁用户": 9640,
      "专门": 9641,
      "▁audio": 9642,
      "一条": 9643,
      "▁Although": 9644,
      "brief": 9645,
      "Hz": 9646,
      "+\\": 9647,
      "奥运": 9648,
      "如果你": 9649,
      "flex": 9650,
      "充满": 9651,
      "RT": 9652,
      "指标": 9653,
      "▁paint": 9654,
      "construct": 9655,
      "nv": 9656,
      "▁songs": 9657,
      "更是": 9658,
      "▁confirm": 9659,
      "▁好": 9660,
      "▁metal": 9661,
      "alty": 9662,
      "unique": 9663,
      "Remove": 9664,
      "azy": 9665,
      "▁waiting": 9666,
      "collection": 9667,
      "动画": 9668,
      "▁Pay": 9669,
      "很大": 9670,
      "aration": 9671,
      "delta": 9672,
      "virtual": 9673,
      "unately": 9674,
      "预测": 9675,
      "lan": 9676,
      "所有的": 9677,
      "报价": 9678,
      "▁payment": 9679,
      "▁mission": 9680,
      "isting": 9681,
      "▁Step": 9682,
      "ulator": 9683,
      "▁Elect": 9684,
      "▁ms": 9685,
      "▁restrict": 9686,
      "arnings": 9687,
      "房子": 9688,
      "Ac": 9689,
      "▁最后登录": 9690,
      "实力": 9691,
      "▁props": 9692,
      "(\\\"%": 9693,
      "Screen": 9694,
      "▁meant": 9695,
      "楼主": 9696,
      "okens": 9697,
      "margin": 9698,
      "心里": 9699,
      "▁segment": 9700,
      "▁assign": 9701,
      "plier": 9702,
      "▁span": 9703,
      "▁Word": 9704,
      "nNo": 9705,
      "▁consequ": 9706,
      "▁traffic": 9707,
      "urred": 9708,
      "ORY": 9709,
      "▁election": 9710,
      "rand": 9711,
      "contact": 9712,
      "nis": 9713,
      "▁payload": 9714,
      "发言": 9715,
      "Failed": 9716,
      "Single": 9717,
      "更好": 9718,
      "▁Last": 9719,
      "季度": 9720,
      "▁arm": 9721,
      "km": 9722,
      "▁lab": 9723,
      "▁reached": 9724,
      "想到": 9725,
      "▁discussion": 9726,
      "▁cards": 9727,
      "editor": 9728,
      ">\\\\": 9729,
      "的主": 9730,
      "icine": 9731,
      "inf": 9732,
      "▁sust": 9733,
      "复杂": 9734,
      "nSh": 9735,
      "▁compare": 9736,
      "医学": 9737,
      "基因": 9738,
[...]
