{
  "version": "1.0",
  "truncation": null,
  "padding": null,
  "added_tokens": [
    {
      "id": 65024,
      "content": "<|begin▁of▁text|>",
      "single_word": false,
      "lstrip": false,
      "rstrip": false,
      "normalized": false,
      "special": true
    },
    {
      "id": 65025,
      "content": "<|end▁of▁text|>",
      "single_word": false,
      "lstrip": false,
      "rstrip": false,
      "normalized": false,
      "special": true
    },
    {
      "id": 65026,
      "content": "<|padding|>",
      "single_word": false,
      "lstrip": false,
      "rstrip": false,
      "normalized": false,
      "special": true
    },
    {
      "id": 65027,
      "content": "<|user|>",
      "single_word": false,
      "lstrip": false,
      "rstrip": false,
      "normalized": false,
      "special": true
    },
    {
      "id": 65028,
      "content": "<|assistant|>",
      "single_word": false,
      "lstrip": false,
      "rstrip": false,
      "normalized": false,
      "special": true
    }
  ],
  "normalizer": {
    "type": "Sequence",
    "normalizers": []
  },
  "pre_tokenizer": {
    "type": "Sequence",
    "pretokenizers": [
      {
        "type": "Split",
        "pattern": {
          "String": "[\r\n]"
        },
        "behavior": "Isolated",
        "invert": false
      },
      {
        "type": "Split",
        "pattern": {
          "String": "\\s?[A-Za-zµÀ-ÖØ-öø-ƺƼ-ƿǄ-ʓʕ-ʯͰ-ͳͶͷͻ-ͽͿΆΈ-ΊΌΎ-ΡΣ-ϵϷ-ҁҊ-ԯԱ-ՖႠ-ჅᎠ-Ᏽᏸ-ᏽᲐ-ᲺᲽ-Ჿᴀ-ᴫᵫ-ᵷᵹ-ᶚḀ-ἕἘ-Ἕἠ-ὅὈ-Ὅὐ-ὗὙὛὝὟ-ώᾀ-ᾴᾶ-ᾼιῂ-ῄῆ-ῌῐ-ΐῖ-Ίῠ-Ῥῲ-ῴῶ-ῼℂℇℊ-ℓℕℙ-ℝℤΩℨK-ℭℯ-ℴℹℼ-ℿⅅ-ⅉⅎↃↄⰀ-ⱻⱾ-ⳤⳫ-ⳮⳲⳳꙀ-ꙭꚀ-ꚛꜢ-ꝯꝱ-ꞇꞋ-ꞎꭰ-ꮿﬀ-ﬆﬓ-ﬗＡ-Ｚａ-ｚ𐐀-𐑏𐒰-𐓓𐓘-𐓻𐲀-𐲲𐳀-𐳲𑢠-𑣟𞤀-𞥃]+"
        },
        "behavior": "Isolated",
        "invert": false
      },
      {
        "type": "Split",
        "pattern": {
          "String": "\\s?[!-/:-~！-／：-～‘-‟　-。]+"
        },
        "behavior": "Isolated",
        "invert": false
      },
      {
        "type": "Split",
        "pattern": {
          "String": "\\s+$"
        },
        "behavior": "Isolated",
        "invert": false
      },
      {
        "type": "Split",
        "pattern": {
          "String": "[一-龥ࠀ-一가-퟿]+"
        },
        "behavior": "Isolated",
        "invert": false
      },
      {
        "type": "Digits",
        "individual_digits": true
      },
      {
        "type": "ByteLevel",
        "add_prefix_space": false,
        "trim_offsets": true,
        "use_regex": false
      }
    ]
  },
  "post_processor": {
    "type": "ByteLevel",
    "add_prefix_space": true,
    "trim_offsets": false,
    "use_regex": true
  },
  "decoder": {
    "type": "ByteLevel",
    "add_prefix_space": true,
    "trim_offsets": true,
    "use_regex": true
  },
  "model": {
    "type": "BPE",
    "dropout": null,
    "unk_token": null,
    "continuing_subword_prefix": null,
    "end_of_word_suffix": null,
    "fuse_unk": false,
    "byte_fallback": false,
    "ignore_merges": false,
    "vocab": {
      "!": 0,
      "\"": 1,
      "#": 2,
      "$": 3,
      "%": 4,
      "&": 5,
      "'": 6,
      "(": 7,
      ")": 8,
      "*": 9,
      "+": 10,
      ",": 11,
      "-": 12,
      ".": 13,
      "/": 14,
      "0": 15,
      "1": 16,
      "2": 17,
      "3": 18,
      "4": 19,
      "5": 20,
      "6": 21,
      "7": 22,
      "8": 23,
      "9": 24,
      ":": 25,
      ";": 26,
      "<": 27,
      "=": 28,
      ">": 29,
      "?": 30,
      "@": 31,
      "A": 32,
      "B": 33,
      "C": 34,
      "D": 35,
      "E": 36,
      "F": 37,
      "G": 38,
      "H": 39,
      "I": 40,
      "J": 41,
      "K": 42,
      "L": 43,
      "M": 44,
      "N": 45,
      "O": 46,
      "P": 47,
      "Q": 48,
      "R": 49,
      "S": 50,
      "T": 51,
      "U": 52,
      "V": 53,
      "W": 54,
      "X": 55,
      "Y": 56,
      "Z": 57,
      "[": 58,
      "\\": 59,
      "]": 60,
      "^": 61,
      "_": 62,
      "`": 63,
      "a": 64,
      "b": 65,
      "c": 66,
      "d": 67,
      "e": 68,
      "f": 69,
      "g": 70,
      "h": 71,
      "i": 72,
      "j": 73,
      "k": 74,
      "l": 75,
      "m": 76,
      "n": 77,
      "o": 78,
      "p": 79,
      "q": 80,
      "r": 81,
      "s": 82,
      "t": 83,
      "u": 84,
      "v": 85,
      "w": 86,
      "x": 87,
      "y": 88,
      "z": 89,
      "{": 90,
      "|": 91,
      "}": 92,
      "~": 93,
      "¡": 94,
      "¢": 95,
      "£": 96,
      "¤": 97,
      "¥": 98,
      "¦": 99,
      "§": 100,
      "¨": 101,
      "©": 102,
      "ª": 103,
      "«": 104,
      "¬": 105,
      "®": 106,
      "¯": 107,
      "°": 108,
      "±": 109,
      "²": 110,
      "³": 111,
      "´": 112,
      "µ": 113,
      "¶": 114,
      "·": 115,
      "¸": 116,
      "¹": 117,
      "º": 118,
      "»": 119,
      "¼": 120,
      "½": 121,
      "¾": 122,
      "¿": 123,
      "Â": 124,
      "Ã": 125,
      "Ä": 126,
      "Å": 127,
      "Æ": 128,
      "Ç": 129,
      "È": 130,
      "É": 131,
      "Ê": 132,
      "Ë": 133,
      "Ì": 134,
      "Í": 135,
      "Î": 136,
      "Ï": 137,
      "Ð": 138,
      "Ñ": 139,
      "Ò": 140,
      "Ó": 141,
      "Ô": 142,
      "Õ": 143,
      "Ö": 144,
      "×": 145,
      "Ø": 146,
      "Ù": 147,
      "Ú": 148,
      "Û": 149,
      "Ü": 150,
      "Ý": 151,
      "Þ": 152,
      "ß": 153,
      "à": 154,
      "á": 155,
      "â": 156,
      "ã": 157,
      "ä": 158,
      "å": 159,
      "æ": 160,
      "ç": 161,
      "è": 162,
      "é": 163,
      "ê": 164,
      "ë": 165,
      "ì": 166,
      "í": 167,
      "î": 168,
      "ï": 169,
      "ð": 170,
      "ñ": 171,
      "ò": 172,
      "ó": 173,
      "ô": 174,
      "Ā": 175,
      "ā": 176,
      "Ă": 177,
      "ă": 178,
      "Ą": 179,
      "ą": 180,
      "Ć": 181,
      "ć": 182,
      "Ĉ": 183,
      "ĉ": 184,
      "Ċ": 185,
      "ċ": 186,
      "Č": 187,
      "č": 188,
      "Ď": 189,
      "ď": 190,
      "Đ": 191,
      "đ": 192,
      "Ē": 193,
      "ē": 194,
      "Ĕ": 195,
      "ĕ": 196,
      "Ė": 197,
      "ė": 198,
      "Ę": 199,
      "ę": 200,
      "Ě": 201,
      "ě": 202,
      "Ĝ": 203,
      "ĝ": 204,
      "Ğ": 205,
      "ğ": 206,
      "Ġ": 207,
      "ġ": 208,
      "Ģ": 209,
      "ģ": 210,
      "Ĥ": 211,
      "ĥ": 212,
      "Ħ": 213,
      "ħ": 214,
      "Ĩ": 215,
      "ĩ": 216,
      "Ī": 217,
      "ī": 218,
      "Ĭ": 219,
      "ĭ": 220,
      "Į": 221,
      "į": 222,
      "İ": 223,
      "ı": 224,
      "Ĳ": 225,
      "ĳ": 226,
      "Ĵ": 227,
      "ĵ": 228,
      "Ķ": 229,
      "ķ": 230,
      "ĸ": 231,
      "Ĺ": 232,
      "ĺ": 233,
      "Ļ": 234,
      "ļ": 235,
      "Ľ": 236,
      "ľ": 237,
      "Ŀ": 238,
      "ŀ": 239,
      "Ł": 240,
      "ł": 241,
      "Ń": 242,
      "ĠĠ": 243,
      "eĠ": 244,
      "ĠĠĠĠ": 245,
      "th": 246,
      "in": 247,
      "sĠ": 248,
      "er": 249,
      "tĠ": 250,
      "on": 251,
      "an": 252,
      "dĠ": 253,
      ",Ġ": 254,
      "en": 255,
      "or": 256,
      "ĠĠĠĠĠĠĠĠ": 257,
      "ti": 258,
      "re": 259,
      "al": 260,
      "ar": 261,
      "yĠ": 262,
      "theĠ": 263,
      "ä¸": 264,
      "ou": 265,
      "oĠ": 266,
      "ing": 267,
      "st": 268,
      ".Ġ": 269,
      "at": 270,
      "fĠ": 271,
      "le": 272,
      "aĠ": 273,
      "ingĠ": 274,
      "toĠ": 275,
      "andĠ": 276,
      "om": 277,
      "es": 278,
      "tion": 279,
      "çļ": 280,
      "ofĠ": 281,
      "çļĦ": 282,
      "ic": 283,
      "edĠ": 284,
      "it": 285,
      "erĠ": 286,
      "el": 287,
      "äº": 288,
      "ac": 289,
      "as": 290,
      "ĊĠĠĠĠĠĠĠĠ": 291,
      "isĠ": 292,
      "ro": 293,
      "inĠ": 294,
      "ãĢ": 295,
      "is": 296,
      "ĉĉ": 297,
      "ï¼": 298,
      "il": 299,
      "orĠ": 300,
      "æľ": 301,
      "am": 302,
      "ec": 303,
      "åı": 304,
      "âĢ": 305,
      "atĠ": 306,
      "esĠ": 307,
      "ch": 308,
      "åħ": 309,
      "et": 310,
      "ur": 311,
      "ä»": 312,
      ".Ċ": 313,
      "ol": 314,
      "ent": 315,
      "ï¼Į": 316,
      "ĊĠĠĠĠ": 317,
      "id": 318,
      "us": 319,
      ":Ġ": 320,
      "em": 321,
      "ow": 322,
      "asĠ": 323,
      "ig": 324,
      "alĠ": 325,
      "ad": 326,
      "å¤": 327,
      "å®": 328,
      "lĠ": 329,
      "=Ġ": 330,
      "onĠ": 331,
      "ed": 332,
      "ation": 333,
      "un": 334,
      "anĠ": 335,
      "åĪ": 336,
      "Th": 337,
      "--": 338,
      "im": 339,
      "ex": 340,
      "ag": 341,
      "ab": 342,
      "ĊĊ": 343,
      "tr": 344,
      "è¿": 345,
      "enĠ": 346,
      "ä½": 347,
      "pl": 348,
      "thĠ": 349,
      "åĲ": 350,
      "con": 351,
      "çĶ": 352,
      "åľ": 353,
      "veĠ": 354,
      "wh": 355,
      ")Ġ": 356,
      "ap": 357,
      "ãĢģ": 358,
      "ul": 359,
      "you": 360,
      "forĠ": 361,
      "ir": 362,
      "os": 363,
      "æĺ": 364,
      "åĬ": 365,
      "di": 366,
      "pro": 367,
      "æĪ": 368,
      "com": 369,
      "ç»": 370,
      "wi": 371,
      "ver": 372,
      "nĠ": 373,
      "se": 374,
      "kĠ": 375,
      "de": 376,
      "thatĠ": 377,
      "op": 378,
      "è¯": 379,
      "lo": 380,
      "æĸ": 381,
      "res": 382,
      ");": 383,
      "lyĠ": 384,
      "the": 385,
      "li": 386,
      "um": 387,
      "entĠ": 388,
      "åĽ": 389,
      "ä¹": 390,
      "hĠ": 391,
      "qu": 392,
      "ä¸Ģ": 393,
      "è®": 394,
      "æĹ": 395,
      "ha": 396,
      "ri": 397,
      "ay": 398,
      "cl": 399,
      "for": 400,
      "si": 401,
      "å¹": 402,
      "ew": 403,
      "å°": 404,
      "ä¼": 405,
      "sh": 406,
      "ter": 407,
      "IĠ": 408,
      "Ċĉĉ": 409,
      "withĠ": 410,
      "åį": 411,
      "no": 412,
      "itĠ": 413,
      "æĺ¯": 414,
      "od": 415,
      "su": 416,
      "æĿ": 417,
      "åŃ": 418,
      "and": 419,
      "fr": 420,
      "ãĢĤ": 421,
      "ut": 422,
      "rĠ": 423,
      "ĊĠĠĠĠĠĠĠĠĠĠĠĠĠĠĠĠ": 424,
      "TheĠ": 425,
      "areĠ": 426,
      "leĠ": 427,
      "s,Ġ": 428,
      "**": 429,
      "//": 430,
      "âĢĻ": 431,
      "åľ¨": 432,
      "å¸": 433,
      "æľī": 434,
      "ofĠtheĠ": 435,
      "ma": 436,
      "oun": 437,
      "be": 438,
      "sp": 439,
      "æī": 440,
      "per": 441,
      "å·": 442,
      "ff": 443,
      "e,Ġ": 444,
      "igh": 445,
      "beĠ": 446,
      "str": 447,
      "éĩ": 448,
      "äºº": 449,
      "tionĠ": 450,
      "åº": 451,
      "ationĠ": 452,
      "å¼": 453,
      "è¡": 454,
      "ceĠ": 455,
      "to": 456,
      "omĠ": 457,
      "pĠ": 458,
      "ä¸į": 459,
      "=\"": 460,
      "\"Ġ": 461,
      "åĨ": 462,
      "-Ġ": 463,
      "åĮ": 464,
      "youĠ": 465,
      "ĊĠĠĠĠĠĠĠĠĠĠĠĠ": 466,
      "</": 467,
      "éĢ": 468,
      "tic": 469,
      "par": 470,
      "por": 471,
      "ä¸Ń": 472,
      "----": 473,
      "åĩ": 474,
      "ereĠ": 475,
      "ĊĠĠ": 476,
      "äºĨ": 477,
      "è´": 478,
      "ateĠ": 479,
      "uc": 480,
      "ass": 481,
      "èĢ": 482,
      "æķ": 483,
      "end": 484,
      "çĽ": 485,
      "å¾": 486,
      "å¯": 487,
      "bu": 488,
      "In": 489,
      "ear": 490,
      "oc": 491,
      "Ċĉ": 492,
      "wasĠ": 493,
      "æĬ": 494,
      "ce": 495,
      "åĴ": 496,
      "gr": 497,
      "te": 498,
      "æł": 499,
      "wor": 500,
      "fromĠ": 501,
      "ev": 502,
      "byĠ": 503,
      "oo": 504,
      "è§": 505,
      "ĥ½": 506,
      "ä¸º": 507,
      "owĠ": 508,
      "inĠtheĠ": 509,
      "thisĠ": 510,
      "..": 511,
      "å±": 512,
      "ta": 513,
      "icĠ": 514,
      "etĠ": 515,
      "èµ": 516,
      "av": 517,
      "åĴĮ": 518,
      "å¤§": 519,
      "éĻ": 520,
      "outĠ": 521,
      "tim": 522,
      "ç§": 523,
      "æĢ": 524,
      "s.Ġ": 525,
      "çİ": 526,
      "ate": 527,
      "tur": 528,
      "pr": 529,
      "pe": 530,
      "ayĠ": 531,
      "tsĠ": 532,
      "of": 533,
      "haveĠ": 534,
      "oul": 535,
      "å¥": 536,
      "æĶ": 537,
      "all": 538,
      "çī": 539,
      "åĳ": 540,
      "ang": 541,
      "æ°": 542,
      "notĠ": 543,
      "keĠ": 544,
      "éĹ": 545,
      "åİ": 546,
      ">Ġ": 547,
      "ewĠ": 548,
      "ä»¥": 549,
      "ub": 550,
      "æ³": 551,
      "allĠ": 552,
      "ifĠ": 553,
      "ä¸Ĭ": 554,
      "int": 555,
      "ä¿": 556,
      "ä¸ļ": 557,
      "chĠ": 558,
      "Ġ=Ġ": 559,
      "çº": 560,
      "our": 561,
      "åĽ½": 562,
      "ot": 563,
      "çĶ¨": 564,
      "fi": 565,
      "čĊ": 566,
      "å¿": 567,
      "we": 568,
      "form": 569,
      "å½": 570,
      "ersĠ": 571,
      "å¹´": 572,
      "ect": 573,
      "arĠ": 574,
      ",ĠĠ": 575,
      "therĠ": 576,
      "ĠĠĠĠĠĠĠĠĠĠĠĠĠĠĠĠ": 577,
      "æŃ": 578,
      "åıĳ": 579,
      "illĠ": 580,
      "vi": 581,
      "¦ģ": 582,
      "oneĠ": 583,
      "çĶŁ": 584,
      "ind": 585,
      ";Ġ": 586,
      "ityĠ": 587,
      "ä¸ª": 588,
      "soĠ": 589,
      "est": 590,
      "ser": 591,
      "ment": 592,
      "==": 593,
      "éĿ": 594,
      "èĩ": 595,
      "ame": 596,
      "ty": 597,
      "ouldĠ": 598,
      "ud": 599,
      "æİ": 600,
      "è¦ģ": 601,
      "'sĠ": 602,
      "æĹ¶": 603,
      "çĲ": 604,
      "get": 605,
      "æµ": 606,
      "ess": 607,
      "he": 608,
      "âĢľ": 609,
      "è¡Į": 610,
      "rec": 611,
      "ä¼ļ": 612,
      "âĢĿ": 613,
      "åŃ¦": 614,
      "æĪĳ": 615,
      "gĠ": 616,
      "y,Ġ": 617,
      "è½": 618,
      "pos": 619,
      "ov": 620,
      "canĠ": 621,
      "s.": 622,
      "ist": 623,
      "ä½ľ": 624,
      "çŃ": 625,
      "æŀ": 626,
      "èĥ½": 627,
      "ob": 628,
      "yourĠ": 629,
      "sc": 630,
      "ne": 631,
      "*Ġ": 632,
      "åĵ": 633,
      "willĠ": 634,
      "irĠ": 635,
      "toĠtheĠ": 636,
      "è¿Ļ": 637,
      "âĢĻsĠ": 638,
      ",ĠandĠ": 639,
      "iz": 640,
      "é¢": 641,
      "idĠ": 642,
      "æ²": 643,
      "çľ": 644,
      "me": 645,
      "St": 646,
      "sĠandĠ": 647,
      "å·¥": 648,
      "ph": 649,
      "val": 650,
      "oug": 651,
      "ra": 652,
      "åĪ°": 653,
      "Ch": 654,
      "åı¯": 655,
      "ext": 656,
      "Con": 657,
      "ĠĠĠ": 658,
      "ack": 659,
      "ç½": 660,
      "lin": 661,
      "å¯¹": 662,
      "comp": 663,
      "terĠ": 664,
      "è¾": 665,
      "allyĠ": 666,
      "æĿ¥": 667,
      "sel": 668,
      "fin": 669,
      "åĩº": 670,
      "weĠ": 671,
      "stĠ": 672,
      "æĭ": 673,
      "mor": 674,
      "e.Ġ": 675,
      "äºİ": 676,
      "eĠofĠ": 677,
      "æĪĲ": 678,
      "dat": 679,
      "ç«": 680,
      "åħ¬": 681,
      "po": 682,
      "mĠ": 683,
      "iĠ": 684,
      "()": 685,
      "gi": 686,
      "æĮ": 687,
      "\">": 688,
      "eĠĠ": 689,
      "ourĠ": 690,
      "estĠ": 691,
      "up": 692,
      "edĠtoĠ": 693,
      "æĥ": 694,
      "retur": 695,
      "cont": 696,
      "çĲĨ": 697,
      "der": 698,
      "Ġ(": 699,
      "ati": 700,
      "æ¯": 701,
      "co": 702,
      "ableĠ": 703,
      "dis": 704,
      "man": 705,
      "hasĠ": 706,
      "åŁ": 707,
      "Re": 708,
      "butĠ": 709,
      "elĠ": 710,
      "theĠĠ": 711,
      "ichĠ": 712,
      "åľ°": 713,
      "æ±": 714,
      "ĊĠĠĠĠĠĠ": 715,
      "col": 716,
      ")Ġ{": 717,
      "ure": 718,
      "ue": 719,
      "lec": 720,
      "if": 721,
      "Ċĉĉĉĉ": 722,
      "cre": 723,
      "éĺ": 724,
      "åī": 725,
      "go": 726,
      ";Ċ": 727,
      "å®¶": 728,
      ".ĠI": 729,
      "antĠ": 730,
      "æĸ¹": 731,
      "bo": 732,
      "sĠofĠ": 733,
      "åĪĨ": 734,
      "ä¸ĭ": 735,
      "som": 736,
      "ain": 737,
      "##": 738,
      "ell": 739,
      "æ¬": 740,
      "au": 741,
      "br": 742,
      "An": 743,
      "ke": 744,
      "æľ¬": 745,
      "ign": 746,
      "ç®": 747,
      "ä¾": 748,
      "seĠ": 749,
      "this": 750,
      "are": 751,
      "--------": 752,
      "ther": 753,
      "ageĠ": 754,
      "Wh": 755,
      "ard": 756,
      "æĸ°": 757,
      "ight": 758,
      "heĠ": 759,
      "åĬ¨": 760,
      "AĠ": 761,
      "ingĠtheĠ": 762,
      "å¤ļ": 763,
      "pre": 764,
      "portĠ": 765,
      "æĦ": 766,
      "atedĠ": 767,
      "og": 768,
      "set": 769,
      "ubl": 770,
      "äº§": 771,
      ".ĠTheĠ": 772,
      "->": 773,
      "class": 774,
      "newĠ": 775,
      "duc": 776,
      "pres": 777,
      "fun": 778,
      "ip": 779,
      "whichĠ": 780,
      "act": 781,
      "out": 782,
      "ightĠ": 783,
      "æ¸": 784,
      "èĤ": 785,
      "loc": 786,
      "å¸Ĥ": 787,
      "é«": 788,
      "ustĠ": 789,
      "****": 790,
      "ĠandĠ": 791,
      "mentĠ": 792,
      "inter": 793,
      "enc": 794,
      "ameĠ": 795,
      "æĹ¥": 796,
      "div": 797,
      "èĩª": 798,
      "é«ĺ": 799,
      "å¦": 800,
      "arg": 801,
      "adĠ": 802,
      "ant": 803,
      "theirĠ": 804,
      "min": 805,
      "æ³ķ": 806,
      "ä»¬": 807,
      "ç»ı": 808,
      "age": 809,
      "(\"": 810,
      "è¿Ľ": 811,
      "åĲİ": 812,
      "é¡": 813,
      "ĠĠtheĠĠ": 814,
      "kingĠ": 815,
      "theyĠ": 816,
      "es,Ġ": 817,
      "returnĠ": 818,
      "çİ°": 819,
      ".ĠTh": 820,
      "å®ļ": 821,
      "è¿ĩ": 822,
      "__": 823,
      "ht": 824,
      "ail": 825,
      "å®ŀ": 826,
      "ç¬": 827,
      ")Ċ": 828,
      "able": 829,
      "myĠ": 830,
      "publ": 831,
      "æı": 832,
      ".ĠĠ": 833,
      "æ´": 834,
      "æľº": 835,
      "Ã©": 836,
      "af": 837,
      "ureĠ": 838,
      "do": 839,
      "aw": 840,
      "ans": 841,
      "åħ¨": 842,
      "comm": 843,
      "åĲĪ": 844,
      "ç¨": 845,
      "port": 846,
      "useĠ": 847,
      "å°±": 848,
      "éģ": 849,
      "amĠ": 850,
      "ä½ĵ": 851,
      "ãĢĤĊ": 852,
      "vic": 853,
      "?Ġ": 854,
      "iti": 855,
      "ä¸İ": 856,
      "çŃī": 857,
      "åĵģ": 858,
      "app": 859,
      "}Ċ": 860,
      "éĥ": 861,
      "Pro": 862,
      "sĠtoĠ": 863,
      "row": 864,
      "onĠtheĠ": 865,
      "å¼Ģ": 866,
      "ä¹Ł": 867,
      "moreĠ": 868,
      "aseĠ": 869,
      "çĤ": 870,
      "xĠ": 871,
      "éĿ¢": 872,
      "enceĠ": 873,
      "hisĠ": 874,
      "ast": 875,
      "åĬĽ": 876,
      "åĲĮ": 877,
      "åĮĸ": 878,
      "emĠ": 879,
      "sion": 880,
      "aboutĠ": 881,
      "ve": 882,
      "åģ": 883,
      "Ċĉĉĉ": 884,
      "IN": 885,
      "éķ": 886,
      "otherĠ": 887,
      "sy": 888,
      "anc": 889,
      "ple": 890,
      "ord": 891,
      "å»": 892,
      "En": 893,
      "èģ": 894,
      "fl": 895,
      "ä»ĸ": 896,
      "æį": 897,
      "enti": 898,
      "ach": 899,
      "mar": 900,
      "ä¸»": 901,
      "æĽ": 902,
      "year": 903,
      "æĢ§": 904,
      "åħ³": 905,
      "ill": 906,
      "fe": 907,
      "'Ġ": 908,
      "',Ġ": 909,
      "vel": 910,
      "des": 911,
      "çĶµ": 912,
      "Com": 913,
      "pleĠ": 914,
      "å¥½": 915,
      "fir": 916,
      "kn": 917,
      "ç¤": 918,
      "Al": 919,
      "æľĪ": 920,
      "utĠ": 921,
      "åħ¶": 922,
      "upĠ": 923,
      "ostĠ": 924,
      "æĸĩ": 925,
      "wereĠ": 926,
      "coun": 927,
      "éĥ¨": 928,
      "son": 929,
      "mo": 930,
      "name": 931,
      "æīĢ": 932,
      "tw": 933,
      "è·": 934,
      "+Ġ": 935,
      "mod": 936,
      "èĢħ": 937,
      "::": 938,
      "ä¹ĭ": 939,
      "itsĠ": 940,
      "usĠ": 941,
      "ueĠ": 942,
      "ever": 943,
      "ER": 944,
      "ari": 945,
      "alsoĠ": 946,
      "\",": 947,
      "å°ı": 948,
      "add": 949,
      "les": 950,
      "ener": 951,
      "åĬł": 952,
      "ult": 953,
      "Str": 954,
      "åĬ¡": 955,
      "self": 956,
      "è°": 957,
      "åĨħ": 958,
      "Ð¾": 959,
      "e.": 960,
      "art": 961,
      "anceĠ": 962,
      "è®¾": 963,
      ",ĠtheĠ": 964,
      "çŁ": 965,
      "intĠ": 966,
      "cur": 967,
      "iteĠ": 968,
      "anyĠ": 969,
      "eng": 970,
      "ç½ĳ": 971,
      "sec": 972,
      "ak": 973,
      "pon": 974,
      "åŃĲ": 975,
      "æıĲ": 976,
      "('": 977,
      "ib": 978,
      "âĢĵ": 979,
      "åīį": 980,
      "éĢļ": 981,
      "éĽ": 982,
      "ileĠ": 983,
      "();": 984,
      "aryĠ": 985,
      "oughĠ": 986,
      "å¦Ĥ": 987,
      "emb": 988,
      "å¿ĥ": 989,
      "func": 990,
      "åı¸": 991,
      "åĢ": 992,
      "//Ġ": 993,
      "pa": 994,
      "astĠ": 995,
      "ownĠ": 996,
      "ound": 997,
      "åº¦": 998,
      "forĠtheĠ": 999,
      "ectĠ": 1000,
      ".ĠS": 1001,
      "ç³": 1002,
      "yĠĠ": 1003,
      "),Ġ": 1004,
      "Ex": 1005,
      "deĠ": 1006,
      "âĢĶ": 1007,
      "eseĠ": 1008,
      "åĿ": 1009,
      "æĻ": 1010,
      "with": 1011,
      "s.Ċ": 1012,
      "å»º": 1013,
      "ust": 1014,
      "ticĠ": 1015,
      "èĢĮ": 1016,
      "Ar": 1017,
      "vo": 1018,
      "edĠbyĠ": 1019,
      "sid": 1020,
      "pt": 1021,
      "èµĦ": 1022,
      "whenĠ": 1023,
      "beenĠ": 1024,
      "äºĭ": 1025,
      "åıĬ": 1026,
      "éĹ´": 1027,
      "requ": 1028,
      "å¾Ĺ": 1029,
      "è¶": 1030,
      "mon": 1031,
      "fac": 1032,
      "off": 1033,
      "publicĠ": 1034,
      "SĠ": 1035,
      "å±ķ": 1036,
      "æŁ": 1037,
      "ç¬¬": 1038,
      "|Ġ": 1039,
      "gre": 1040,
      "\",Ġ": 1041,
      "ousĠ": 1042,
      "ç¾": 1043,
      "umb": 1044,
      "èī": 1045,
      "ledĠ": 1046,
      "éĩį": 1047,
      "åĮº": 1048,
      "ish": 1049,
      "é£": 1050,
      "ialĠ": 1051,
      "åĪ¶": 1052,
      "doĠ": 1053,
      "ĊĠĠĠĠĠĠĠĠĠĠĠĠĠĠĠĠĠĠĠĠ": 1054,
      "çĤ¹": 1055,
      "sa": 1056,
      "æľĢ": 1057,
      "hadĠ": 1058,
      "]Ġ": 1059,
      "oundĠ": 1060,
      "sub": 1061,
      "åľº": 1062,
      "æģ": 1063,
      "ref": 1064,
      "prov": 1065,
      "====": 1066,
      "incl": 1067,
      "åħ¬åı¸": 1068,
      "bec": 1069,
      "read": 1070,
      "æ¶": 1071,
      "åºĶ": 1072,
      "å¤©": 1073,
      "ä¿Ŀ": 1074,
      "ity": 1075,
      "&Ġ": 1076,
      "likeĠ": 1077,
      "class=\"": 1078,
      "éķ¿": 1079,
      "sĠĠ": 1080,
      "ingĠtoĠ": 1081,
      "whoĠ": 1082,
      "éĥ½": 1083,
      "mat": 1084,
      "ackĠ": 1085,
      "Ġ*Ġ": 1086,
      "æķ°": 1087,
      "è¡¨": 1088,
      "wouldĠ": 1089,
      "tp": 1090,
      "ardĠ": 1091,
      "importĠ": 1092,
      "Un": 1093,
      "iesĠ": 1094,
      "çĿ": 1095,
      "ä¿¡": 1096,
      "çł": 1097,
      "ç³»": 1098,
      "Tr": 1099,
      "ild": 1100,
      "å¢": 1101,
      "hel": 1102,
      "éĶ": 1103,
      "å°Ĩ": 1104,
      "oseĠ": 1105,
      "ifĠ(": 1106,
      "fa": 1107,
      "Ð°": 1108,
      "ON": 1109,
      "ongĠ": 1110,
      "rel": 1111,
      "éĩı": 1112,
      "Ðµ": 1113,
      "çĻ": 1114,
      ">Ċ": 1115,
      "achĠ": 1116,
      "low": 1117,
      "essĠ": 1118,
      "ç®¡": 1119,
      "whatĠ": 1120,
      "TĠ": 1121,
      "'tĠ": 1122,
      "æľŁ": 1123,
      "timeĠ": 1124,
      "éļ": 1125,
      "æ°ĳ": 1126,
      "entsĠ": 1127,
      "',": 1128,
      "èĬ": 1129,
      "EĠ": 1130,
      "Fr": 1131,
      "getĠ": 1132,
      "tit": 1133,
      "icalĠ": 1134,
      "çĽ®": 1135,
      "isĠaĠ": 1136,
      "æ°´": 1137,
      "ç¨ĭ": 1138,
      "ion": 1139,
      "spec": 1140,
      "bet": 1141,
      "own": 1142,
      "å§": 1143,
      "tĠofĠ": 1144,
      "ĊĠĠĠĠĠĠĠĠĠĠĠĠĠĠĠĠĠĠĠĠĠĠĠĠ": 1145,
      "è¿ĺ": 1146,
      "til": 1147,
      ";ĊĠĠĠĠ": 1148,
      "tem": 1149,
      "åĳĺ": 1150,
      "ç©": 1151,
      "è¯´": 1152,
      "iv": 1153,
      "ä½į": 1154,
      "æĥħ": 1155,
      "cor": 1156,
      "ffer": 1157,
      "ide": 1158,
      "Ð¸": 1159,
      "data": 1160,
      "}ĊĊ": 1161,
      "oodĠ": 1162,
      "bas": 1163,
      "ire": 1164,
      "put": 1165,
      "#Ġ": 1166,
      "çĽ¸": 1167,
      "åķ": 1168,
      "éĩĳ": 1169,
      "rit": 1170,
      "è¢": 1171,
      "ellĠ": 1172,
      "éľ": 1173,
      "åħ¥": 1174,
      "boo": 1175,
      "è®¡": 1176,
      "work": 1177,
      "ãģ": 1178,
      "thanĠ": 1179,
      "Ac": 1180,
      "dec": 1181,
      "ofĠĠ": 1182,
      "ject": 1183,
      "æĺİ": 1184,
      "ong": 1185,
      "includ": 1186,
      "ä½ł": 1187,
      "someĠ": 1188,
      "justĠ": 1189,
      "çķ": 1190,
      "endĠ": 1191,
      ".ĠH": 1192,
      "ç§į": 1193,
      "herĠ": 1194,
      "æķĻ": 1195,
      "âĢĿĠ": 1196,
      "ep": 1197,
      "çĦ": 1198,
      "!Ġ": 1199,
      "å½ĵ": 1200,
      "WeĠ": 1201,
      "riv": 1202,
      "tionsĠ": 1203,
      "å¤ĸ": 1204,
      "plac": 1205,
      "åħĥ": 1206,
      "struc": 1207,
      "ç±": 1208,
      "ä»¶": 1209,
      "æĽ´": 1210,
      "lesĠ": 1211,
      "http": 1212,
      "ef": 1213,
      "e_": 1214,
      "ech": 1215,
      "çľĭ": 1216,
      "thereĠ": 1217,
      "withĠtheĠ": 1218,
      "èĲ": 1219,
      "Cl": 1220,
      "over": 1221,
      "}Ġ": 1222,
      "RE": 1223,
      "er,Ġ": 1224,
      "err": 1225,
      "tain": 1226,
      "çī©": 1227,
      "?Ċ": 1228,
      "éģĵ": 1229,
      "ä¸ī": 1230,
      "sionĠ": 1231,
      "æ¡": 1232,
      "onlyĠ": 1233,
      "edĠinĠ": 1234,
      "produc": 1235,
      "ing,Ġ": 1236,
      "cri": 1237,
      "å¹¶": 1238,
      "éħ": 1239,
      "ann": 1240,
      "loo": 1241,
      "åĲį": 1242,
      "å¼ı": 1243,
      "å®ī": 1244,
      "stem": 1245,
      "reĠ": 1246,
      "play": 1247,
      "this.": 1248,
      "sol": 1249,
      "elyĠ": 1250,
      "Ad": 1251,
      "æĦı": 1252,
      "éĤ": 1253,
      "thr": 1254,
      "ineĠ": 1255,
      "let": 1256,
      "),": 1257,
      "sur": 1258,
      "noĠ": 1259,
      ");Ċ": 1260,
      "org": 1261,
      "åĽł": 1262,
      ").": 1263,
      "overĠ": 1264,
      "ial": 1265,
      "è½¦": 1266,
      "ull": 1267,
      ":Ġ\"": 1268,
      "andĠĠ": 1269,
      "ç¡": 1270,
      "sup": 1271,
      "ug": 1272,
      "ick": 1273,
      "howĠ": 1274,
      "DĠ": 1275,
      "fol": 1276,
      "æ¯Ķ": 1277,
      "ä½¿": 1278,
      "ST": 1279,
      "ä¸Ģä¸ª": 1280,
      "cho": 1281,
      "å¹³": 1282,
      "arr": 1283,
      "ï¼ļ": 1284,
      "åĪ©": 1285,
      "è¢«": 1286,
      "æĹł": 1287,
      "so": 1288,
      "Ð½": 1289,
      "derĠ": 1290,
      "æ¬¡": 1291,
      "æĬĢ": 1292,
      "æį®": 1293,
      "æĪĸ": 1294,
      "sĊ": 1295,
      "gl": 1296,
      "umĠ": 1297,
      "åı¯ä»¥": 1298,
      "eĠandĠ": 1299,
      "ationsĠ": 1300,
      "ä»İ": 1301,
      "ble": 1302,
      "rol": 1303,
      "that": 1304,
      "Col": 1305,
      "text": 1306,
      "çĥ": 1307,
      "://": 1308,
      "çĿĢ": 1309,
      "thingĠ": 1310,
      "day": 1311,
      "oryĠ": 1312,
      "ç²": 1313,
      "mostĠ": 1314,
      "don": 1315,
      "æŀľ": 1316,
      "æĤ": 1317,
      "a,Ġ": 1318,
      "atĠtheĠ": 1319,
      "eĠtheĠ": 1320,
      "tiveĠ": 1321,
      "InĠ": 1322,
      "user": 1323,
      "Par": 1324,
      "ens": 1325,
      "å¾Ī": 1326,
      "æĪĳä»¬": 1327,
      "ä»£": 1328,
      "æľį": 1329,
      "vis": 1330,
      "You": 1331,
      "ç´": 1332,
      "Res": 1333,
      "ç¼": 1334,
      "èĭ": 1335,
      "=>Ġ": 1336,
      "èµ·": 1337,
      "çĸ": 1338,
      "assĠ": 1339,
      "veryĠ": 1340,
      "-Ċ": 1341,
      "éĻ¢": 1342,
      "AL": 1343,
      "OR": 1344,
      "log": 1345,
      "å·¥ä½ľ": 1346,
      "ough": 1347,
      "ge": 1348,
      "éĵ": 1349,
      "ç¾İ": 1350,
      "åĳĬ": 1351,
      "her": 1352,
      "åİŁ": 1353,
      "reg": 1354,
      "aĠs": 1355,
      ".ĠB": 1356,
      "çĦ¶": 1357,
      "itt": 1358,
      "way": 1359,
      "è£": 1360,
      "éĴ": 1361,
      "bl": 1362,
      "ÑĤ": 1363,
      "AT": 1364,
      "chang": 1365,
      "é¢ĺ": 1366,
      "æľ¯": 1367,
      "âĢĻtĠ": 1368,
      "åŁº": 1369,
      "æŃ¤": 1370,
      "mayĠ": 1371,
      "cess": 1372,
      "æīĭ": 1373,
      "ThisĠ": 1374,
      "æ·": 1375,
      "æ´»": 1376,
      "ksĠ": 1377,
      "âĢ¦": 1378,
      "Ġm": 1379,
      "\"Ċ": 1380,
      "siz": 1381,
      "theseĠ": 1382,
      "ãĢĭ": 1383,
      "tiv": 1384,
      "firstĠ": 1385,
      ".ĠIĠ": 1386,
      "ãĢĬ": 1387,
      "fromĠtheĠ": 1388,
      "æĶ¿": 1389,
      "cent": 1390,
      "çī¹": 1391,
      "typ": 1392,
      "åķĨ": 1393,
      "é¦": 1394,
      "Se": 1395,
      "esĠandĠ": 1396,
      "åŀ": 1397,
      "e-": 1398,
      "ĉĉĉĉ": 1399,
      "intoĠ": 1400,
      "pol": 1401,
      "äºĮ": 1402,
      "reeĠ": 1403,
      "==Ġ": 1404,
      "Dat": 1405,
      "fig": 1406,
      "ç¥": 1407,
      "De": 1408,
      "omeĠ": 1409,
      "med": 1410,
      "ä¸ĵ": 1411,
      "ingĠaĠ": 1412,
      "!Ċ": 1413,
      "ç§ĳ": 1414,
      "äº¤": 1415,
      "exp": 1416,
      "Ty": 1417,
      "ä¼ģ": 1418,
      "whereĠ": 1419,
      "ĠĊĊ": 1420,
      "plic": 1421,
      "AN": 1422,
      "æİ¥": 1423,
      "********": 1424,
      "----------------": 1425,
      "ä½Ĩ": 1426,
      "cal": 1427,
      "éĩĮ": 1428,
      "meĠ": 1429,
      "ys": 1430,
      "æłĩ": 1431,
      "EN": 1432,
      "cr": 1433,
      "inv": 1434,
      "æŃ£": 1435,
      "att": 1436,
      "è§£": 1437,
      "å¸¸": 1438,
      "edĠtheĠ": 1439,
      "âĢĵĠ": 1440,
      "))": 1441,
      "Âł": 1442,
      "not": 1443,
      ":Ċ": 1444,
      "edĠĠ": 1445,
      "ä¸ŃåĽ½": 1446,
      "gu": 1447,
      "è´¨": 1448,
      "æĬ¥": 1449,
      "det": 1450,
      "auseĠ": 1451,
      "e(": 1452,
      "ideĠ": 1453,
      ".ĠA": 1454,
      "iceĠ": 1455,
      "s/": 1456,
      "inĠaĠ": 1457,
      "cep": 1458,
      "No": 1459,
      "ä¹Ī": 1460,
      "æ±Ĥ": 1461,
      "twoĠ": 1462,
      "ĊĠĠĠĠĠĠĠĠĠĠĠĠĠĠĠĠĠĠĠĠĠĠĠĠĠĠĠĠĠĠĠĠ": 1463,
      "cer": 1464,
      "andĠtheĠ": 1465,
      "è§Ħ": 1466,
      "ulĠ": 1467,
      "AR": 1468,
      "mer": 1469,
      "',Ġ'": 1470,
      "čĊĠĠĠĠ": 1471,
      "numb": 1472,
      "ilĠ": 1473,
      "stat": 1474,
      "ly": 1475,
      "makeĠ": 1476,
      "å£": 1477,
      "tyĠ": 1478,
      "éĹ®": 1479,
      "ä»·": 1480,
      "test": 1481,
      "æº": 1482,
      "mu": 1483,
      "differ": 1484,
      "lect": 1485,
      "æ²¡": 1486,
      "isĠtheĠ": 1487,
      "ĠĠĠĠĠ": 1488,
      "For": 1489,
      "åĲĦ": 1490,
      "inst": 1491,
      "æģ¯": 1492,
      "Sy": 1493,
      "opleĠ": 1494,
      "çĶ±": 1495,
      "çĪ": 1496,
      "Id": 1497,
      "ingsĠ": 1498,
      "list": 1499,
      "ç»ĵ": 1500,
      "è¯ģ": 1501,
      "èį": 1502,
      "ä»»": 1503,
      "peri": 1504,
      "ed,Ġ": 1505,
      "self.": 1506,
      "nam": 1507,
      "é¡¹": 1508,
      "Gr": 1509,
      "*/": 1510,
      ",Ċ": 1511,
      "><": 1512,
      "Ser": 1513,
      "some": 1514,
      "èĪ": 1515,
      ";ĊĊ": 1516,
      "å·²": 1517,
      "shouldĠ": 1518,
      "äºĽ": 1519,
      "ath": 1520,
      "To": 1521,
      "workĠ": 1522,
      "thatĠtheĠ": 1523,
      "éľĢ": 1524,
      "ile": 1525,
      "olĠ": 1526,
      "eyĠ": 1527,
      "ä¼ģä¸ļ": 1528,
      "mis": 1529,
      "respon": 1530,
      "çĹ": 1531,
      "him": 1532,
      "lab": 1533,
      "{Ġ": 1534,
      "ĠÐ": 1535,
      "adeĠ": 1536,
      "sm": 1537,
      "ementĠ": 1538,
      "back": 1539,
      "top": 1540,
      "å¼º": 1541,
      "ç»Ł": 1542,
      "ualĠ": 1543,
      "acc": 1544,
      "trans": 1545,
      "extĠ": 1546,
      "type": 1547,
      "view": 1548,
      "stor": 1549,
      "toĠbeĠ": 1550,
      "curr": 1551,
      "à¤": 1552,
      "suchĠ": 1553,
      "toĠĠ": 1554,
      "ionĠ": 1555,
      "eff": 1556,
      "èĥ": 1557,
      "åįķ": 1558,
      "On": 1559,
      "åĲĳ": 1560,
      "themĠ": 1561,
      "thenĠ": 1562,
      ".ĊTheĠ": 1563,
      "uĠ": 1564,
      "ID": 1565,
      "new": 1566,
      "çģ": 1567,
      "æĮģ": 1568,
      "afterĠ": 1569,
      "çº¿": 1570,
      "everĠ": 1571,
      "LL": 1572,
      "ÑĢ": 1573,
      "fo": 1574,
      ".com": 1575,
      ".ĠM": 1576,
      "éª": 1577,
      "iaĠ": 1578,
      ".ĠĊĊ": 1579,
      "List": 1580,
      "æł¼": 1581,
      "sim": 1582,
      "æĶ¶": 1583,
      "Sh": 1584,
      "åıĳå±ķ": 1585,
      "åħ·": 1586,
      "sign": 1587,
      "bre": 1588,
      "Vi": 1589,
      "èģĶ": 1590,
      "aĠĠ": 1591,
      "CĠ": 1592,
      "grou": 1593,
      "sĠtheĠ": 1594,
      "ey": 1595,
      "æµ·": 1596,
      "åįģ": 1597,
      "peopleĠ": 1598,
      "ous": 1599,
      "fil": 1600,
      "çŁ¥": 1601,
      "oy": 1602,
      "Ap": 1603,
      "å¤Ħ": 1604,
      ".get": 1605,
      "usingĠ": 1606,
      "ort": 1607,
      "ĊĠĠĠĠĠĠĠĠĠĠ": 1608,
      "them": 1609,
      "cle": 1610,
      "æł·": 1611,
      "è´¹": 1612,
      "esĠofĠ": 1613,
      "gener": 1614,
      "manyĠ": 1615,
      "aĠh": 1616,
      "%Ġ": 1617,
      "bleĠ": 1618,
      "æµģ": 1619,
      "åİ»": 1620,
      "åŀĭ": 1621,
      "servic": 1622,
      "ansĠ": 1623,
      "run": 1624,
      "couldĠ": 1625,
      "é£İ": 1626,
      "ash": 1627,
      "è·¯": 1628,
      "orsĠ": 1629,
      "sta": 1630,
      "olog": 1631,
      "thin": 1632,
      "éĹ¨": 1633,
      "leg": 1634,
      "sum": 1635,
      "Ñģ": 1636,
      "Ð¾Ð": 1637,
      "YouĠ": 1638,
      "æĥ³": 1639,
      "mov": 1640,
      "Val": 1641,
      "oldĠ": 1642,
      "_{": 1643,
      "eld": 1644,
      "Cont": 1645,
      "/Ġ": 1646,
      "èº": 1647,
      "any": 1648,
      "sk": 1649,
      "ç»Ħ": 1650,
      "constĠ": 1651,
      "atingĠ": 1652,
      "Pl": 1653,
      ");ĊĠĠĠĠ": 1654,
      "æĪ·": 1655,
      "istĠ": 1656,
      "rect": 1657,
      "ç¤¾": 1658,
      "dr": 1659,
      "####": 1660,
      "ä¾Ľ": 1661,
      "stud": 1662,
      "é©": 1663,
      "dayĠ": 1664,
      "çº§": 1665,
      "æ»": 1666,
      "equ": 1667,
      "è¯·": 1668,
      "ton": 1669,
      "ativeĠ": 1670,
      "ance": 1671,
      "ç«ĭ": 1672,
      "ä¸ľ": 1673,
      "sheĠ": 1674,
      ");ĊĠĠĠĠĠĠĠĠ": 1675,
      "æķĪ": 1676,
      ",ĠbutĠ": 1677,
      "wid": 1678,
      "defin": 1679,
      "åıª": 1680,
      "can": 1681,
      "åģļ": 1682,
      "ww": 1683,
      "ost": 1684,
      "ä¼ł": 1685,
      "è¿Ĳ": 1686,
      "ful": 1687,
      "æĦŁ": 1688,
      "wat": 1689,
      "åĸ": 1690,
      "throughĠ": 1691,
      "è¿Ľè¡Į": 1692,
      "Ġ-Ġ": 1693,
      "doc": 1694,
      "å¯¼": 1695,
      "wayĠ": 1696,
      "ory": 1697,
      "ich": 1698,
      "ft": 1699,
      "['": 1700,
      "a.": 1701,
      "bel": 1702,
      "eachĠ": 1703,
      "voidĠ": 1704,
      "e.Ċ": 1705,
      "åĽŀ": 1706,
      "sl": 1707,
      "Name": 1708,
      "ä¸ĩ": 1709,
      "ä¸¤": 1710,
      "ç¤º": 1711,
      "mark": 1712,
      "èº«": 1713,
      "åĪĽ": 1714,
      "ç±»": 1715,
      "td": 1716,
      "ition": 1717,
      "æľįåĬ¡": 1718,
      "SE": 1719,
      "åĻ": 1720,
      "s_": 1721,
      "Ob": 1722,
      "æ°Ķ": 1723,
      "å¤ĩ": 1724,
      "éĤ£": 1725,
      "ence": 1726,
      "eĊ": 1727,
      "åıĹ": 1728,
      "char": 1729,
      "start": 1730,
      "è®¤": 1731,
      "under": 1732,
      "ä¹¦": 1733,
      "Mar": 1734,
      "è¥": 1735,
      "file": 1736,
      "befor": 1737,
      "èī²": 1738,
      "tre": 1739,
      "tal": 1740,
      "but": 1741,
      "éĢī": 1742,
      "æºĲ": 1743,
      "evenĠ": 1744,
      "willĠbeĠ": 1745,
      "éĢł": 1746,
      "çłĶ": 1747,
      "æĿĥ": 1748,
      "èĦ": 1749,
      "abil": 1750,
      "cas": 1751,
      "ï¼Ī": 1752,
      "asĠaĠ": 1753,
      "è¯¥": 1754,
      "``": 1755,
      "ax": 1756,
      "ĠĠofĠĠ": 1757,
      "inc": 1758,
      ")ĊĠĠĠĠ": 1759,
      "vari": 1760,
      "ç¦": 1761,
      "æ³¨": 1762,
      "issu": 1763,
      "è¥¿": 1764,
      "lineĠ": 1765,
      "sty": 1766,
      "ningĠ": 1767,
      "betwe": 1768,
      "amil": 1769,
      "è°ĥ": 1770,
      "å¹¿": 1771,
      "å¸Ī": 1772,
      "putĠ": 1773,
      "ç®¡çĲĨ": 1774,
      "vers": 1775,
      ";ĊĠĠĠĠĠĠĠĠ": 1776,
      "ï¼ī": 1777,
      "value": 1778,
      "<Ġ": 1779,
      ".,Ġ": 1780,
      "å®¹": 1781,
      "æĢ»": 1782,
      "DE": 1783,
      "IT": 1784,
      "ros": 1785,
      "èĢĥ": 1786,
      "</div": 1787,
      "String": 1788,
      "sĠinĠ": 1789,
      "velop": 1790,
      "ForĠ": 1791,
      "è£ħ": 1792,
      "seeĠ": 1793,
      "ml": 1794,
      "åħ±": 1795,
      "éĻĲ": 1796,
      "åı£": 1797,
      "fulĠ": 1798,
      "čĊĠĠĠĠĠĠĠĠ": 1799,
      "epĠ": 1800,
      "old": 1801,
      "æĿ¡": 1802,
      "čĊĉ": 1803,
      "priv": 1804,
      "becauseĠ": 1805,
      "atesĠ": 1806,
      "LE": 1807,
      "cap": 1808,
      "item": 1809,
      "AM": 1810,
      "er.": 1811,
      "èİ": 1812,
      ".ĠItĠ": 1813,
      "ĊĠĠĠ": 1814,
      "functionĠ": 1815,
      "å¢ŀ": 1816,
      "writ": 1817,
      "èĤ²": 1818,
      ".ĠThisĠ": 1819,
      "WhatĠ": 1820,
      "è®°": 1821,
      "åĻ¨": 1822,
      "å·±": 1823,
      "èĩ³": 1824,
      "æ£": 1825,
      "isĠĠ": 1826,
      "ationalĠ": 1827,
      "éĽĨ": 1828,
      "ven": 1829,
      "cour": 1830,
      "bus": 1831,
      "backĠ": 1832,
      "âģ": 1833,
      "exam": 1834,
      "ultĠ": 1835,
      "åıĺ": 1836,
      "ItĠ": 1837,
      "s:Ġ": 1838,
      "word": 1839,
      "<div": 1840,
      "è®©": 1841,
      "withĠaĠ": 1842,
      "åı°": 1843,
      "æĸĻ": 1844,
      "az": 1845,
      "ç»Ļ": 1846,
      "canĠbeĠ": 1847,
      "jectĠ": 1848,
      "by": 1849,
      "Pr": 1850,
      "Qu": 1851,
      "es.Ġ": 1852,
      "-ĠĊ": 1853,
      "valu": 1854,
      "èĮ": 1855,
      "ationĠofĠ": 1856,
      "sear": 1857,
      "hand": 1858,
      "ie": 1859,
      "åįĹ": 1860,
      "čĊčĊ": 1861,
      "âģĩ": 1862,
      "sĠareĠ": 1863,
      "eas": 1864,
      "follow": 1865,
      "actĠ": 1866,
      "Ph": 1867,
      "æĮĩ": 1868,
      "tern": 1869,
      "},": 1870,
      "]Ġ=Ġ": 1871,
      "åŁİ": 1872,
      "ãĤ": 1873,
      "...": 1874,
      "å½±": 1875,
      "nec": 1876,
      "åĶ": 1877,
      "ator": 1878,
      "erĠofĠ": 1879,
      "åĪ«": 1880,
      "èĩªå·±": 1881,
      "develop": 1882,
      "Wi": 1883,
      "CO": 1884,
      "alse": 1885,
      "show": 1886,
      "He": 1887,
      "dist": 1888,
      "lif": 1889,
      "io": 1890,
      "($": 1891,
      "betweenĠ": 1892,
      "tingĠ": 1893,
      "{ĊĠĠĠĠ": 1894,
      "åħĪ": 1895,
      "car": 1896,
      "FF": 1897,
      "https": 1898,
      "varĠ": 1899,
      "ç«Ļ": 1900,
      "////": 1901,
      "dep": 1902,
      "è¾¾": 1903,
      "Im": 1904,
      "goodĠ": 1905,
      "æīĵ": 1906,
      "part": 1907,
      "aliz": 1908,
      "setĠ": 1909,
      "å½¢": 1910,
      "åı·": 1911,
      "æŁ¥": 1912,
      "meth": 1913,
      "æĶ¯": 1914,
      "inform": 1915,
      "model": 1916,
      "sonĠ": 1917,
      "itĠisĠ": 1918,
      "We": 1919,
      "æĬķ": 1920,
      "ask": 1921,
      "Ġp": 1922,
      "ishĠ": 1923,
      "knowĠ": 1924,
      "high": 1925,
      "asĠĠ": 1926,
      "one": 1927,
      "æł¡": 1928,
      "äº§åĵģ": 1929,
      ":Ġ'": 1930,
      "jo": 1931,
      "========": 1932,
      "è®º": 1933,
      "åıĸ": 1934,
      "Co": 1935,
      "å®Į": 1936,
      "çľģ": 1937,
      "muchĠ": 1938,
      "gin": 1939,
      "forĠaĠ": 1940,
      "sw": 1941,
      "whileĠ": 1942,
      "ainĠ": 1943,
      "\\n": 1944,
      "lat": 1945,
      "åĮĹ": 1946,
      "AndĠ": 1947,
      ")ĊĠĠĠĠĠĠĠĠ": 1948,
      "ank": 1949,
      "dur": 1950,
      "æĬĢæľ¯": 1951,
      "ipĠ": 1952,
      "é»": 1953,
      "å±±": 1954,
      "æ¸¸": 1955,
      ".ĠInĠ": 1956,
      "<divĠ": 1957,
      "æİ¨": 1958,
      "åįİ": 1959,
      "print": 1960,
      "æ²¡æľī": 1961,
      "æĹ¶éĹ´": 1962,
      "serv": 1963,
      "dataĠ": 1964,
      "head": 1965,
      "èĲ¥": 1966,
      "pec": 1967,
      "æ®": 1968,
      "oper": 1969,
      "aph": 1970,
      "https://": 1971,
      "t.": 1972,
      "çİ¯": 1973,
      "require": 1974,
      "æĪ¿": 1975,
      "post": 1976,
      "ĊĠ": 1977,
      "å°ĳ": 1978,
      "wellĠ": 1979,
      "right": 1980,
      "NU": 1981,
      "åĮ»": 1982,
      "ĠtoĠ": 1983,
      "è½¬": 1984,
      "IfĠ": 1985,
      ";Ċĉ": 1986,
      "ç²¾": 1987,
      "ele": 1988,
      "soc": 1989,
      "main": 1990,
      "ç¡®": 1991,
      "æ¡Ī": 1992,
      "çĽ´": 1993,
      "ä¼ĺ": 1994,
      "bod": 1995,
      "æ¨": 1996,
      "åĩĨ": 1997,
      "æķ´": 1998,
      "åĨ³": 1999,
      "saidĠ": 2000,
      "æĶ¾": 2001,
      "èĢģ": 2002,
      "takeĠ": 2003,
      "Or": 2004,
      ".ĊĊ": 2005,
      "Tim": 2006,
      "ia": 2007,
      ";ĊĠĠ": 2008,
      "stand": 2009,
      "ĠĠĠĠĠĠ": 2010,
      "ont": 2011,
      "åĮħ": 2012,
      "ä¿¡æģ¯": 2013,
      "ques": 2014,
      "giv": 2015,
      "rightĠ": 2016,
      "çľŁ": 2017,
      "æ²»": 2018,
      "æ¯ı": 2019,
      "bor": 2020,
      "del": 2021,
      "}\\": 2022,
      "ek": 2023,
      "s,ĠandĠ": 2024,
      "emberĠ": 2025,
      "inĠĠ": 2026,
      "thoseĠ": 2027,
      "met": 2028,
      "ingĠandĠ": 2029,
      "nowĠ": 2030,
      "star": 2031,
      "AC": 2032,
      "å®¢": 2033,
      "date": 2034,
      "èĬĤ": 2035,
      "ici": 2036,
      "å¸ĥ": 2037,
      "wantĠ": 2038,
      "æĶ¹": 2039,
      "auth": 2040,
      "ularĠ": 2041,
      "Mod": 2042,
      "import": 2043,
      "vir": 2044,
      "Di": 2045,
      "earĠ": 2046,
      "red": 2047,
      "worl": 2048,
      "provid": 2049,
      "sit": 2050,
      "ict": 2051,
      "å²": 2052,
      "famil": 2053,
      "åĽĽ": 2054,
      "TH": 2055,
      "åĬŀ": 2056,
      "beingĠ": 2057,
      "laĠ": 2058,
      "echn": 2059,
      "æŀĦ": 2060,
      "iseĠ": 2061,
      "ument": 2062,
      "Type": 2063,
      "èĻ": 2064,
      "sin": 2065,
      "fer": 2066,
      "çĲĥ": 2067,
      "ingĠĠ": 2068,
      "ãĥ": 2069,
      "yĠandĠ": 2070,
      "tionĠofĠ": 2071,
      "letĠ": 2072,
      "esĠtoĠ": 2073,
      "incre": 2074,
      "es.": 2075,
      "ĠS": 2076,
      "param": 2077,
      ">Ċ<": 2078,
      "çħ": 2079,
      "dition": 2080,
      "å¸¦": 2081,
      "classĠ": 2082,
      "æ¬¾": 2083,
      "....": 2084,
      "ä½¿çĶ¨": 2085,
      "I'": 2086,
      "lessĠ": 2087,
      "éĹ®é¢ĺ": 2088,
      "net": 2089,
      "System": 2090,
      "ĠM": 2091,
      "></": 2092,
      "å¸Ĥåľº": 2093,
      "n'tĠ": 2094,
      "è§Ĩ": 2095,
      "caseĠ": 2096,
      "ignĠ": 2097,
      "ond": 2098,
      "result": 2099,
      "RO": 2100,
      "åıĤ": 2101,
      "ers": 2102,
      "tenĠ": 2103,
      "pow": 2104,
      "{ĊĠĠĠĠĠĠĠĠ": 2105,
      "chec": 2106,
      "Ev": 2107,
      "åħī": 2108,
      "è®®": 2109,
      "é¢Ĩ": 2110,
      "sameĠ": 2111,
      "éĺŁ": 2112,
      "men": 2113,
      "æ¶Ī": 2114,
      "è¾ĥ": 2115,
      "web": 2116,
      "goĠ": 2117,
      "++": 2118,
      "aceĠ": 2119,
      "PĠ": 2120,
      "_t": 2121,
      "å¤´": 2122,
      "å¤į": 2123,
      "æ¼": 2124,
      "åĽ¾": 2125,
      "larg": 2126,
      "tillĠ": 2127,
      "IC": 2128,
      "è§Ĥ": 2129,
      "illi": 2130,
      "redĠ": 2131,
      "Set": 2132,
      "proc": 2133,
      ").Ġ": 2134,
      "è¯Ŀ": 2135,
      "ç©º": 2136,
      "è±": 2137,
      "éĿŀ": 2138,
      "å¥³": 2139,
      "sĠthatĠ": 2140,
      "true": 2141,
      "privateĠ": 2142,
      "Get": 2143,
      "child": 2144,
      "ï¼Ľ": 2145,
      "pur": 2146,
      "span": 2147,
      "è´£": 2148,
      "Data": 2149,
      "pi": 2150,
      "odĠ": 2151,
      "aĠf": 2152,
      "']": 2153,
      "éĺ²": 2154,
      "()Ġ": 2155,
      "lear": 2156,
      "ary": 2157,
      "ific": 2158,
      "string": 2159,
      "queĠ": 2160,
      "ä¸ĸ": 2161,
      "index": 2162,
      "\"\"": 2163,
      "point": 2164,
      "å±Ģ": 2165,
      ";ĊimportĠ": 2166,
      "mi": 2167,
      "(Ġ": 2168,
      "lock": 2169,
      "amp": 2170,
      "ĊĊĊ": 2171,
      "View": 2172,
      "thinkĠ": 2173,
      "partic": 2174,
      "çĬ": 2175,
      "null": 2176,
      "led": 2177,
      "uallyĠ": 2178,
      "bothĠ": 2179,
      "ateg": 2180,
      "edĠonĠ": 2181,
      "åĬŁ": 2182,
      "again": 2183,
      "å¿«": 2184,
      "è¿ĳ": 2185,
      "ement": 2186,
      "contr": 2187,
      "ä»Ĭ": 2188,
      "Man": 2189,
      "='": 2190,
      "raw": 2191,
      "éªĮ": 2192,
      "èĤ¡": 2193,
      "éŁ": 2194,
      "è¯ķ": 2195,
      "Le": 2196,
      "ation,Ġ": 2197,
      "madeĠ": 2198,
      "function": 2199,
      ".com/": 2200,
      "roll": 2201,
      "hom": 2202,
      "æīį": 2203,
      "æĸ½": 2204,
      "need": 2205,
      "æĺĵ": 2206,
      "gram": 2207,
      "helpĠ": 2208,
      "differentĠ": 2209,
      "åĽ¢": 2210,
      "ticalĠ": 2211,
      "æ¸ħ": 2212,
      "nor": 2213,
      "false": 2214,
      "lim": 2215,
      "æľª": 2216,
      "Coun": 2217,
      "ession": 2218,
      "çĥŃ": 2219,
      "qual": 2220,
      "busin": 2221,
      "OĠ": 2222,
      "color": 2223,
      "key": 2224,
      "âĢĶĠ": 2225,
      "sist": 2226,
      "</div>": 2227,
      "other": 2228,
      "commun": 2229,
      "ç½®": 2230,
      "cul": 2231,
      "person": 2232,
      "Op": 2233,
      "count": 2234,
      "hav": 2235,
      "æ·±": 2236,
      "ies": 2237,
      "Per": 2238,
      "proper": 2239,
      "NULL": 2240,
      "esĠtheĠ": 2241,
      "findĠ": 2242,
      ".\"": 2243,
      "æŃ¥": 2244,
      "ustom": 2245,
      "èµĽ": 2246,
      "ner": 2247,
      "ickĠ": 2248,
      "æ¢": 2249,
      "ondĠ": 2250,
      "ris": 2251,
      "ä½ķ": 2252,
      "px": 2253,
      "Ċĉĉĉĉĉ": 2254,
      "åŃĹ": 2255,
      "aut": 2256,
      "å·ŀ": 2257,
      "yĠtoĠ": 2258,
      "):": 2259,
      "Fi": 2260,
      "aus": 2261,
      "Be": 2262,
      "my": 2263,
      "contin": 2264,
      "reallyĠ": 2265,
      ".ĠD": 2266,
      "comeĠ": 2267,
      "æ¨¡": 2268,
      "fact": 2269,
      "load": 2270,
      "ireĠ": 2271,
      "()Ġ{": 2272,
      "\\(": 2273,
      "éĢļè¿ĩ": 2274,
      "Â·": 2275,
      "éĻħ": 2276,
      "appro": 2277,
      "suc": 2278,
      "fic": 2279,
      "bestĠ": 2280,
      "present": 2281,
      "o,Ġ": 2282,
      "group": 2283,
      "ber": 2284,
      "}ĊĠĠĠĠ": 2285,
      "</s": 2286,
      "action": 2287,
      "sch": 2288,
      "AS": 2289,
      "descri": 2290,
      "say": 2291,
      "åĨį": 2292,
      "yĠofĠ": 2293,
      "AP": 2294,
      "experi": 2295,
      "æĤ¨": 2296,
      "è¯Ħ": 2297,
      "å®ĥ": 2298,
      "possi": 2299,
      "didĠ": 2300,
      "edĠaĠ": 2301,
      "çķĮ": 2302,
      "Er": 2303,
      "la": 2304,
      "ine": 2305,
      "path": 2306,
      "StringĠ": 2307,
      "ature": 2308,
      "stillĠ": 2309,
      "asĠtheĠ": 2310,
      "çĹħ": 2311,
      "Ċĉĉĉĉĉĉ": 2312,
      "łĠ": 2313,
      "æĪĺ": 2314,
      "èģĮ": 2315,
      "ç©¶": 2316,
      "system": 2317,
      "åĢ¼": 2318,
      "ress": 2319,
      "entlyĠ": 2320,
      "åŃĺ": 2321,
      "Bo": 2322,
      "At": 2323,
      "indĠ": 2324,
      "æµİ": 2325,
      "çİĩ": 2326,
      "scri": 2327,
      "elseĠ": 2328,
      "æĬĬ": 2329,
      "ere": 2330,
      "As": 2331,
      "ToĠ": 2332,
      "lastĠ": 2333,
      "en,Ġ": 2334,
      "T_": 2335,
      "æł¹": 2336,
      "underĠ": 2337,
      "ftĠ": 2338,
      "LĠ": 2339,
      "try": 2340,
      "greatĠ": 2341,
      "éħį": 2342,
      "aim": 2343,
      "Bu": 2344,
      ".p": 2345,
      "nameĠ": 2346,
      "MĠ": 2347,
      "wr": 2348,
      "Jo": 2349,
      "è§ģ": 2350,
      "åĨµ": 2351,
      "ighĠ": 2352,
      "atur": 2353,
      "happ": 2354,
      "éĩĩ": 2355,
      "US": 2356,
      "aĠb": 2357,
      "<divĠclass=\"": 2358,
      "atch": 2359,
      ").Ċ": 2360,
      "consid": 2361,
      "</s>Ġ": 2362,
      "cli": 2363,
      "edĠandĠ": 2364,
      "éĢŁ": 2365,
      "aveĠ": 2366,
      "proble": 2367,
      "mess": 2368,
      "pack": 2369,
      "ä½İ": 2370,
      "clos": 2371,
      "erĠtoĠ": 2372,
      "pass": 2373,
      "alsĠ": 2374,
      "style": 2375,
      "é¥": 2376,
      "æıĲä¾Ľ": 2377,
      "includeĠ": 2378,
      "defĠ": 2379,
      "Ð»": 2380,
      "çĻ½": 2381,
      "down": 2382,
      "çĭ": 2383,
      "_id": 2384,
      "geĠ": 2385,
      "ä¹Ĳ": 2386,
      "heal": 2387,
      "ãĢĢ": 2388,
      "itionĠ": 2389,
      "åĳ¨": 2390,
      "owever": 2391,
      "çīĩ": 2392,
      "empl": 2393,
      "čĊĉĉ": 2394,
      "s(": 2395,
      "äºĶ": 2396,
      "æĬ¤": 2397,
      "{\\": 2398,
      "é¦ĸ": 2399,
      "éľĢè¦ģ": 2400,
      "å¼ķ": 2401,
      "ES": 2402,
      "num": 2403,
      "æİ§": 2404,
      "hasĠbeenĠ": 2405,
      "ould": 2406,
      "å§Ķ": 2407,
      "ä¹ł": 2408,
      "esĠinĠ": 2409,
      "uni": 2410,
      "ĠC": 2411,
      "Servic": 2412,
      "è¯Ĩ": 2413,
      "reas": 2414,
      "gen": 2415,
      "itedĠ": 2416,
      "longĠ": 2417,
      "perform": 2418,
      "çĪ±": 2419,
      "ableĠtoĠ": 2420,
      "WhenĠ": 2421,
      "title": 2422,
      "ĠP": 2423,
      "rc": 2424,
      "ç»Ń": 2425,
      "tak": 2426,
      "max": 2427,
      ".S": 2428,
      "\",Ġ\"": 2429,
      "pp": 2430,
      "long": 2431,
      "width": 2432,
      "Wor": 2433,
      "\")": 2434,
      "Text": 2435,
      "jav": 2436,
      "](": 2437,
      "ulti": 2438,
      "aff": 2439,
      "applic": 2440,
      "flo": 2441,
      "return": 2442,
      "youĠcanĠ": 2443,
      "{ĊĠĠĠĠĠĠĠĠĠĠĠĠ": 2444,
      "=Ġ\"": 2445,
      "arm": 2446,
      "åĬ©": 2447,
      "anal": 2448,
      "cell": 2449,
      "dem": 2450,
      "é¡¹çĽ®": 2451,
      "ION": 2452,
      "lang": 2453,
      "mp": 2454,
      "âĢĺ": 2455,
      "čĊĠĠĠĠĠĠĠĠĠĠĠĠ": 2456,
      "pop": 2457,
      "pri": 2458,
      "adi": 2459,
      "ç§¯": 2460,
      ");ĊĠĠĠĠĠĠĠĠĠĠĠĠ": 2461,
      "è¨": 2462,
      "å¢ĥ": 2463,
      "éĶĢ": 2464,
      "code": 2465,
      "bi": 2466,
      "manĠ": 2467,
      "ityĠofĠ": 2468,
      "æĢģ": 2469,
      "rece": 2470,
      "fri": 2471,
      "techn": 2472,
      "llĠ": 2473,
      "Au": 2474,
      "ä»Ģ": 2475,
      ".ĠL": 2476,
      "åĨľ": 2477,
      "sĠforĠ": 2478,
      "å°±æĺ¯": 2479,
      "IS": 2480,
      "æĺ¾": 2481,
      "ated": 2482,
      "hy": 2483,
      "organ": 2484,
      "ä¹ī": 2485,
      "å¼ł": 2486,
      "prof": 2487,
      "è¯Ń": 2488,
      "non": 2489,
      "map": 2490,
      "viewĠ": 2491,
      "now": 2492,
      "graph": 2493,
      "ci": 2494,
      "beforeĠ": 2495,
      "æĳ": 2496,
      "erĠandĠ": 2497,
      "ç§°": 2498,
      "downĠ": 2499,
      "s-": 2500,
      "ç¤¾ä¼ļ": 2501,
      "es.Ċ": 2502,
      "expl": 2503,
      "UR": 2504,
      "AD": 2505,
      ",Ġ\"": 2506,
      "theĊ": 2507,
      "rang": 2508,
      "vol": 2509,
      "E_": 2510,
      "selfĠ": 2511,
      "Po": 2512,
      "çº¦": 2513,
      "ger": 2514,
      "every": 2515,
      "æ±Ł": 2516,
      "antsĠ": 2517,
      "ç³»ç»Ł": 2518,
      "usedĠ": 2519,
      "ç¥ŀ": 2520,
      "å¦Ĥæŀľ": 2521,
      ",ĠM": 2522,
      "aroundĠ": 2523,
      "rem": 2524,
      "time": 2525,
      "æ¹": 2526,
      "ule": 2527,
      "acti": 2528,
      "ert": 2529,
      "ock": 2530,
      "sĠ=Ġ": 2531,
      "æķĻèĤ²": 2532,
      "spe": 2533,
      "NewĠ": 2534,
      "imag": 2535,
      "doesĠ": 2536,
      "everyĠ": 2537,
      "ĠĠĠĠĠĠĠĠĠĠĠĠĠĠĠĠĠĠĠĠĠĠĠĠĠĠĠĠĠĠĠĠ": 2538,
      "waysĠ": 2539,
      ",ĠIĠ": 2540,
      "åįĩ": 2541,
      "odeĠ": 2542,
      "}ĊĊĠĠĠĠ": 2543,
      "litt": 2544,
      "åıĭ": 2545,
      "ĠĠĠĠĠĠĠ": 2546,
      "åıį": 2547,
      "åĪĻ": 2548,
      "åĽ½å®¶": 2549,
      "nâĢĻtĠ": 2550,
      "dro": 2551,
      "lob": 2552,
      "manag": 2553,
      "æĿĲ": 2554,
      "äººæ°ĳ": 2555,
      "withoutĠ": 2556,
      "ç»ıæµİ": 2557,
      "Cre": 2558,
      ";ĊĠĠĠĠĠĠĠĠĠĠĠĠ": 2559,
      "hear": 2560,
      "].": 2561,
      "said": 2562,
      "haveĠbeenĠ": 2563,
      "ä»Ģä¹Ī": 2564,
      "è¶ħ": 2565,
      "èĬ±": 2566,
      "urĠ": 2567,
      "offĠ": 2568,
      "tureĠ": 2569,
      "gg": 2570,
      "...Ċ": 2571,
      "sal": 2572,
      "ott": 2573,
      "æ£Ģ": 2574,
      "æµĭ": 2575,
      "ush": 2576,
      "Int": 2577,
      "èİ·": 2578,
      "know": 2579,
      "label": 2580,
      "perĠ": 2581,
      "ship": 2582,
      "ibut": 2583,
      "å»ºè®¾": 2584,
      "çı": 2585,
      "event": 2586,
      "direct": 2587,
      "ah": 2588,
      "å¥¹": 2589,
      "leng": 2590,
      "size": 2591,
      "jec": 2592,
      "scho": 2593,
      "liv": 2594,
      "çħ§": 2595,
      "çª": 2596,
      "éĻ¤": 2597,
      "bin": 2598,
      "å¿ħ": 2599,
      "anti": 2600,
      "mak": 2601,
      "grow": 2602,
      "s[": 2603,
      ",Ġ'": 2604,
      "error": 2605,
      "avail": 2606,
      "çłĶç©¶": 2607,
      "build": 2608,
      "It": 2609,
      "ä¸Ķ": 2610,
      "sour": 2611,
      "td>": 2612,
      "isĠnotĠ": 2613,
      "mustĠ": 2614,
      "æĴ": 2615,
      "åıĪ": 2616,
      "æĲ": 2617,
      "ä»ĸä»¬": 2618,
      "from": 2619,
      "otĠ": 2620,
      "sureĠ": 2621,
      "bĠ": 2622,
      "ĠĠw": 2623,
      "ç»´": 2624,
      "ref=\"": 2625,
      "ery": 2626,
      "cĠ": 2627,
      "åį³": 2628,
      "m_": 2629,
      "staticĠ": 2630,
      "lev": 2631,
      "tainĠ": 2632,
      "äº¬": 2633,
      "foundĠ": 2634,
      "}ĊĠĠĠĠĠĠĠĠ": 2635,
      "çĶŁäº§": 2636,
      "open": 2637,
      "else": 2638,
      "å§ĭ": 2639,
      "ofĠĠtheĠĠ": 2640,
      "Me": 2641,
      "æĢĿ": 2642,
      "book": 2643,
      "ution": 2644,
      "byĠtheĠ": 2645,
      "å®¡": 2646,
      "Rec": 2647,
      "contain": 2648,
      "lead": 2649,
      "âĢĻĠ": 2650,
      "law": 2651,
      "depend": 2652,
      "shipĠ": 2653,
      "bar": 2654,
      "çīĪ": 2655,
      "oughtĠ": 2656,
      "æİĴ": 2657,
      "config": 2658,
      "CH": 2659,
      "html": 2660,
      "è®¾è®¡": 2661,
      "$Ġ": 2662,
      "é¢Ħ": 2663,
      "****************": 2664,
      "too": 2665,
      "ly,Ġ": 2666,
      ".j": 2667,
      "prom": 2668,
      "needĠtoĠ": 2669,
      "well": 2670,
      ".ĠWeĠ": 2671,
      "mus": 2672,
      "Ġ*Ġ@": 2673,
      "Stat": 2674,
      "sen": 2675,
      "oreĠ": 2676,
      "ç®Ĺ": 2677,
      "åħ»": 2678,
      "\":Ġ\"": 2679,
      "lookĠ": 2680,
      "åĦ": 2681,
      "help": 2682,
      "ng": 2683,
      "</a": 2684,
      ".ĠĊ": 2685,
      "è¶Ĭ": 2686,
      "cop": 2687,
      "ä»½": 2688,
      "CC": 2689,
      "pli": 2690,
      "åŃ¦çĶŁ": 2691,
      ",åľ¨": 2692,
      "è´Ń": 2693,
      "ity,Ġ": 2694,
      "æĸŃ": 2695,
      "Lo": 2696,
      "plyĠ": 2697,
      "Br": 2698,
      "ildĠ": 2699,
      "è¯ī": 2700,
      "acter": 2701,
      "lik": 2702,
      "åİĭ": 2703,
      "answ": 2704,
      "--Ġ": 2705,
      "è¿Ļä¸ª": 2706,
      "èĮĥ": 2707,
      "æĸ¯": 2708,
      "ofĠaĠ": 2709,
      "åĪĴ": 2710,
      "desĠ": 2711,
      "By": 2712,
      "æ´»åĬ¨": 2713,
      "L_": 2714,
      "éĢĤ": 2715,
      ",ĠS": 2716,
      "æŀģ": 2717,
      "[\"": 2718,
      "air": 2719,
      ".ĠO": 2720,
      "idd": 2721,
      "indow": 2722,
      "edĠwithĠ": 2723,
      "åĩł": 2724,
      "Amer": 2725,
      "find": 2726,
      "è¦ģæ±Ĥ": 2727,
      "ĠĊ": 2728,
      "æĮī": 2729,
      "}}": 2730,
      "çĻ¾": 2731,
      "threeĠ": 2732,
      "åĪĹ": 2733,
      "åĵį": 2734,
      "tran": 2735,
      "Des": 2736,
      "sĠ(": 2737,
      "teĠ": 2738,
      "und": 2739,
      "opĠ": 2740,
      "è¨Ģ": 2741,
      "é£Ł": 2742,
      "sĠaĠ": 2743,
      "content": 2744,
      "Engl": 2745,
      "éļ¾": 2746,
      "divid": 2747,
      "eter": 2748,
      "comment": 2749,
      "éĻ©": 2750,
      ":\"": 2751,
      "thoughĠ": 2752,
      "informationĠ": 2753,
      "ace": 2754,
      "gh": 2755,
      "custom": 2756,
      "èħ": 2757,
      "this->": 2758,
      ".ĠC": 2759,
      "Ðº": 2760,
      "ä¾¿": 2761,
      "åİĨ": 2762,
      "å¡": 2763,
      "ĊĊĠĠĠĠ": 2764,
      ",ĠwhichĠ": 2765,
      "ret": 2766,
      "èĩ´": 2767,
      ")ĠandĠ": 2768,
      "å¾·": 2769,
      "land": 2770,
      "ç´ł": 2771,
      "if(": 2772,
      "bookĠ": 2773,
      "table": 2774,
      "defa": 2775,
      "Americ": 2776,
      "ä¿®": 2777,
      "expect": 2778,
      "åħļ": 2779,
      "../": 2780,
      "field": 2781,
      "ular": 2782,
      "è¶³": 2783,
      "ĠĠtoĠĠ": 2784,
      "å®īåħ¨": 2785,
      "littleĠ": 2786,
      "e,ĠandĠ": 2787,
      "stit": 2788,
      "çīĮ": 2789,
      "è¿ŀ": 2790,
      "è½½": 2791,
      "å¾ĭ": 2792,
      ");ĊĊ": 2793,
      "Dis": 2794,
      "regi": 2795,
      "identi": 2796,
      "AB": 2797,
      "wantĠtoĠ": 2798,
      "ĊĠĠĠĠĠ": 2799,
      "æĥħåĨµ": 2800,
      "begin": 2801,
      "ä½ı": 2802,
      "ai": 2803,
      "arti": 2804,
      "Mo": 2805,
      "esĠareĠ": 2806,
      "nextĠ": 2807,
      "é©¬": 2808,
      "å¹²": 2809,
      "Ind": 2810,
      "User": 2811,
      "é¾": 2812,
      "ren": 2813,
      "siveĠ": 2814,
      ".ĠP": 2815,
      "UN": 2816,
      "http://": 2817,
      "ä¾Ŀ": 2818,
      "left": 2819,
      "ä¼Ĺ": 2820,
      "å¨": 2821,
      "LO": 2822,
      "method": 2823,
      "sor": 2824,
      "allĠtheĠ": 2825,
      "arget": 2826,
      ".c": 2827,
      "çİĭ": 2828,
      "((": 2829,
      "sideĠ": 2830,
      "complet": 2831,
      "çļĦ,": 2832,
      "åįı": 2833,
      "train": 2834,
      "formĠ": 2835,
      "æĿ¿": 2836,
      "ream": 2837,
      "åĦ¿": 2838,
      "æī¿": 2839,
      "ore": 2840,
      "placeĠ": 2841,
      "sinceĠ": 2842,
      "request": 2843,
      "hist": 2844,
      "adv": 2845,
      "æĿĳ": 2846,
      "System.": 2847,
      "option": 2848,
      "dou": 2849,
      "haveĠaĠ": 2850,
      "ĊĠĠĠĠĠĠĠĠĠĠĠĠĠĠĠĠĠĠĠĠĠĠĠĠĠĠĠĠ": 2851,
      "there": 2852,
      "Comm": 2853,
      "å±ŀ": 2854,
      "/**": 2855,
      "Add": 2856,
      "stemĠ": 2857,
      "ç¦»": 2858,
      "_c": 2859,
      "ben": 2860,
      "igin": 2861,
      "æ¥": 2862,
      "ä¸»è¦ģ": 2863,
      "attr": 2864,
      "Err": 2865,
      "çĽ¸åħ³": 2866,
      ");Ċĉĉ": 2867,
      "struct": 2868,
      "allow": 2869,
      "æ¸©": 2870,
      "Sec": 2871,
      "ä¸ĵä¸ļ": 2872,
      "è±¡": 2873,
      "à¸": 2874,
      "æļ": 2875,
      "Sp": 2876,
      "æ®µ": 2877,
      "yearĠ": 2878,
      "eldĠ": 2879,
      "order": 2880,
      "åĬ¿": 2881,
      "alwaysĠ": 2882,
      "Bl": 2883,
      "YĠ": 2884,
      "prot": 2885,
      ",\"Ġ": 2886,
      "array": 2887,
      "hou": 2888,
      ".ĠIfĠ": 2889,
      "åŁŁ": 2890,
      "Item": 2891,
      "IâĢĻ": 2892,
      "ç¬¬ä¸Ģ": 2893,
      "itĠwasĠ": 2894,
      "ankĠ": 2895,
      "valueĠ": 2896,
      "ali": 2897,
      ")ĊĊ": 2898,
      "åĶ®": 2899,
      "src": 2900,
      "dom": 2901,
      "åİ¿": 2902,
      "ori": 2903,
      "æľīéĻĲ": 2904,
      ",ä¸į": 2905,
      "FĠ": 2906,
      "month": 2907,
      "big": 2908,
      "æ»¡": 2909,
      "çĸĹ": 2910,
      "åĨħå®¹": 2911,
      "unĠ": 2912,
      "break": 2913,
      "wom": 2914,
      "âĢĿĊ": 2915,
      "elec": 2916,
      "stateĠ": 2917,
      ",ĊĠĠĠĠ": 2918,
      "anotherĠ": 2919,
      "def": 2920,
      "_S": 2921,
      "Arr": 2922,
      ".ĠN": 2923,
      "example": 2924,
      "cover": 2925,
      "bro": 2926,
      "s.ĠTheĠ": 2927,
      "Lin": 2928,
      "åĥ": 2929,
      "spanĠ": 2930,
      "loveĠ": 2931,
      "èŀ": 2932,
      "Object": 2933,
      "æķ°æį®": 2934,
      "</span": 2935,
      "âģĩĠ": 2936,
      "çĶŁæ´»": 2937,
      ",ä½Ĩ": 2938,
      "interest": 2939,
      "åĭ": 2940,
      "è´Ł": 2941,
      "Ġ|Ġ": 2942,
      "ry": 2943,
      "readĠ": 2944,
      "Ñĥ": 2945,
      "å±Ĥ": 2946,
      "å·²ç»ı": 2947,
      "ä¾ĭ": 2948,
      "ED": 2949,
      "åºĹ": 2950,
      "hereĠ": 2951,
      "ĠĠandĠĠ": 2952,
      "éļı": 2953,
      "intern": 2954,
      "it'sĠ": 2955,
      "ptĠ": 2956,
      "did": 2957,
      "mightĠ": 2958,
      "NO": 2959,
      "çĽĳ": 2960,
      "hum": 2961,
      "Fe": 2962,
      "input": 2963,
      "owever,Ġ": 2964,
      "èµ°": 2965,
      "process": 2966,
      "edĠbyĠtheĠ": 2967,
      "ster": 2968,
      "Ver": 2969,
      "www": 2970,
      "_P": 2971,
      "pay": 2972,
      "program": 2973,
      "åĲĮæĹ¶": 2974,
      ".Ġ(": 2975,
      ".ĠHeĠ": 2976,
      "ase": 2977,
      "éŁ³": 2978,
      "sever": 2979,
      "tonĠ": 2980,
      "åı¯èĥ½": 2981,
      "æħ": 2982,
      "bur": 2983,
      "ual": 2984,
      "æĸ¹éĿ¢": 2985,
      "stu": 2986,
      "æľĽ": 2987,
      "ector": 2988,
      "Ċ-Ġ": 2989,
      "lex": 2990,
      "è®¸": 2991,
      "prim": 2992,
      "èĳ": 2993,
      "ground": 2994,
      "æ²¹": 2995,
      "Dec": 2996,
      "IM": 2997,
      "atureĠ": 2998,
      "enĠĠ": 2999,
      "stringĠ": 3000,
      "Trans": 3001,
      "å¤ª": 3002,
      "çĬ¶": 3003,
      "Requ": 3004,
      "medi": 3005,
      ";Ċĉĉ": 3006,
      "ç»Ĩ": 3007,
      ",è¿Ļ": 3008,
      "select": 3009,
      "!=Ġ": 3010,
      "cat": 3011,
      "=ĠnewĠ": 3012,
      "akĠ": 3013,
      "Excep": 3014,
      "edĠforĠ": 3015,
      "edĠinĠtheĠ": 3016,
      "pati": 3017,
      "himĠ": 3018,
      "åĽŃ": 3019,
      "job": 3020,
      "æŀĹ": 3021,
      "design": 3022,
      "edĠthatĠ": 3023,
      "æī§": 3024,
      "ç±³": 3025,
      "Value": 3026,
      "i.": 3027,
      "åĢĻ": 3028,
      "å£«": 3029,
      "aredĠ": 3030,
      "å£°": 3031,
      "whe": 3032,
      "fre": 3033,
      "Ed": 3034,
      "esĠthatĠ": 3035,
      "èı": 3036,
      "æĻ¯": 3037,
      "å½ķ": 3038,
      "çĮ": 3039,
      "Uni": 3040,
      "èĭ±": 3041,
      "yearsĠ": 3042,
      "sing": 3043,
      "ä¸Ńå¿ĥ": 3044,
      "äººåĳĺ": 3045,
      "disc": 3046,
      "ei": 3047,
      "gotĠ": 3048,
      "å°Ķ": 3049,
      "intoĠtheĠ": 3050,
      "don'tĠ": 3051,
      "std": 3052,
      "åĿĩ": 3053,
      "ç®Ģ": 3054,
      "Fig": 3055,
      "____": 3056,
      "search": 3057,
      "Mon": 3058,
      "æŁĲ": 3059,
      ",ĠĠandĠĠ": 3060,
      ");Ċĉ": 3061,
      "zĠ": 3062,
      "week": 3063,
      ",âĢĿĠ": 3064,
      "ä»ħ": 3065,
      "abilityĠ": 3066,
      "neverĠ": 3067,
      "ç¢": 3068,
      "New": 3069,
      "wa": 3070,
      "url": 3071,
      "Gre": 3072,
      "^{": 3073,
      "align": 3074,
      "ãĢĤĊĊ": 3075,
      "friend": 3076,
      "TR": 3077,
      "å·¥ç¨ĭ": 3078,
      ">ĊĠĠĠĠĠĠĠĠ": 3079,
      "')": 3080,
      "olv": 3081,
      "But": 3082,
      ".set": 3083,
      "ric": 3084,
      "ook": 3085,
      "pointĠ": 3086,
      "iter": 3087,
      "aleĠ": 3088,
      "éĺ³": 3089,
      "enn": 3090,
      "exist": 3091,
      "level": 3092,
      "à¥": 3093,
      "box": 3094,
      "çĽĬ": 3095,
      "Ð²": 3096,
      "uro": 3097,
      "multi": 3098,
      "ç¼ĸ": 3099,
      "gover": 3100,
      "åĽłä¸º": 3101,
      ",ĠaĠ": 3102,
      "thing": 3103,
      "--------------------------------": 3104,
      "actionĠ": 3105,
      "onĠaĠ": 3106,
      "sayĠ": 3107,
      "initi": 3108,
      "Up": 3109,
      "æĸ¹å¼ı": 3110,
      "ustr": 3111,
      "åħĭ": 3112,
      "memb": 3113,
      "è¡Įä¸ļ": 3114,
      "bt": 3115,
      "employ": 3116,
      "ä»¥åıĬ": 3117,
      "ption": 3118,
      "sha": 3119,
      "HeĠ": 3120,
      "highĠ": 3121,
      "åºľ": 3122,
      "tri": 3123,
      "ç»ĩ": 3124,
      "tsĠofĠ": 3125,
      "çļĦä¸Ģ": 3126,
      "check": 3127,
      "lowĠ": 3128,
      "italĠ": 3129,
      "å®¤": 3130,
      "tod": 3131,
      "Manag": 3132,
      "ood": 3133,
      "tryĠ": 3134,
      "giveĠ": 3135,
      "File": 3136,
      "BĠ": 3137,
      "æĬķèµĦ": 3138,
      "typeĠ": 3139,
      "é¡µ": 3140,
      "çº¢": 3141,
      "betterĠ": 3142,
      "conn": 3143,
      "AllĠ": 3144,
      "somethingĠ": 3145,
      "åıĮ": 3146,
      "Ċĉĉĉĉĉĉĉĉ": 3147,
      "èīº": 3148,
      "æł¸": 3149,
      "unc": 3150,
      "ãĢĤĠ": 3151,
      "å¤±": 3152,
      "åĨĽ": 3153,
      "åģ¥": 3154,
      "fur": 3155,
      "effec": 3156,
      "ortĠ": 3157,
      "esĠĠ": 3158,
      "du": 3159,
      "æĵ": 3160,
      "Nor": 3161,
      "a-": 3162,
      "AG": 3163,
      "tooĠ": 3164,
      "givenĠ": 3165,
      ".ĊS": 3166,
      "éĩįè¦ģ": 3167,
      "faceĠ": 3168,
      "mentsĠ": 3169,
      "IL": 3170,
      "æĸĩåĮĸ": 3171,
      "lay": 3172,
      "æĭ©": 3173,
      ",ĠweĠ": 3174,
      "md": 3175,
      "è¿°": 3176,
      "TO": 3177,
      "hol": 3178,
      "ender": 3179,
      "âĢ¢": 3180,
      "meas": 3181,
      "åĳ½": 3182,
      "ste": 3183,
      "Ċ(": 3184,
      "consider": 3185,
      "mem": 3186,
      "åħį": 3187,
      "IG": 3188,
      "searchĠ": 3189,
      "viron": 3190,
      "es/": 3191,
      "activ": 3192,
      "importantĠ": 3193,
      "Gener": 3194,
      "youĠareĠ": 3195,
      "aboutĠtheĠ": 3196,
      "umn": 3197,
      "localĠ": 3198,
      "atorĠ": 3199,
      "çŃĸ": 3200,
      "åŁ¹": 3201,
      "èį¯": 3202,
      "tis": 3203,
      "åĥı": 3204,
      "mater": 3205,
      "numberĠofĠ": 3206,
      ");ĊĠĠ": 3207,
      "Is": 3208,
      "claim": 3209,
      "è´¢": 3210,
      "p.": 3211,
      "Li": 3212,
      "ingĠinĠ": 3213,
      "extr": 3214,
      "'reĠ": 3215,
      "againstĠ": 3216,
      "è¯¾": 3217,
      "éĿĴ": 3218,
      "[]": 3219,
      "Rev": 3220,
      "uneĠ": 3221,
      "oci": 3222,
      "ekĠ": 3223,
      "playĠ": 3224,
      "edĊ": 3225,
      "won": 3226,
      "entialĠ": 3227,
      "ms": 3228,
      "vide": 3229,
      "æł¹æį®": 3230,
      "}Ċĉ": 3231,
      "state": 3232,
      "itâĢĻsĠ": 3233,
      "ĠinĠ": 3234,
      "è¾ĵ": 3235,
      "çļĦäºº": 3236,
      "åĪĩ": 3237,
      "Log": 3238,
      "å½±åĵį": 3239,
      "ures": 3240,
      ".h": 3241,
      "âĢĻreĠ": 3242,
      "[i": 3243,
      "inf": 3244,
      "########": 3245,
      "world": 3246,
      "position": 3247,
      "Ã¤": 3248,
      "utionĠ": 3249,
      "bab": 3250,
      ".ĠF": 3251,
      "offic": 3252,
      "startĠ": 3253,
      "\":Ġ": 3254,
      "in-": 3255,
      "p>": 3256,
      "///Ġ": 3257,
      "increas": 3258,
      "ed.Ċ": 3259,
      "direc": 3260,
      "educ": 3261,
      "sam": 3262,
      "inn": 3263,
      "db": 3264,
      "ers,Ġ": 3265,
      "èĲ½": 3266,
      "supportĠ": 3267,
      "call": 3268,
      "è§ī": 3269,
      "ä¸ŃçļĦ": 3270,
      "çİ¯å¢ĥ": 3271,
      "ĊĠĠĠĠ<": 3272,
      "EC": 3273,
      "_C": 3274,
      "ĠĠh": 3275,
      "Ċ#": 3276,
      "```": 3277,
      "readyĠ": 3278,
      "çŁ³": 3279,
      "al,Ġ": 3280,
      "norm": 3281,
      "secondĠ": 3282,
      "ä»ĭ": 3283,
      "ressĠ": 3284,
      "suchĠasĠ": 3285,
      "ç»Ī": 3286,
      "WithĠ": 3287,
      "åĪ¤": 3288,
      "ä¸ĸçķĮ": 3289,
      "AsĠ": 3290,
      "care": 3291,
      "éĢīæĭ©": 3292,
      "éĢģ": 3293,
      "å¤Ł": 3294,
      "pat": 3295,
      "link": 3296,
      "Inter": 3297,
      "åħ¶ä»ĸ": 3298,
      "systemĠ": 3299,
      "èĥ½åĬĽ": 3300,
      "æľīéĻĲåħ¬åı¸": 3301,
      "report": 3302,
      "followingĠ": 3303,
      "åĽ´": 3304,
      "Gu": 3305,
      "pot": 3306,
      "ermin": 3307,
      "æĭī": 3308,
      "è¾¹": 3309,
      "thingsĠ": 3310,
      "','": 3311,
      "cleĠ": 3312,
      "èŀį": 3313,
      "æĺŁ": 3314,
      "Car": 3315,
      "question": 3316,
      "tilĠ": 3317,
      "è®¾å¤ĩ": 3318,
      "Fl": 3319,
      "partĠ": 3320,
      "RĠ": 3321,
      ");Ġ": 3322,
      "ru": 3323,
      "sequ": 3324,
      "gam": 3325,
      "cy": 3326,
      "toĠaĠ": 3327,
      "flu": 3328,
      "finalĠ": 3329,
      "haveĠtoĠ": 3330,
      ")Ġ{ĊĠĠĠĠĠĠĠĠ": 3331,
      ",\"": 3332,
      "åº·": 3333,
      "åħħ": 3334,
      "showĠ": 3335,
      "{Ċĉĉ": 3336,
      ",å¹¶": 3337,
      "y-": 3338,
      "IP": 3339,
      "Key": 3340,
      "lection": 3341,
      "ationĠandĠ": 3342,
      "asĠwellĠ": 3343,
      "'Ġ=>Ġ": 3344,
      "wouldĠbeĠ": 3345,
      "Ab": 3346,
      "æĺ¯ä¸Ģ": 3347,
      "çİ°åľ¨": 3348,
      "ä¹°": 3349,
      "å¾®": 3350,
      "timesĠ": 3351,
      "lifeĠ": 3352,
      "ffic": 3353,
      "Ã©Ġ": 3354,
      "var": 3355,
      "target": 3356,
      "mean": 3357,
      "Mess": 3358,
      "war": 3359,
      "Ð¼": 3360,
      "å®Ŀ": 3361,
      "origin": 3362,
      "hop": 3363,
      "HowĠ": 3364,
      "EM": 3365,
      "foc": 3366,
      "éĵ¶": 3367,
      "Joh": 3368,
      "æīĢæľī": 3369,
      "govern": 3370,
      "compon": 3371,
      "čĊĉĉĉ": 3372,
      "`Ġ": 3373,
      "äºļ": 3374,
      "////////": 3375,
      "expres": 3376,
      "å¾Ģ": 3377,
      "æ¼Ķ": 3378,
      "homeĠ": 3379,
      "Grou": 3380,
      "detail": 3381,
      "esĊ": 3382,
      "workingĠ": 3383,
      ".ĠButĠ": 3384,
      "La": 3385,
      "ward": 3386,
      "ally,Ġ": 3387,
      "line": 3388,
      "exper": 3389,
      "åŃ¦ä¹ł": 3390,
      "æĻº": 3391,
      "hal": 3392,
      "ä½ľä¸º": 3393,
      "Ġ+Ġ": 3394,
      "cam": 3395,
      "yingĠ": 3396,
      "Ro": 3397,
      "oneĠofĠtheĠ": 3398,
      "ilyĠ": 3399,
      "ä¸įåĲĮ": 3400,
      "ç¾¤": 3401,
      "è¯»": 3402,
      "itch": 3403,
      "onom": 3404,
      "t,Ġ": 3405,
      "oto": 3406,
      "æķħ": 3407,
      ",ĊĠĠĠĠĠĠĠĠ": 3408,
      "$this->": 3409,
      "è½¯": 3410,
      "great": 3411,
      "æĭĽ": 3412,
      "name=\"": 3413,
      "å¥½çļĦ": 3414,
      "Typ": 3415,
      "çķĻ": 3416,
      "create": 3417,
      "rele": 3418,
      "éħĴ": 3419,
      "ä¸¾": 3420,
      "ĠB": 3421,
      "çģ«": 3422,
      ",æĪĳ": 3423,
      "Test": 3424,
      "Ma": 3425,
      "äºī": 3426,
      "imple": 3427,
      "æĭħ": 3428,
      "å¯Ĩ": 3429,
      "âĢĶâĢĶ": 3430,
      "itor": 3431,
      "character": 3432,
      "light": 3433,
      "thatĠĠ": 3434,
      "iveĠ": 3435,
      "&&Ġ": 3436,
      "los": 3437,
      "åĪĿ": 3438,
      "sci": 3439,
      "ten": 3440,
      "ok": 3441,
      "dateĠ": 3442,
      "individ": 3443,
      "æĶ¿åºľ": 3444,
      "osĠ": 3445,
      "IĠwasĠ": 3446,
      "goingĠtoĠ": 3447,
      ";ĠĠ": 3448,
      "åĩı": 3449,
      "],Ġ": 3450,
      "keepĠ": 3451,
      "erc": 3452,
      "ï¼Įåľ¨": 3453,
      "Model": 3454,
      "ultsĠ": 3455,
      "ThereĠ": 3456,
      "éĥ¨åĪĨ": 3457,
      "earlyĠ": 3458,
      "Array": 3459,
      "äº¿": 3460,
      "åĨĻ": 3461,
      "Fren": 3462,
      "æĪĲä¸º": 3463,
      "rolĠ": 3464,
      "www.": 3465,
      "groupĠ": 3466,
      "Cent": 3467,
      "toge": 3468,
      "I'mĠ": 3469,
      "ightsĠ": 3470,
      "çĶ¨æĪ·": 3471,
      "ä»ĺ": 3472,
      "åħ·æľī": 3473,
      "seas": 3474,
      "Event": 3475,
      "devic": 3476,
      "DI": 3477,
      "éĻį": 3478,
      "encyĠ": 3479,
      "ingĠofĠ": 3480,
      "ĊtheĠ": 3481,
      "draw": 3482,
      "Info": 3483,
      "Map": 3484,
      ".ĠE": 3485,
      "åĩ»": 3486,
      "cept": 3487,
      "author": 3488,
      "node": 3489,
      "calledĠ": 3490,
      "len": 3491,
      "åł": 3492,
      "first": 3493,
      "åľŁ": 3494,
      "public": 3495,
      "plan": 3496,
      "trad": 3497,
      "resid": 3498,
      "è´§": 3499,
      "è¢«åĳĬ": 3500,
      "ä¸¥": 3501,
      "ING": 3502,
      "UT": 3503,
      "ik": 3504,
      "çĽ®åīį": 3505,
      "åı²": 3506,
      "changeĠ": 3507,
      "II": 3508,
      ".\"Ġ": 3509,
      "font": 3510,
      "âĶ": 3511,
      "aĠhref=\"": 3512,
      "syn": 3513,
      "åĽ½éĻħ": 3514,
      "VĠ": 3515,
      "lateĠ": 3516,
      "ä¸įæĺ¯": 3517,
      "çĶ³": 3518,
      "ryĠ": 3519,
      "shouldĠbeĠ": 3520,
      "æ²³": 3521,
      "ieĠ": 3522,
      "ket": 3523,
      "util": 3524,
      "ome": 3525,
      "ump": 3526,
      "resour": 3527,
      "velyĠ": 3528,
      "]Ċ": 3529,
      "on,Ġ": 3530,
      "continu": 3531,
      "å¿Ĺ": 3532,
      "siteĠ": 3533,
      "email": 3534,
      "ision": 3535,
      "åĲİ,": 3536,
      "sĠofĠtheĠ": 3537,
      "fileĠ": 3538,
      "etĠal": 3539,
      "tor": 3540,
      "math": 3541,
      ".ĠW": 3542,
      "yn": 3543,
      "åŃ©": 3544,
      "fiedĠ": 3545,
      ".ĠAĠ": 3546,
      "æĪı": 3547,
      "ButĠ": 3548,
      "includingĠ": 3549,
      "é¾Ļ": 3550,
      "pan": 3551,
      "ç»Ħç»ĩ": 3552,
      "äººçļĦ": 3553,
      "ite": 3554,
      "foo": 3555,
      "äºĴ": 3556,
      "le.": 3557,
      "height": 3558,
      "knownĠ": 3559,
      "problem": 3560,
      "businessĠ": 3561,
      "tiesĠ": 3562,
      "keyĠ": 3563,
      "æ¬¢": 3564,
      "State": 3565,
      "ç«ł": 3566,
      "success": 3567,
      "imp": 3568,
      "wal": 3569,
      "æĹ¶åĢĻ": 3570,
      ".ĠT": 3571,
      "sav": 3572,
      "mayĠbeĠ": 3573,
      "mag": 3574,
      "amoun": 3575,
      "ken": 3576,
      "Ø§": 3577,
      "determin": 3578,
      "moreĠthanĠ": 3579,
      "refer": 3580,
      "Out": 3581,
      "<<Ġ": 3582,
      "inte": 3583,
      "document": 3584,
      "saf": 3585,
      "å¼Ģå§ĭ": 3586,
      "indic": 3587,
      "ç»ľ": 3588,
      "grad": 3589,
      "/>": 3590,
      "tĠtheĠ": 3591,
      "Date": 3592,
      "image": 3593,
      "Can": 3594,
      "Pol": 3595,
      "å¤§çļĦ": 3596,
      "æīĢä»¥": 3597,
      "leftĠ": 3598,
      "mainĠ": 3599,
      "currentĠ": 3600,
      "itiesĠ": 3601,
      "_p": 3602,
      "ifĠyouĠ": 3603,
      "_d": 3604,
      "æĹħ": 3605,
      "åį¡": 3606,
      "{ĊĠĠ": 3607,
      "ing.": 3608,
      "createĠ": 3609,
      "çľ¼": 3610,
      "Ne": 3611,
      "whyĠ": 3612,
      "cir": 3613,
      "Error": 3614,
      "è½»": 3615,
      "langu": 3616,
      "market": 3617,
      "Ele": 3618,
      "feelĠ": 3619,
      "EX": 3620,
      "Lab": 3621,
      "ĊĠĠĠĠĠĠĠĠĠĠĠĠĠĠ": 3622,
      "çłģ": 3623,
      "Param": 3624,
      "charg": 3625,
      "æĻ®": 3626,
      "worldĠ": 3627,
      "which": 3628,
      "tag": 3629,
      "makingĠ": 3630,
      "Ñı": 3631,
      "å±ħ": 3632,
      "ç¦ı": 3633,
      "][": 3634,
      "Cor": 3635,
      "pric": 3636,
      "theyĠareĠ": 3637,
      "å¯¹äºİ": 3638,
      "was": 3639,
      "ÃłĠ": 3640,
      "den": 3641,
      "\"><": 3642,
      "organiz": 3643,
      "Ã¡": 3644,
      "fterĠ": 3645,
      "untilĠ": 3646,
      "sof": 3647,
      "topĠ": 3648,
      "æĿİ": 3649,
      "çĶ·": 3650,
      "atelyĠ": 3651,
      "è®Ń": 3652,
      "maj": 3653,
      "sym": 3654,
      "INT": 3655,
      "IĠamĠ": 3656,
      "åİĤ": 3657,
      "seem": 3658,
      "åħ´": 3659,
      "provideĠ": 3660,
      "basedĠ": 3661,
      "_M": 3662,
      "Loc": 3663,
      "è¿ľ": 3664,
      ".ĠTheyĠ": 3665,
      "å¯Į": 3666,
      "è´¨éĩı": 3667,
      "================": 3668,
      "å¤§åŃ¦": 3669,
      "å¾Īå¤ļ": 3670,
      "pris": 3671,
      "OneĠ": 3672,
      "donâĢĻtĠ": 3673,
      "room": 3674,
      "anim": 3675,
      "é¢Ŀ": 3676,
      "Pre": 3677,
      "æĸ¹æ³ķ": 3678,
      "é»Ħ": 3679,
      "overĠtheĠ": 3680,
      ".\"Ċ": 3681,
      "Char": 3682,
      "().": 3683,
      "åĮĹäº¬": 3684,
      "(c": 3685,
      "bil": 3686,
      "å¤ĦçĲĨ": 3687,
      "current": 3688,
      "product": 3689,
      "è§Ĵ": 3690,
      "exc": 3691,
      "abl": 3692,
      ".Ġ\"": 3693,
      "åħŃ": 3694,
      "ersĠandĠ": 3695,
      "åºı": 3696,
      "å©": 3697,
      "è´£ä»»": 3698,
      "ativ": 3699,
      "And": 3700,
      "exec": 3701,
      ")ĊĠĠĠĠĠĠĠĠĠĠĠĠ": 3702,
      "const": 3703,
      "record": 3704,
      ";čĊ": 3705,
      "å®ŀçİ°": 3706,
      "oftenĠ": 3707,
      "Univers": 3708,
      "fix": 3709,
      "DO": 3710,
      "treat": 3711,
      "{ĊĠĠĠĠĠĠĠĠĠĠĠĠĠĠĠĠ": 3712,
      "term": 3713,
      "å¿µ": 3714,
      "throw": 3715,
      "čĊĠĠ": 3716,
      "freeĠ": 3717,
      "Sch": 3718,
      "username": 3719,
      "valid": 3720,
      "o-": 3721,
      "real": 3722,
      ",èĢĮ": 3723,
      "/*Ġ": 3724,
      "bodyĠ": 3725,
      "askĠ": 3726,
      "å¤§å®¶": 3727,
      "then": 3728,
      "object": 3729,
      "nes": 3730,
      "block": 3731,
      "ĠĠĠĠĠĠĠĠĠĠĠĠ": 3732,
      "environ": 3733,
      "\\\\": 3734,
      "Index": 3735,
      "äº§ä¸ļ": 3736,
      "ĠatĠ": 3737,
      "ieveĠ": 3738,
      "istr": 3739,
      "tx": 3740,
      "ï¼Įä½Ĩ": 3741,
      "ï¼Ł": 3742,
      "Color": 3743,
      "aĊ": 3744,
      "(x": 3745,
      "ianĠ": 3746,
      "${": 3747,
      ".ĠYouĠ": 3748,
      "atis": 3749,
      "display": 3750,
      "lookingĠ": 3751,
      ",ĠĊ": 3752,
      "erĠisĠ": 3753,
      "tu": 3754,
      "ĠA": 3755,
      "åºķ": 3756,
      "åįļ": 3757,
      "dueĠ": 3758,
      "Ge": 3759,
      "è¿ĩç¨ĭ": 3760,
      "e,ĠtheĠ": 3761,
      "super": 3762,
      "{Ċĉ": 3763,
      "careĠ": 3764,
      "receiv": 3765,
      "pap": 3766,
      "Ġ\"": 3767,
      "æıĲé«ĺ": 3768,
      "py": 3769,
      "tot": 3770,
      "åį°": 3771,
      "length": 3772,
      "does": 3773,
      "remov": 3774,
      "ins": 3775,
      "pret": 3776,
      "åĲ¦": 3777,
      "uteĠ": 3778,
      "||": 3779,
      "energ": 3780,
      "è§Ħå®ļ": 3781,
      "åįķä½į": 3782,
      "Ã¨": 3783,
      "Tit": 3784,
      "ä»·æł¼": 3785,
      "æŃ¢": 3786,
      "fullĠ": 3787,
      "severalĠ": 3788,
      "Med": 3789,
      "team": 3790,
      ",ĠorĠ": 3791,
      "ç§ĳæĬĢ": 3792,
      "tig": 3793,
      "éĿŀå¸¸": 3794,
      "alreadyĠ": 3795,
      "ting": 3796,
      ")Ċĉ": 3797,
      "analys": 3798,
      "åĸľ": 3799,
      "scre": 3800,
      "oog": 3801,
      "cou": 3802,
      "ern": 3803,
      "body": 3804,
      "Sub": 3805,
      "project": 3806,
      "rist": 3807,
      ",ĠC": 3808,
      "thub": 3809,
      "Field": 3810,
      "teamĠ": 3811,
      "Ð´": 3812,
      "aĠandĠ": 3813,
      "dri": 3814,
      "ĊĠ*Ġ": 3815,
      "æŀĲ": 3816,
      "wĠ": 3817,
      "Siz": 3818,
      "Inst": 3819,
      "äºĨ,": 3820,
      "çĻ»": 3821,
      "iev": 3822,
      "ç½ĳç»ľ": 3823,
      "electr": 3824,
      "ä»¥ä¸Ĭ": 3825,
      "isĠanĠ": 3826,
      "ï¼Įå¹¶": 3827,
      "æłĩåĩĨ": 3828,
      "äºĳ": 3829,
      "çıŃ": 3830,
      "sĠwithĠ": 3831,
      "discus": 3832,
      ".ĠR": 3833,
      "number": 3834,
      "possibleĠ": 3835,
      "info": 3836,
      "theĠĊ": 3837,
      "åįĬ": 3838,
      "fut": 3839,
      "æį¢": 3840,
      "Ġì": 3841,
      "æĭ¬": 3842,
      "OnĠ": 3843,
      "åĸĦ": 3844,
      "æĹ©": 3845,
      "excep": 3846,
      ".ĠJ": 3847,
      "erg": 3848,
      "æī¾": 3849,
      "compan": 3850,
      "Produc": 3851,
      "oteĠ": 3852,
      "largeĠ": 3853,
      "lov": 3854,
      "alleng": 3855,
      "\",\"": 3856,
      "æī¹": 3857,
      "->Ġ": 3858,
      "ç½ĳç«Ļ": 3859,
      ",ĠP": 3860,
      "èī¯": 3861,
      "tdĠ": 3862,
      "é¡»": 3863,
      "athĠ": 3864,
      "é¢ĳ": 3865,
      "Respon": 3866,
      "version": 3867,
      "rap": 3868,
      "çļĦï¼Į": 3869,
      "hour": 3870,
      "ä¸Ń,": 3871,
      "åŁİå¸Ĥ": 3872,
      "Bar": 3873,
      "è¿Ļæł·": 3874,
      "ä¸ªäºº": 3875,
      "App": 3876,
      "Config": 3877,
      "Min": 3878,
      "wasĠaĠ": 3879,
      "=Ġ'": 3880,
      "she": 3881,
      "æ¥¼": 3882,
      "fav": 3883,
      "ET": 3884,
      "ä¹Łæĺ¯": 3885,
      "èĩªå·±çļĦ": 3886,
      "çļĦæĺ¯": 3887,
      "ĉĉĉ": 3888,
      "ç¥¨": 3889,
      "ä¸ĢäºĽ": 3890,
      "flow": 3891,
      "åŃ£": 3892,
      "y.Ċ": 3893,
      "åį´": 3894,
      "è¿ĺæĺ¯": 3895,
      "conf": 3896,
      "github": 3897,
      "addition": 3898,
      "ificĠ": 3899,
      "roid": 3900,
      "che": 3901,
      "distri": 3902,
      "thatĠisĠ": 3903,
      "positi": 3904,
      "anĠĠ": 3905,
      "åĤ": 3906,
      "è®²": 3907,
      "countĠ": 3908,
      "tow": 3909,
      "è¡¨ç¤º": 3910,
      "={": 3911,
      "ç¬¬äºĮ": 3912,
      "s)Ġ": 3913,
      "berĠ": 3914,
      "i,Ġ": 3915,
      "want": 3916,
      "Ñĭ": 3917,
      "/*": 3918,
      "openĠ": 3919,
      "bit": 3920,
      "Dr": 3921,
      "åĪ°äºĨ": 3922,
      "duringĠ": 3923,
      "control": 3924,
      "fort": 3925,
      "SS": 3926,
      "dig": 3927,
      "è¿ĻäºĽ": 3928,
      "teach": 3929,
      "benef": 3930,
      "default": 3931,
      "wardĠ": 3932,
      "availableĠ": 3933,
      ".ĠAndĠ": 3934,
      "oleĠ": 3935,
      "step": 3936,
      "_T": 3937,
      "mom": 3938,
      "IĠhaveĠ": 3939,
      "oneĠofĠ": 3940,
      "roomĠ": 3941,
      "hor": 3942,
      "levelĠ": 3943,
      "åŃ¦æł¡": 3944,
      "client": 3945,
      "whetherĠ": 3946,
      "presentĠ": 3947,
      "æ±½": 3948,
      "å¥ĸ": 3949,
      "åĬŁèĥ½": 3950,
      "Us": 3951,
      "id=\"": 3952,
      "esĠforĠ": 3953,
      "waterĠ": 3954,
      "TheĠĠ": 3955,
      "çĭ¬": 3956,
      "companyĠ": 3957,
      "turn": 3958,
      "paramĠ": 3959,
      "$\\": 3960,
      ",ĠNULL": 3961,
      "resultĠ": 3962,
      "With": 3963,
      "dam": 3964,
      "ed_": 3965,
      "wordĠ": 3966,
      "landĠ": 3967,
      "relation": 3968,
      ".ĠG": 3969,
      "perf": 3970,
      "concer": 3971,
      "Mat": 3972,
      "natur": 3973,
      "esĠaĠ": 3974,
      "necess": 3975,
      "Class": 3976,
      "sq": 3977,
      "æĶ¯æĮģ": 3978,
      "åı¤": 3979,
      "get_": 3980,
      "sĠonĠ": 3981,
      "admin": 3982,
      "#includeĠ": 3983,
      "ä¸Ģå®ļ": 3984,
      "isionĠ": 3985,
      "fieldĠ": 3986,
      "Sc": 3987,
      "spac": 3988,
      "KĠ": 3989,
      "åĲĪä½ľ": 3990,
      "nav": 3991,
      "serviceĠ": 3992,
      "lightĠ": 3993,
      "le,Ġ": 3994,
      "CE": 3995,
      "åĲ«": 3996,
      "std::": 3997,
      "sugg": 3998,
      "Post": 3999,
      "ingĊ": 4000,
      "it,Ġ": 4001,
      "polic": 4002,
      "ç¿": 4003,
      "beg": 4004,
      "ouslyĠ": 4005,
      "åĿļ": 4006,
      "åĵģçīĮ": 4007,
      "non-": 4008,
      "dic": 4009,
      "ationĠofĠtheĠ": 4010,
      "Intern": 4011,
      "æ¿": 4012,
      "ä¸įèĥ½": 4013,
      "èµĦæºĲ": 4014,
      "åĮħæĭ¬": 4015,
      "Ċ//": 4016,
      "å¼Ģåıĳ": 4017,
      "leastĠ": 4018,
      "ç«¯": 4019,
      "l'": 4020,
      "button": 4021,
      "</td>": 4022,
      "_tĠ": 4023,
      "ologyĠ": 4024,
      "icallyĠ": 4025,
      "last": 4026,
      "ectedĠ": 4027,
      "Dev": 4028,
      "ÑģÑĤ": 4029,
      "çĨ": 4030,
      "glob": 4031,
      "Time": 4032,
      "studi": 4033,
      "é¦Ļ": 4034,
      "_F": 4035,
      "æĹı": 4036,
      "ateĠtheĠ": 4037,
      "headĠ": 4038,
      "inĠthisĠ": 4039,
      "moveĠ": 4040,
      "čĊĠĠĠĠĠĠĠĠĠĠĠĠĠĠĠĠ": 4041,
      "modelĠ": 4042,
      "ox": 4043,
      "äº²": 4044,
      "element": 4045,
      "support": 4046,
      "parti": 4047,
      "addĠ": 4048,
      "associ": 4049,
      "happen": 4050,
      "åĩºçİ°": 4051,
      "å°½": 4052,
      "er:Ġ": 4053,
      "Oc": 4054,
      "Ste": 4055,
      "categ": 4056,
      "sĠinĠtheĠ": 4057,
      "s,ĠtheĠ": 4058,
      "bott": 4059,
      "previ": 4060,
      "positionĠ": 4061,
      "BU": 4062,
      "artic": 4063,
      "Indi": 4064,
      "spr": 4065,
      "AA": 4066,
      "ÂłÂł": 4067,
      "spanĠclass=\"": 4068,
      "å¸®": 4069,
      "è¡¥": 4070,
      "alongĠ": 4071,
      "atĠĠ": 4072,
      "ä¸Ńï¼Į": 4073,
      "realĠ": 4074,
      "aver": 4075,
      "tool": 4076,
      "å®³": 4077,
      "èĪ¬": 4078,
      "acros": 4079,
      "arch": 4080,
      "strong": 4081,
      "thereĠareĠ": 4082,
      "thes": 4083,
      "?Ġ-Ġ": 4084,
      "oveĠ": 4085,
      "alĠĠ": 4086,
      "åį«": 4087,
      "åĲĥ": 4088,
      "uredĠ": 4089,
      "éĥ¨éĹ¨": 4090,
      "is,Ġ": 4091,
      "cost": 4092,
      "ism": 4093,
      "school": 4094,
      "ä½Ļ": 4095,
      ",ĠandĠtheĠ": 4096,
      "centr": 4097,
      "åĲ¬": 4098,
      "ll": 4099,
      "}ĊĊĠĠĠĠĠĠĠĠ": 4100,
      "controlĠ": 4101,
      "connec": 4102,
      "çĶ»": 4103,
      "feature": 4104,
      "agesĠ": 4105,
      "scal": 4106,
      "center": 4107,
      "uck": 4108,
      "df": 4109,
      "äº«": 4110,
      ".C": 4111,
      "renĠ": 4112,
      "goingĠ": 4113,
      "experienceĠ": 4114,
      ")Ġ{ĊĠĠĠĠĠĠĠĠĠĠĠĠ": 4115,
      "éĴ¢": 4116,
      "good": 4117,
      "çļ®": 4118,
      "æ½": 4119,
      "familyĠ": 4120,
      "uaryĠ": 4121,
      "defineĠ": 4122,
      ",ĠJ": 4123,
      "s:": 4124,
      "å·®": 4125,
      "beĠĠ": 4126,
      "summar": 4127,
      "Reg": 4128,
      "Form": 4129,
      "thir": 4130,
      "yĊ": 4131,
      "apĠ": 4132,
      "å¹³åı°": 4133,
      "è¡Ģ": 4134,
      "åı¦": 4135,
      "(C": 4136,
      "åºĶçĶ¨": 4137,
      "econom": 4138,
      "Path": 4139,
      "a_": 4140,
      "review": 4141,
      "èģĶç³»": 4142,
      "involv": 4143,
      "inputĠ": 4144,
      "erĠ=Ġ": 4145,
      "ï¼Ĥ": 4146,
      "neg": 4147,
      "-->Ġ": 4148,
      "aĠlo": 4149,
      "Hand": 4150,
      "artĠ": 4151,
      "your": 4152,
      "prac": 4153,
      "uleĠ": 4154,
      "(i": 4155,
      "çķ¥": 4156,
      "esp": 4157,
      "reason": 4158,
      "ss": 4159,
      "ç´¢": 4160,
      "fullyĠ": 4161,
      "Chec": 4162,
      "peop": 4163,
      "æ¦": 4164,
      "è®¤ä¸º": 4165,
      "æĺ¥": 4166,
      "å®¢æĪ·": 4167,
      "edĠasĠ": 4168,
      "UI": 4169,
      "Request": 4170,
      "ullĠ": 4171,
      "er_": 4172,
      "æī§è¡Į": 4173,
      "mentĠofĠ": 4174,
      "que": 4175,
      "èĥ½å¤Ł": 4176,
      "éĥ½æĺ¯": 4177,
      "second": 4178,
      "åıĳçĶŁ": 4179,
      "](https://": 4180,
      "\".": 4181,
      "li>": 4182,
      "augh": 4183,
      "ç¾İåĽ½": 4184,
      "NS": 4185,
      "Of": 4186,
      "éĹ»": 4187,
      "reduc": 4188,
      "smallĠ": 4189,
      "çł´": 4190,
      "|Ċ": 4191,
      "android": 4192,
      "ĠisĠ": 4193,
      "erv": 4194,
      "Ã¼": 4195,
      "è¯¢": 4196,
      "trav": 4197,
      "ordin": 4198,
      "åŁºç¡": 4199,
      "enter": 4200,
      "Mic": 4201,
      "callĠ": 4202,
      "CT": 4203,
      "doesĠnotĠ": 4204,
      "åİŁåĳĬ": 4205,
      "æĢİ": 4206,
      "Comp": 4207,
      "dd": 4208,
      "é²": 4209,
      "å½©": 4210,
      "æ¸¸æĪı": 4211,
      "åŁºç¡Ģ": 4212,
      "æĪĸèĢħ": 4213,
      "\":": 4214,
      "éĴ±": 4215,
      "åıĳå¸ĥ": 4216,
      "PO": 4217,
      "clear": 4218,
      "ontĠ": 4219,
      "actuallyĠ": 4220,
      "TheyĠ": 4221,
      ".Ġ.Ġ": 4222,
      "æ³ķå¾ĭ": 4223,
      "nb": 4224,
      "Ġb": 4225,
      "illionĠ": 4226,
      "éķĩ": 4227,
      "thre": 4228,
      "look": 4229,
      "!!": 4230,
      "åĪĽæĸ°": 4231,
      "ork": 4232,
      "\");": 4233,
      "plat": 4234,
      "com.": 4235,
      "hold": 4236,
      "Proper": 4237,
      "awayĠ": 4238,
      "parent": 4239,
      "marg": 4240,
      "iallyĠ": 4241,
      "ernĠ": 4242,
      "er-": 4243,
      "æ¿Ģ": 4244,
      "à½": 4245,
      "HT": 4246,
      "usedĠtoĠ": 4247,
      "response": 4248,
      "toĠgetĠ": 4249,
      "Message": 4250,
      "Fir": 4251,
      "img": 4252,
      "andĊ": 4253,
      "challeng": 4254,
      "lic": 4255,
      "æĴŃ": 4256,
      "å®ĺ": 4257,
      "gameĠ": 4258,
      "ing.Ċ": 4259,
      "lete": 4260,
      "æĿĲæĸĻ": 4261,
      "}čĊ": 4262,
      "Ġ[": 4263,
      "éĶĻ": 4264,
      "ç¯": 4265,
      "æĵį": 4266,
      "();ĊĠĠĠĠĠĠĠĠ": 4267,
      "English": 4268,
      "Numb": 4269,
      "å®£": 4270,
      "gramĠ": 4271,
      "outĠofĠ": 4272,
      "found": 4273,
      "becomeĠ": 4274,
      "Play": 4275,
      "healthĠ": 4276,
      "ismĠ": 4277,
      "åĪĨæŀĲ": 4278,
      "socialĠ": 4279,
      "ÐµÐ½": 4280,
      "Ġ*/": 4281,
      "notĠbeĠ": 4282,
      "aĠfewĠ": 4283,
      "Euro": 4284,
      "Read": 4285,
      "caus": 4286,
      "ĠofĠ": 4287,
      "may": 4288,
      "publicĠvoidĠ": 4289,
      "onĠĠ": 4290,
      "Chang": 4291,
      "mic": 4292,
      "fromĠ'": 4293,
      "status": 4294,
      "...Ġ": 4295,
      "phys": 4296,
      "})": 4297,
      "testĠ": 4298,
      "äºĨè§£": 4299,
      "å¸Į": 4300,
      "ude": 4301,
      "åŃ©åŃĲ": 4302,
      "needĠ": 4303,
      "çŁŃ": 4304,
      "personĠ": 4305,
      "å¾ħ": 4306,
      "Te": 4307,
      "ourn": 4308,
      "toĠre": 4309,
      "The": 4310,
      "çªģ": 4311,
      "anch": 4312,
      "Mr": 4313,
      "Ã³": 4314,
      "query": 4315,
      "éĵģ": 4316,
      "urr": 4317,
      "ĊS": 4318,
      "e.ĠTheĠ": 4319,
      "ä»£è¡¨": 4320,
      ",ä¸Ģ": 4321,
      "ngĠ": 4322,
      "Code": 4323,
      "ishedĠ": 4324,
      "åıĳçİ°": 4325,
      "åī¯": 4326,
      "Chin": 4327,
      "fourĠ": 4328,
      "ension": 4329,
      "eĠ=Ġ": 4330,
      "amb": 4331,
      "ulyĠ": 4332,
      "portun": 4333,
      "çŁ¥éģĵ": 4334,
      "versionĠ": 4335,
      "methodĠ": 4336,
      "æ¹ĸ": 4337,
      "selec": 4338,
      ";ĊĊĠĠĠĠ": 4339,
      "ĠĠinĠĠ": 4340,
      "ĊTheĠ": 4341,
      "Element": 4342,
      ",ĠB": 4343,
      "Em": 4344,
      "åħ¨åĽ½": 4345,
      "}{": 4346,
      "resultsĠ": 4347,
      "health": 4348,
      "obj": 4349,
      "productĠ": 4350,
      "ation.": 4351,
      "sil": 4352,
      "æľºæŀĦ": 4353,
      "åĳ³": 4354,
      ".ĠForĠ": 4355,
      "shap": 4356,
      "emp": 4357,
      "doneĠ": 4358,
      "çºª": 4359,
      "ÃŃ": 4360,
      "signific": 4361,
      "Window": 4362,
      "ï¬": 4363,
      "ĊĊĊĊ": 4364,
      "e:Ġ": 4365,
      "throughĠtheĠ": 4366,
      "c.": 4367,
      "heĠwasĠ": 4368,
      "åĽłæŃ¤": 4369,
      "spir": 4370,
      "çŃĳ": 4371,
      "å¥Ĺ": 4372,
      "server": 4373,
      "uresĠ": 4374,
      "ç¨³": 4375,
      "agre": 4376,
      "cameĠ": 4377,
      "observ": 4378,
      "iousĠ": 4379,
      "php": 4380,
      "json": 4381,
      "å¼Ĥ": 4382,
      "}ĊĠĠĠĠĠĠĠĠĠĠĠĠ": 4383,
      "rain": 4384,
      "Hel": 4385,
      "mission": 4386,
      "orderĠ": 4387,
      "dest": 4388,
      "ung": 4389,
      "lyĠĠ": 4390,
      "Sup": 4391,
      "Fin": 4392,
      "çĵ": 4393,
      "æİ§åĪ¶": 4394,
      "æĤ£": 4395,
      "Controll": 4396,
      ",æľī": 4397,
      ",ĊĠĠ": 4398,
      "tific": 4399,
      "ç»§": 4400,
      "echoĠ": 4401,
      "underst": 4402,
      "YourĠ": 4403,
      "Nov": 4404,
      "åºŃ": 4405,
      "çĽĺ": 4406,
      "sn": 4407,
      "d,Ġ": 4408,
      "power": 4409,
      "ingĠthatĠ": 4410,
      "asĠwellĠasĠ": 4411,
      "çĶ±äºİ": 4412,
      "section": 4413,
      "eitherĠ": 4414,
      "........": 4415,
      "ç§»": 4416,
      "context": 4417,
      "Ag": 4418,
      "inser": 4419,
      "Pos": 4420,
      "an,Ġ": 4421,
      "specificĠ": 4422,
      "tookĠ": 4423,
      "æ¶Īè´¹": 4424,
      "MyĠ": 4425,
      "estim": 4426,
      "board": 4427,
      "ä¸Ĭæµ·": 4428,
      "åĲ¸": 4429,
      "åħ³ç³»": 4430,
      "short": 4431,
      "é»ĳ": 4432,
      "åª": 4433,
      "ÙĦ": 4434,
      "win": 4435,
      "åĨĮ": 4436,
      "on-": 4437,
      "},Ġ": 4438,
      "ç½Ĺ": 4439,
      "èŃ": 4440,
      "bir": 4441,
      "dy": 4442,
      "dieĠ": 4443,
      "runĠ": 4444,
      "soci": 4445,
      "Sou": 4446,
      "accord": 4447,
      "é¸": 4448,
      "âĪ": 4449,
      "å®ĮæĪĲ": 4450,
      "ityĠandĠ": 4451,
      "local": 4452,
      "condition": 4453,
      "feel": 4454,
      "extend": 4455,
      "next": 4456,
      "doĠnotĠ": 4457,
      "éĿ©": 4458,
      "Meth": 4459,
      "onceĠ": 4460,
      "Ret": 4461,
      "ï¼ģ": 4462,
      "%%": 4463,
      ":=Ġ": 4464,
      "message": 4465,
      "(intĠ": 4466,
      "}ĠelseĠ": 4467,
      "iver": 4468,
      "ĠĠĠĠĠĠĠĠĠ": 4469,
      "ix": 4470,
      "ï¼Įä¸į": 4471,
      "LI": 4472,
      "ç§ĳåŃ¦": 4473,
      "has": 4474,
      "æįŁ": 4475,
      "åıĳè¡¨": 4476,
      "ä¼¤": 4477,
      "Over": 4478,
      "ï¼ĮèĢĮ": 4479,
      "fail": 4480,
      "æ¸¯": 4481,
      "represent": 4482,
      "recomm": 4483,
      "appear": 4484,
      "Am": 4485,
      "åľ°åĮº": 4486,
      "small": 4487,
      "bal": 4488,
      "ãĢĳ": 4489,
      "photo": 4490,
      "profession": 4491,
      "æ¯Ķè¾ĥ": 4492,
      "åįł": 4493,
      "èĭı": 4494,
      "\"]": 4495,
      "sĠwereĠ": 4496,
      "issue_": 4497,
      "åĢŁ": 4498,
      "SP": 4499,
      "wentĠ": 4500,
      "HĠ": 4501,
      "through": 4502,
      "Cli": 4503,
      "secur": 4504,
      "NĠ": 4505,
      "poli": 4506,
      ",ĠD": 4507,
      ".ĠIt": 4508,
      "enseĠ": 4509,
      ";Ċ}ĊĊ": 4510,
      "ä¸´": 4511,
      "dim": 4512,
      "driv": 4513,
      "simil": 4514,
      "ãĢĲ": 4515,
      "format": 4516,
      "ning": 4517,
      "username_": 4518,
      "forc": 4519,
      "Func": 4520,
      "enoughĠ": 4521,
      "ä¸ļåĬ¡": 4522,
      "areaĠ": 4523,
      "border": 4524,
      "seenĠ": 4525,
      "osp": 4526,
      "y.": 4527,
      "page": 4528,
      "loadĠ": 4529,
      "ä»¤": 4530,
      "lingĠ": 4531,
      "çİ©": 4532,
      "çŃ¾": 4533,
      "edĠatĠ": 4534,
      "ĠĠofĠĠtheĠĠ": 4535,
      "p_": 4536,
      "All": 4537,
      "card": 4538,
      "éĻĪ": 4539,
      "åĲİï¼Į": 4540,
      "ä½ľçĶ¨": 4541,
      "äºĨä¸Ģ": 4542,
      "rand": 4543,
      "æ¤": 4544,
      "duĠ": 4545,
      "ource": 4546,
      "s,ĠĠ": 4547,
      "d'": 4548,
      "script": 4549,
      "MA": 4550,
      "audi": 4551,
      "s)": 4552,
      "opportun": 4553,
      "Compon": 4554,
      "Exception": 4555,
      "esĠ(": 4556,
      "è½¯ä»¶": 4557,
      "match": 4558,
      "çº³": 4559,
      "intro": 4560,
      "åħ«": 4561,
      "ogn": 4562,
      "èİ·å¾Ĺ": 4563,
      "åģ¥åº·": 4564,
      "ÑĮ": 4565,
      "MP": 4566,
      "ç£": 4567,
      "wer": 4568,
      "edĠfromĠ": 4569,
      "meet": 4570,
      "ç´§": 4571,
      "itĠĠ": 4572,
      "send": 4573,
      "Jan": 4574,
      "ordĠ": 4575,
      "minut": 4576,
      "éĽĨåĽ¢": 4577,
      "outĠtheĠ": 4578,
      "éļľ": 4579,
      "cu": 4580,
      "lockĠ": 4581,
      "oth": 4582,
      "Doc": 4583,
      "ç«ŀ": 4584,
      "limit": 4585,
      "t_": 4586,
      "èĹ": 4587,
      "ofĊ": 4588,
      "background": 4589,
      "havi": 4590,
      "ãĢĢãĢĢ": 4591,
      "eringĠ": 4592,
      "toĠmakeĠ": 4593,
      "edĠtoĠtheĠ": 4594,
      "WhileĠ": 4595,
      "after": 4596,
      "Group": 4597,
      "æĽ´å¤ļ": 4598,
      "rat": 4599,
      "è§£åĨ³": 4600,
      "airĠ": 4601,
      ".åľ¨": 4602,
      "aj": 4603,
      ";ĊĠĠĠĠĠĠĠĠĠĠĠĠĠĠĠĠ": 4604,
      "ç¨İ": 4605,
      "\"/": 4606,
      "codeĠ": 4607,
      "selv": 4608,
      "ä¹¡": 4609,
      "æ±ī": 4610,
      "prev": 4611,
      "åħ³äºİ": 4612,
      "invest": 4613,
      "çĶ³è¯·": 4614,
      "financ": 4615,
      "prop": 4616,
      "åįĥ": 4617,
      "host": 4618,
      "material": 4619,
      "D_": 4620,
      "ä¸ĬçļĦ": 4621,
      ")Ġ(": 4622,
      "espec": 4623,
      "variousĠ": 4624,
      "ï¿": 4625,
      "experienc": 4626,
      "NAM": 4627,
      "å¦Ĥä½ķ": 4628,
      "UL": 4629,
      "åŁºæľ¬": 4630,
      "scop": 4631,
      "éĶĢåĶ®": 4632,
      ".ĠThereĠ": 4633,
      "who": 4634,
      "age,Ġ": 4635,
      "nov": 4636,
      "particip": 4637,
      "Title": 4638,
      "-r": 4639,
      "nerĠ": 4640,
      "listĠ": 4641,
      "nessĠ": 4642,
      "init": 4643,
      "ingĠforĠ": 4644,
      "æŃ¦": 4645,
      "åĵª": 4646,
      "schoolĠ": 4647,
      "forĠĠ": 4648,
      "enceĠofĠ": 4649,
      "ĠT": 4650,
      "å¼Ģå±ķ": 4651,
      "auti": 4652,
      "Node": 4653,
      "kindĠ": 4654,
      "wasĠtheĠ": 4655,
      "æ³¢": 4656,
      "sou": 4657,
      "ative": 4658,
      "buil": 4659,
      "piec": 4660,
      "duringĠtheĠ": 4661,
      "\"Ġ+Ġ": 4662,
      "AmericanĠ": 4663,
      "æīĺ": 4664,
      "ĠF": 4665,
      "java.": 4666,
      "areĠtheĠ": 4667,
      "IO": 4668,
      "ĊĊĠĠ": 4669,
      "diffic": 4670,
      "åĲ§": 4671,
      "èĴ": 4672,
      "ç»ıèĲ¥": 4673,
      "frac": 4674,
      "å·´": 4675,
      "}ĊĠĠ": 4676,
      "lib": 4677,
      "ç»¼": 4678,
      "yĠtheĠ": 4679,
      ",ä¹Ł": 4680,
      "ron": 4681,
      "Writ": 4682,
      "orĠĠ": 4683,
      "NoĠ": 4684,
      "stric": 4685,
      "type=\"": 4686,
      "templ": 4687,
      "imm": 4688,
      "Web": 4689,
      "sent": 4690,
      "entalĠ": 4691,
      "åŃĺåľ¨": 4692,
      "å¯Ł": 4693,
      "ìĿ": 4694,
      "void": 4695,
      "s'": 4696,
      "(\\": 4697,
      "dev": 4698,
      "comput": 4699,
      "è°¢": 4700,
      "makesĠ": 4701,
      "éĩĩçĶ¨": 4702,
      "onlineĠ": 4703,
      "ä¸ĥ": 4704,
      "researchĠ": 4705,
      "byĠĠ": 4706,
      "resp": 4707,
      "sĠorĠ": 4708,
      "inceĠ": 4709,
      "ä¸ºäºĨ": 4710,
      "StateĠ": 4711,
      "valĠ": 4712,
      "childrenĠ": 4713,
      "output": 4714,
      "Worl": 4715,
      "ga": 4716,
      "farĠ": 4717,
      "éľĢæ±Ĥ": 4718,
      "i-": 4719,
      "NameĠ": 4720,
      "ç»į": 4721,
      "æľ¨": 4722,
      "fram": 4723,
      ".html": 4724,
      "mad": 4725,
      "ĠD": 4726,
      "checkĠ": 4727,
      "çĸ«": 4728,
      "å¿ħé¡»": 4729,
      "component": 4730,
      "çŃĶ": 4731,
      "har": 4732,
      "y_": 4733,
      "Acc": 4734,
      "æŃĮ": 4735,
      "ditionĠ": 4736,
      ",ĊĠĠĠĠĠĠĠĠĠĠĠĠ": 4737,
      "isĠtoĠ": 4738,
      "Ð¿": 4739,
      "liveĠ": 4740,
      "respond": 4741,
      "hib": 4742,
      "æĿ¥çļĦ": 4743,
      "shop": 4744,
      "çĽ´æİ¥": 4745,
      "er(": 4746,
      "åº§": 4747,
      "Ġc": 4748,
      "ä¸°": 4749,
      "ache": 4750,
      "iredĠ": 4751,
      "peti": 4752,
      "meansĠ": 4753,
      "stre": 4754,
      "totalĠ": 4755,
      "ibleĠ": 4756,
      "IâĢĻmĠ": 4757,
      "movi": 4758,
      "tru": 4759,
      "æĹ¶,": 4760,
      "äºĪ": 4761,
      "Tw": 4762,
      "~~": 4763,
      "intsĠ": 4764,
      "\"ĠĠ": 4765,
      "integr": 4766,
      "amongĠ": 4767,
      "hasĠaĠ": 4768,
      "è®¯": 4769,
      "region": 4770,
      "Ġ*": 4771,
      "filter": 4772,
      "activeĠ": 4773,
      "improv": 4774,
      ",æĺ¯": 4775,
      "update": 4776,
      "mm": 4777,
      "withĠĠ": 4778,
      "):Ġ": 4779,
      "Button": 4780,
      "Revi": 4781,
      "projectĠ": 4782,
      "es,ĠandĠ": 4783,
      "åī§": 4784,
      "assert": 4785,
      "prec": 4786,
      "æ²»çĸĹ": 4787,
      "combin": 4788,
      "èŃ¦": 4789,
      "é£ŀ": 4790,
      "jud": 4791,
      "hon": 4792,
      "processĠ": 4793,
      "es(": 4794,
      "uk": 4795,
      "å¾ģ": 4796,
      "''": 4797,
      "consist": 4798,
      "æķĻåŃ¦": 4799,
      "èĻ½": 4800,
      "Image": 4801,
      "tĠandĠ": 4802,
      "åĬ³": 4803,
      "ÑĢÐ°": 4804,
      "CL": 4805,
      "releas": 4806,
      "objectĠ": 4807,
      "{Ċĉĉĉ": 4808,
      "ç»ĵæŀĦ": 4809,
      "æ±½è½¦": 4810,
      "åĿĹ": 4811,
      "o.": 4812,
      "å»ºçŃĳ": 4813,
      "erĠtheĠ": 4814,
      "inĠĠtheĠĠ": 4815,
      "scen": 4816,
      "Det": 4817,
      "çŁ¥è¯Ĩ": 4818,
      "åĳ¢": 4819,
      "firm": 4820,
      "se,Ġ": 4821,
      "purch": 4822,
      "consum": 4823,
      "thereĠisĠ": 4824,
      "full": 4825,
      "ä¸ĢæŃ¥": 4826,
      "aboveĠ": 4827,
      "eeĠ": 4828,
      "atter": 4829,
      "åħ¶ä¸Ń": 4830,
      ";ĊusingĠ": 4831,
      "HO": 4832,
      "Ger": 4833,
      "fewĠ": 4834,
      "havingĠ": 4835,
      "è®°èĢħ": 4836,
      "designĠ": 4837,
      "Point": 4838,
      "replac": 4839,
      "U.S": 4840,
      "situ": 4841,
      "åĮ»éĻ¢": 4842,
      "è·Ł": 4843,
      "åĺ": 4844,
      "stop": 4845,
      "BO": 4846,
      ".add": 4847,
      "ĠĠĠĠĠĠĠĠĠĠ": 4848,
      "è¿Ļç§į": 4849,
      "(S": 4850,
      "å¢ŀéķ¿": 4851,
      "ii": 4852,
      ")Ġ{ĊĠĠĠĠ": 4853,
      ",ĠinĠ": 4854,
      "å®ģ": 4855,
      "æİĪ": 4856,
      "eralĠ": 4857,
      "é¼": 4858,
      "éĶ®": 4859,
      "{ĊĠĠĠĠĠĠ": 4860,
      "furtherĠ": 4861,
      "use": 4862,
      "åģĩ": 4863,
      "NotĠ": 4864,
      "ungĠ": 4865,
      "centĠ": 4866,
      "èĪª": 4867,
      "portsĠ": 4868,
      "CD": 4869,
      "linkĠ": 4870,
      "ä»»ä½ķ": 4871,
      "moneyĠ": 4872,
      "erĠthanĠ": 4873,
      "hardĠ": 4874,
      "separ": 4875,
      "_n": 4876,
      "XĠ": 4877,
      "evid": 4878,
      "togetherĠ": 4879,
      "Â·Ġ": 4880,
      "IF": 4881,
      "remain": 4882,
      "GĠ": 4883,
      "\"çļĦ": 4884,
      "fund": 4885,
      ",ĠitĠ": 4886,
      "mail": 4887,
      "ing-": 4888,
      "zer": 4889,
      "æĦ¿": 4890,
      "howĠtoĠ": 4891,
      "kid": 4892,
      "window": 4893,
      "upĠtoĠ": 4894,
      "_name": 4895,
      "||Ġ": 4896,
      ");ĊĠĠĠĠĠĠĠĠĠĠĠĠĠĠĠĠ": 4897,
      "stri": 4898,
      "ifĠtheĠ": 4899,
      "Fil": 4900,
      "calcul": 4901,
      "æĿ¥,": 4902,
      "è´Łè´£": 4903,
      "éĵ¶è¡Į": 4904,
      "();ĊĠĠĠĠ": 4905,
      "mal": 4906,
      "gettingĠ": 4907,
      "gres": 4908,
      "effici": 4909,
      "tra": 4910,
      "IĠĠ": 4911,
      "ark": 4912,
      "Ċĉĉĉĉĉĉĉ": 4913,
      "FromĠ": 4914,
      ":ĠTheĠ": 4915,
      "contentĠ": 4916,
      "establ": 4917,
      "åĽ½åĨħ": 4918,
      "Net": 4919,
      "tif": 4920,
      "åªĴ": 4921,
      "what": 4922,
      "Run": 4923,
      "<?": 4924,
      "dif": 4925,
      "åģľ": 4926,
      ".ĊA": 4927,
      "underĠtheĠ": 4928,
      "Table": 4929,
      "åºĵ": 4930,
      "uint": 4931,
      "time,Ġ": 4932,
      "ice": 4933,
      "likelyĠ": 4934,
      "ensiveĠ": 4935,
      "åħ°": 4936,
      "takenĠ": 4937,
      "requiredĠ": 4938,
      "spl": 4939,
      "partĠofĠ": 4940,
      "transp": 4941,
      "El": 4942,
      "ç»Ŀ": 4943,
      "akeĠ": 4944,
      "UnitedĠ": 4945,
      "transform": 4946,
      "./": 4947,
      "æŃ»": 4948,
      "è®¡åĪĴ": 4949,
      "æĺ¾ç¤º": 4950,
      "th,Ġ": 4951,
      "c_": 4952,
      "missionĠ": 4953,
      "çĶµåŃĲ": 4954,
      "sle": 4955,
      "Hol": 4956,
      "æĶ¿çŃĸ": 4957,
      ",ä»¥": 4958,
      ";ĊĠĠĠĠĠĠ": 4959,
      "atĠleastĠ": 4960,
      ">>Ġ": 4961,
      "join": 4962,
      "ptionĠ": 4963,
      "sĠfromĠ": 4964,
      "round": 4965,
      "append": 4966,
      "=>": 4967,
      "æĽ¾": 4968,
      "commonĠ": 4969,
      "they": 4970,
      "éĤ£ä¹Ī": 4971,
      "communic": 4972,
      "imĠ": 4973,
      ",'": 4974,
      ",ĠyouĠ": 4975,
      "##Ġ": 4976,
      "æľīåħ³": 4977,
      "problemĠ": 4978,
      "ni": 4979,
      "è¿ĺæľī": 4980,
      "proto": 4981,
      "thoughtĠ": 4982,
      "da": 4983,
      "becom": 4984,
      "æıĲåįĩ": 4985,
      "Su": 4986,
      "ister": 4987,
      "å¢ŀåĬł": 4988,
      "style=\"": 4989,
      "ç²¾ç¥ŀ": 4990,
      "sv": 4991,
      "ĠâģĩĠ": 4992,
      "CP": 4993,
      "foodĠ": 4994,
      "reviewĠ": 4995,
      "IsĠ": 4996,
      "rateĠ": 4997,
      "probab": 4998,
      "isĠthatĠ": 4999,
      "rot": 5000,
      "alĠandĠ": 5001,
      "nbsp": 5002,
      "game": 5003,
      "Action": 5004,
      "Rem": 5005,
      "è®¢": 5006,
      "å²ģ": 5007,
      "æľīæķĪ": 5008,
      "ä¸ĩåħĥ": 5009,
      "éŃ": 5010,
      "Cour": 5011,
      "session": 5012,
      "tou": 5013,
      "userĠ": 5014,
      "jur": 5015,
      "French": 5016,
      "ratherĠ": 5017,
      "Answ": 5018,
      "purpos": 5019,
      "ink": 5020,
      "paramet": 5021,
      "plo": 5022,
      "ç»¿": 5023,
      "gerĠ": 5024,
      "å¹´çļĦ": 5025,
      "ä¿ĥ": 5026,
      "etyĠ": 5027,
      "though": 5028,
      "ed.Ġ": 5029,
      "è¯į": 5030,
      "quiteĠ": 5031,
      "æĻļ": 5032,
      "eval": 5033,
      "åĲĹ": 5034,
      "comingĠ": 5035,
      "Pe": 5036,
      "agn": 5037,
      "æľĭ": 5038,
      "rac": 5039,
      "temper": 5040,
      "chann": 5041,
      "wholeĠ": 5042,
      "ä½ľèĢħ": 5043,
      "æ¬§": 5044,
      ",ĠsoĠ": 5045,
      ";Ċĉĉĉ": 5046,
      "regard": 5047,
      "describ": 5048,
      "dir": 5049,
      "t-": 5050,
      "knowled": 5051,
      "powerĠ": 5052,
      "ä»ĭç»į": 5053,
      "ers.Ġ": 5054,
      "Del": 5055,
      "&nbsp": 5056,
      "industr": 5057,
      "hard": 5058,
      "especiallyĠ": 5059,
      "Ñĩ": 5060,
      "structĠ": 5061,
      "éĺ¿": 5062,
      "čĊĉĉĉĉ": 5063,
      "æ¯į": 5064,
      "ç¬¦": 5065,
      "è½®": 5066,
      "withinĠ": 5067,
      "Met": 5068,
      "propertyĠ": 5069,
      "S_": 5070,
      "Ð¾Ð²": 5071,
      "ä¿ĿæĬ¤": 5072,
      "ĊimportĠ": 5073,
      "notĠĠ": 5074,
      "Result": 5075,
      "=Ġ(": 5076,
      "termĠ": 5077,
      "å¥ĩ": 5078,
      "Method": 5079,
      "almostĠ": 5080,
      ".ĊĠĠĠĠ": 5081,
      "anceĠofĠ": 5082,
      "åĲĦç§į": 5083,
      "clus": 5084,
      "gir": 5085,
      "storyĠ": 5086,
      "studyĠ": 5087,
      "InĠtheĠ": 5088,
      "ym": 5089,
      "ux": 5090,
      "toldĠ": 5091,
      "y.Ġ": 5092,
      "undĠ": 5093,
      "awĠ": 5094,
      "MO": 5095,
      "çļĦæĹ¶åĢĻ": 5096,
      "ersĠtoĠ": 5097,
      "propos": 5098,
      "closeĠ": 5099,
      "ï¿½": 5100,
      "marketĠ": 5101,
      "Wid": 5102,
      "çĩ": 5103,
      "èģļ": 5104,
      "atĠaĠ": 5105,
      "msg": 5106,
      "åĨ·": 5107,
      "eĠtoĠ": 5108,
      "é¦Ĩ": 5109,
      "learn": 5110,
      "humanĠ": 5111,
      "æŁĵ": 5112,
      "ĠÐ¿": 5113,
      "(self": 5114,
      "KE": 5115,
      "eventĠ": 5116,
      "ĊĊĠĠĠĠĠĠĠĠ": 5117,
      "eb": 5118,
      "IĠthinkĠ": 5119,
      "houseĠ": 5120,
      "Boo": 5121,
      "å¸ĮæľĽ": 5122,
      "pastĠ": 5123,
      "ç»ĥ": 5124,
      "groundĠ": 5125,
      "cons": 5126,
      "Input": 5127,
      "å·¥ä¸ļ": 5128,
      "ä¹Ŀ": 5129,
      "ance,Ġ": 5130,
      "meanĠ": 5131,
      "åŃ¦éĻ¢": 5132,
      "column": 5133,
      "textĠ": 5134,
      "s,ĠbutĠ": 5135,
      "unit": 5136,
      "imin": 5137,
      "doingĠ": 5138,
      "pg": 5139,
      "doubleĠ": 5140,
      "å®ŀéĻħ": 5141,
      "trueĠ": 5142,
      "believeĠ": 5143,
      ",ĠasĠ": 5144,
      ",ĠL": 5145,
      "agr": 5146,
      "font-": 5147,
      "hic": 5148,
      "}ĊĊĉ": 5149,
      "org/": 5150,
      "personalĠ": 5151,
      "videoĠ": 5152,
      "Content": 5153,
      "åĽº": 5154,
      "certainĠ": 5155,
      "è¿Ļä¸Ģ": 5156,
      "tableĠ": 5157,
      "èĨ": 5158,
      "chem": 5159,
      "student": 5160,
      "youĠhaveĠ": 5161,
      "github.com/": 5162,
      "ç§¯æŀģ": 5163,
      "æĭ¥": 5164,
      "åĪĺ": 5165,
      "ertĠ": 5166,
      "æĸ°éĹ»": 5167,
      "icon": 5168,
      "tionalĠ": 5169,
      ",ĠR": 5170,
      "DB": 5171,
      "sedĠ": 5172,
      "SC": 5173,
      "increaseĠ": 5174,
      "ed.": 5175,
      "éĵ¾": 5176,
      "org.": 5177,
      "Vis": 5178,
      "åĪ©çĶ¨": 5179,
      "å·¦": 5180,
      "edit": 5181,
      "takingĠ": 5182,
      "inste": 5183,
      "es:Ġ": 5184,
      "positiveĠ": 5185,
      ":ĊĠĠĠĠĠĠĠĠ": 5186,
      "æ°´å¹³": 5187,
      "bol": 5188,
      "Context": 5189,
      "whenĠtheĠ": 5190,
      "studentsĠ": 5191,
      "Ur": 5192,
      "List<": 5193,
      "roleĠ": 5194,
      "posit": 5195,
      "å¸ģ": 5196,
      "åİĨåı²": 5197,
      "leaseĠ": 5198,
      "Publ": 5199,
      "people": 5200,
      "fore": 5201,
      "popul": 5202,
      "èĵ": 5203,
      "Arg": 5204,
      "è¡Įä¸º": 5205,
      "couldĠbeĠ": 5206,
      ":ĊĠĠĠĠĠĠĠĠĠĠĠĠ": 5207,
      "IR": 5208,
      "x_": 5209,
      "æĵįä½ľ": 5210,
      "atic": 5211,
      "today": 5212,
      "ĠforĠ": 5213,
      "jectsĠ": 5214,
      "çĶµè¯Ŀ": 5215,
      "cod": 5216,
      "ç¼º": 5217,
      "æĢİä¹Ī": 5218,
      "\"]Ġ=Ġ": 5219,
      "someoneĠ": 5220,
      "æ³¨æĦı": 5221,
      "ĠL": 5222,
      "singĠ": 5223,
      "maĠ": 5224,
      "pleaseĠ": 5225,
      "mil": 5226,
      "e/": 5227,
      "ĠĠwasĠĠ": 5228,
      "XX": 5229,
      "responseĠ": 5230,
      "æĪĳçļĦ": 5231,
      "ologicalĠ": 5232,
      "Â»": 5233,
      "ĠG": 5234,
      "'llĠ": 5235,
      "ck": 5236,
      "practic": 5237,
      "'),": 5238,
      "urn": 5239,
      "Response": 5240,
      "ENT": 5241,
      "fromĠaĠ": 5242,
      ".Ċ\"": 5243,
      "ç»©": 5244,
      "è¿İ": 5245,
      "commit": 5246,
      "IV": 5247,
      "deĠlaĠ": 5248,
      "ializ": 5249,
      "mach": 5250,
      "tedĠ": 5251,
      "probablyĠ": 5252,
      "æıĲåĩº": 5253,
      "weĠareĠ": 5254,
      "pic": 5255,
      "äº¤æĺĵ": 5256,
      "Nam": 5257,
      "áĢ": 5258,
      "eryĠ": 5259,
      "weekĠ": 5260,
      "energyĠ": 5261,
      "</a>": 5262,
      "è®¿": 5263,
      "oll": 5264,
      "åįĸ": 5265,
      "Ġ:Ġ": 5266,
      "cros": 5267,
      "å³": 5268,
      "èĦĳ": 5269,
      "åıĤåĬł": 5270,
      "åĪļ": 5271,
      "åı³": 5272,
      "Head": 5273,
      "ingĠwithĠ": 5274,
      "¤Ĳ": 5275,
      "cript": 5276,
      "atten": 5277,
      "Mc": 5278,
      "æ¶²": 5279,
      "Attr": 5280,
      "Cap": 5281,
      "åºĨ": 5282,
      "TheseĠ": 5283,
      "æłĳ": 5284,
      "åĲĪåĲĮ": 5285,
      "è¿Ľåħ¥": 5286,
      "Select": 5287,
      "æľĭåıĭ": 5288,
      "éģĩ": 5289,
      "åŁ¹è®Ń": 5290,
      "ä¸ĢèĪ¬": 5291,
      "al-": 5292,
      "frequ": 5293,
      "æĬĹ": 5294,
      "NewĠY": 5295,
      "ä¹ĭéĹ´": 5296,
      "Ht": 5297,
      "fiveĠ": 5298,
      "i_": 5299,
      "PC": 5300,
      "Lic": 5301,
      "=Ġ$": 5302,
      "comple": 5303,
      "Ã¶": 5304,
      "neĠ": 5305,
      "');Ċ": 5306,
      "tellĠ": 5307,
      "éĨ": 5308,
      ");Ċĉĉĉ": 5309,
      "ĠĊĊĊ": 5310,
      ".Ġ</s>Ġ": 5311,
      "resĠ": 5312,
      "bb": 5313,
      "ĠØ": 5314,
      "æĸ°çļĦ": 5315,
      "æĿ¡ä»¶": 5316,
      "æĸĩä»¶": 5317,
      "tive": 5318,
      "logĠ": 5319,
      "will": 5320,
      "éĺ¶": 5321,
      "OurĠ": 5322,
      "whichĠisĠ": 5323,
      "æīĭæľº": 5324,
      "recogn": 5325,
      "viaĠ": 5326,
      ".ĠK": 5327,
      "Cal": 5328,
      "clas": 5329,
      "watch": 5330,
      "ence,Ġ": 5331,
      "æĹħæ¸¸": 5332,
      "squ": 5333,
      "softw": 5334,
      "edd": 5335,
      "float": 5336,
      "ho": 5337,
      "account": 5338,
      "çī¹åĪ«": 5339,
      "factĠ": 5340,
      "specialĠ": 5341,
      "Wr": 5342,
      "åĪ»": 5343,
      "mentalĠ": 5344,
      "collec": 5345,
      "åĿĢ": 5346,
      "packageĠ": 5347,
      "ä»¥ä¸ĭ": 5348,
      "ä¸įä¼ļ": 5349,
      "é¢ĨåŁŁ": 5350,
      "princ": 5351,
      "programĠ": 5352,
      "orkĠ": 5353,
      "sĠtoĠbeĠ": 5354,
      "Do": 5355,
      "æ³¨åĨĮ": 5356,
      "Christ": 5357,
      "zz": 5358,
      "ç§Ģ": 5359,
      "majorĠ": 5360,
      "eĠthatĠ": 5361,
      "umentĠ": 5362,
      "tab": 5363,
      "éĴĪ": 5364,
      "betweenĠtheĠ": 5365,
      "åºĶè¯¥": 5366,
      "VAL": 5367,
      "ene": 5368,
      "behavi": 5369,
      ",ĠT": 5370,
      "ing:Ġ": 5371,
      "Bas": 5372,
      "heĠĠ": 5373,
      "IE": 5374,
      "endingĠ": 5375,
      "}Ċĉĉ": 5376,
      "Sept": 5377,
      "Auth": 5378,
      "OP": 5379,
      "<issue_": 5380,
      "[Ġ": 5381,
      "ĊĠĠĠĠĠĠĠ": 5382,
      "lengthĠ": 5383,
      "learnĠ": 5384,
      "God": 5385,
      "):ĊĠĠĠĠĠĠĠĠ": 5386,
      "application": 5387,
      "Initi": 5388,
      "ed:Ġ": 5389,
      "orderĠtoĠ": 5390,
      "è¿½": 5391,
      "_m": 5392,
      "appe": 5393,
      "sizeĠ": 5394,
      "Box": 5395,
      "ç§Ł": 5396,
      "åĲ¯": 5397,
      "updat": 5398,
      "é¡º": 5399,
      "æ¨¡å¼ı": 5400,
      "fu": 5401,
      "Option": 5402,
      "implement": 5403,
      "è®¡ç®Ĺ": 5404,
      ".m": 5405,
      "wayĠtoĠ": 5406,
      "rais": 5407,
      "åħ¸": 5408,
      "éĴŁ": 5409,
      "ĊĠĠĠĠĠĠ<": 5410,
      "ä»į": 5411,
      "rup": 5412,
      "hap": 5413,
      "æ¯Ĵ": 5414,
      "attribut": 5415,
      "Ð·": 5416,
      "radi": 5417,
      "ĠorĠ": 5418,
      ":ĠĠ": 5419,
      "bound": 5420,
      "MM": 5421,
      "Ð½Ð°": 5422,
      "command": 5423,
      "ç»¼åĲĪ": 5424,
      "æķĪæŀľ": 5425,
      "padd": 5426,
      "holdĠ": 5427,
      "âĢĻllĠ": 5428,
      "æĪĲåĬŁ": 5429,
      "buildĠ": 5430,
      "didĠnotĠ": 5431,
      "ä¼ļè®®": 5432,
      "beauti": 5433,
      "éĻĦ": 5434,
      "conduc": 5435,
      "basedĠonĠ": 5436,
      "çģµ": 5437,
      "èĹı": 5438,
      ">Ċ</": 5439,
      "estig": 5440,
      "NAME": 5441,
      ".ĠSheĠ": 5442,
      "prep": 5443,
      "âĢ¦Ċ": 5444,
      "ageĠofĠ": 5445,
      "Rob": 5446,
      "Don": 5447,
      ")(": 5448,
      "é¤Ĳ": 5449,
      ".ĊâĢľ": 5450,
      "neyĠ": 5451,
      "ĊĠĠĠĠĠĠĠĠĠĠĠĠ<": 5452,
      "anksĠ": 5453,
      "éº": 5454,
      "çĽ®æłĩ": 5455,
      "ç¬¬ä¸ī": 5456,
      "planĠ": 5457,
      "exportĠ": 5458,
      "spaceĠ": 5459,
      "FO": 5460,
      "mitt": 5461,
      "å½¢æĪĲ": 5462,
      "degre": 5463,
      "fast": 5464,
      "costĠ": 5465,
      "us,Ġ": 5466,
      "responsi": 5467,
      "'veĠ": 5468,
      "Label": 5469,
      "ounc": 5470,
      "scor": 5471,
      "atedĠbyĠ": 5472,
      "é¢Ĩå¯¼": 5473,
      "âĢ¢Ġ": 5474,
      "verĠ": 5475,
      "postĠ": 5476,
      "Men": 5477,
      "hi": 5478,
      "æĿ¾": 5479,
      "countr": 5480,
      "resourc": 5481,
      "leyĠ": 5482,
      "èĭ¥": 5483,
      "yetĠ": 5484,
      "root": 5485,
      "sample": 5486,
      "JohnĠ": 5487,
      "eth": 5488,
      "SO": 5489,
      "understand": 5490,
      "proces": 5491,
      "most": 5492,
      "proveĠ": 5493,
      "stra": 5494,
      "åı¥": 5495,
      "äº¤éĢļ": 5496,
      "yl": 5497,
      "e,ĠbutĠ": 5498,
      "estion": 5499,
      "haveĠtheĠ": 5500,
      "canc": 5501,
      "summary": 5502,
      "ÂłĠ": 5503,
      "compl": 5504,
      "withinĠtheĠ": 5505,
      "Component": 5506,
      "encesĠ": 5507,
      "iĠ=Ġ": 5508,
      "leav": 5509,
      "\\(\\": 5510,
      "æ¯ķ": 5511,
      "youĠtoĠ": 5512,
      "è°Ī": 5513,
      "minim": 5514,
      "text-": 5515,
      "erĠĠ": 5516,
      "ItĠisĠ": 5517,
      "Heal": 5518,
      "UE": 5519,
      "s.ĠĠ": 5520,
      "æĺ¯åĲ¦": 5521,
      "youngĠ": 5522,
      "ingĠtoĠtheĠ": 5523,
      "Ġ,": 5524,
      "allowĠ": 5525,
      "payĠ": 5526,
      "life": 5527,
      "ä»·åĢ¼": 5528,
      "to-": 5529,
      "reli": 5530,
      "experim": 5531,
      "ba": 5532,
      "sole.": 5533,
      "autom": 5534,
      ",ĠA": 5535,
      "icsĠ": 5536,
      "cut": 5537,
      "\",ĊĠĠĠĠ": 5538,
      "èĥĮ": 5539,
      "itĠtoĠ": 5540,
      "see": 5541,
      "asp": 5542,
      "ticeĠ": 5543,
      "toĠĠtheĠĠ": 5544,
      "allĠofĠ": 5545,
      "+=Ġ": 5546,
      "ä»Ĭå¹´": 5547,
      "analy": 5548,
      "*/ĊĠĠĠĠ": 5549,
      "iorĠ": 5550,
      "äº§çĶŁ": 5551,
      "\").": 5552,
      "à¦": 5553,
      "governmentĠ": 5554,
      "boolĠ": 5555,
      "åľ°æĸ¹": 5556,
      "ĊĠĠĠĠĠĠĠĠĠĠĠĠĠĠĠĠĠĠ": 5557,
      ".ĊĠĠ": 5558,
      "src=\"": 5559,
      "courseĠ": 5560,
      "qualityĠ": 5561,
      "sens": 5562,
      "etc": 5563,
      "Inte": 5564,
      "tr>": 5565,
      "pleĠofĠ": 5566,
      "libr": 5567,
      "echan": 5568,
      "sem": 5569,
      "errorĠ": 5570,
      "æĹ¶ï¼Į": 5571,
      "shortĠ": 5572,
      "unch": 5573,
      ".ĠâĢľ": 5574,
      "èĩªçĦ¶": 5575,
      "ç»ĵæŀľ": 5576,
      "shownĠ": 5577,
      "åĨ²": 5578,
      "ĊM": 5579,
      "comment>": 5580,
      ",ä¸º": 5581,
      "corpor": 5582,
      "å®ŀæĸ½": 5583,
      "éĢĢ": 5584,
      "Ġyear": 5585,
      "efĠ": 5586,
      "è´µ": 5587,
      "ä¸įæĸŃ": 5588,
      "cc": 5589,
      ".ĊIĠ": 5590,
      "From": 5591,
      "mix": 5592,
      ",Ġ-": 5593,
      "decid": 5594,
      "********************************": 5595,
      "joy": 5596,
      "bug": 5597,
      "æĻºèĥ½": 5598,
      "rop": 5599,
      "ä¼¼": 5600,
      "ä¸½": 5601,
      "oud": 5602,
      "å»ºç«ĭ": 5603,
      "conver": 5604,
      "occur": 5605,
      "å¨ģ": 5606,
      "ç³»åĪĹ": 5607,
      "âĢ¦Ġ": 5608,
      "tex": 5609,
      "True": 5610,
      "mit": 5611,
      "FA": 5612,
      "ation:Ġ": 5613,
      "acces": 5614,
      "night": 5615,
      "ipp": 5616,
      "Service": 5617,
      ".ĠItĠisĠ": 5618,
      "ç»ıéªĮ": 5619,
      "comesĠ": 5620,
      "imageĠ": 5621,
      "\"Ġclass=\"": 5622,
      "tsĠandĠ": 5623,
      "rest": 5624,
      ")Ġ=>Ġ": 5625,
      "mob": 5626,
      "Off": 5627,
      "source": 5628,
      "TE": 5629,
      "ä½łçļĦ": 5630,
      "ç®±": 5631,
      "carĠ": 5632,
      "optionĠ": 5633,
      ")Ġ=Ġ": 5634,
      "againĠ": 5635,
      "Scho": 5636,
      "youâĢĻreĠ": 5637,
      "ä¸ĭè½½": 5638,
      "al_": 5639,
      "SoĠ": 5640,
      "Sol": 5641,
      ".ĊH": 5642,
      "(p": 5643,
      "beh": 5644,
      "å±Ĭ": 5645,
      "guid": 5646,
      "potentialĠ": 5647,
      "è¾¾åĪ°": 5648,
      "ler": 5649,
      "å©ļ": 5650,
      "satis": 5651,
      "ĠÐ²": 5652,
      "igr": 5653,
      "tĠ=Ġ": 5654,
      "æĹ¥,": 5655,
      "avo": 5656,
      "Not": 5657,
      "æ´²": 5658,
      "=\\": 5659,
      "ï¼Įè¿Ļ": 5660,
      "total": 5661,
      "å¤«": 5662,
      "mustĠbeĠ": 5663,
      "business": 5664,
      "quick": 5665,
      "ashĠ": 5666,
      "èĥľ": 5667,
      "here": 5668,
      "æ´Ĺ": 5669,
      "tax": 5670,
      "åĩĢ": 5671,
      ".png": 5672,
      "hisĠĠ": 5673,
      "clearĠ": 5674,
      "alĊ": 5675,
      "temp": 5676,
      ".ĊĠĠĠ": 5677,
      "rout": 5678,
      "æĢ¥": 5679,
      "ense": 5680,
      "ç²ī": 5681,
      "writeĠ": 5682,
      "JS": 5683,
      "tion,Ġ": 5684,
      "åįĪ": 5685,
      "èĻ½çĦ¶": 5686,
      ";ĊĠĠĠĠ}ĊĊĠĠĠĠ": 5687,
      "plann": 5688,
      "ockĠ": 5689,
      "ĠH": 5690,
      "ByĠ": 5691,
      "nightĠ": 5692,
      "ations,Ġ": 5693,
      "Ġ-->Ġ": 5694,
      "ä¸Ģèµ·": 5695,
      "ä¼łç»Ł": 5696,
      "ifĠ(!": 5697,
      "ä¿Ŀè¯ģ": 5698,
      "favor": 5699,
      "èĳĹ": 5700,
      "ML": 5701,
      "ä¸Ĭ,": 5702,
      "flag": 5703,
      "âģĩĠĠĠ": 5704,
      "publicĠstaticĠ": 5705,
      "influ": 5706,
      "btn": 5707,
      "pxĠ": 5708,
      "æİ¢": 5709,
      "DoĠ": 5710,
      "äº®": 5711,
      "oph": 5712,
      "Prov": 5713,
      "ä¹ħ": 5714,
      "èĸ": 5715,
      "PL": 5716,
      "menĠ": 5717,
      "IfĠyouĠ": 5718,
      "ä»ª": 5719,
      "succ": 5720,
      "rid": 5721,
      "offerĠ": 5722,
      "mind": 5723,
      "}ĊĊĠĠ": 5724,
      "NE": 5725,
      "ç¬Ķ": 5726,
      "ĊtheĠĠ": 5727,
      "è¿Ŀ": 5728,
      "æĭ¿": 5729,
      "a/": 5730,
      "aĠnewĠ": 5731,
      "seriesĠ": 5732,
      "èıľ": 5733,
      "womenĠ": 5734,
      "simplyĠ": 5735,
      "**Ġ": 5736,
      "introduc": 5737,
      "ç©ºéĹ´": 5738,
      "istic": 5739,
      "weight": 5740,
      "relatedĠ": 5741,
      "connect": 5742,
      "facil": 5743,
      "çĶ¨äºİ": 5744,
      "ĠJ": 5745,
      "wis": 5746,
      "ãģ®": 5747,
      "ballĠ": 5748,
      "kind": 5749,
      "éĢı": 5750,
      "numberĠ": 5751,
      ",Ġp": 5752,
      "ç¬ĳ": 5753,
      "VER": 5754,
      "description": 5755,
      "izedĠ": 5756,
      "pathĠ": 5757,
      ",ĠH": 5758,
      "æŀ¶": 5759,
      "usuallyĠ": 5760,
      ".ĠSoĠ": 5761,
      "color:Ġ": 5762,
      "rom": 5763,
      "æĸ¹æ¡Ī": 5764,
      "everythingĠ": 5765,
      ")Ċĉĉ": 5766,
      "ian": 5767,
      "çĳ": 5768,
      "shallĠ": 5769,
      "éĽ¶": 5770,
      "ÃĹ": 5771,
      "../../": 5772,
      "ideaĠ": 5773,
      "liz": 5774,
      "è¿Ľä¸ĢæŃ¥": 5775,
      "æĪĳåĽ½": 5776,
      "èĮĥåĽ´": 5777,
      "ectionĠ": 5778,
      "ĊĠĠĠĠĠ*Ġ@": 5779,
      "æ±¡": 5780,
      "stream": 5781,
      "itingĠ": 5782,
      "tersĠ": 5783,
      ".ĠTheseĠ": 5784,
      "regul": 5785,
      "sourceĠ": 5786,
      "').": 5787,
      "æ³ķéĻ¢": 5788,
      "appl": 5789,
      "whichĠĠ": 5790,
      "data.": 5791,
      "Tag": 5792,
      "thatĠIĠ": 5793,
      "åĬłå¼º": 5794,
      "optim": 5795,
      "###Ġ": 5796,
      "dÃ©": 5797,
      "fai": 5798,
      "YP": 5799,
      "Ġ\\": 5800,
      "å¸®åĬ©": 5801,
      "evalu": 5802,
      "to_": 5803,
      ",ĊĠĠĠĠĠĠ": 5804,
      "gn": 5805,
      "one,Ġ": 5806,
      "stepĠ": 5807,
      "yp": 5808,
      "cra": 5809,
      "åīĤ": 5810,
      "Ġë": 5811,
      "(),Ġ": 5812,
      "ThatĠ": 5813,
      "o_": 5814,
      "PR": 5815,
      "åĪ¶åº¦": 5816,
      "esĠofĠtheĠ": 5817,
      "æĬ¥åĳĬ": 5818,
      "areĠĠ": 5819,
      "ç«łĠ": 5820,
      "âĢĻveĠ": 5821,
      "éĿł": 5822,
      "èĽ": 5823,
      "ardsĠ": 5824,
      "F,": 5825,
      "leadĠ": 5826,
      "-b": 5827,
      "Spec": 5828,
      "labor": 5829,
      "CA": 5830,
      "inĠyourĠ": 5831,
      "æľĢåĲİ": 5832,
      "phoneĠ": 5833,
      "naturalĠ": 5834,
      "antlyĠ": 5835,
      "thisĠisĠ": 5836,
      "emo": 5837,
      "DataĠ": 5838,
      "WH": 5839,
      ")ĊĠĠ": 5840,
      "å®Ī": 5841,
      "alle": 5842,
      ".ĠAsĠ": 5843,
      "åİħ": 5844,
      "ï¼Įä»¥": 5845,
      "activi": 5846,
      "é½": 5847,
      "particular": 5848,
      "ln": 5849,
      "ally": 5850,
      "æ°¸": 5851,
      "pointsĠ": 5852,
      "tryingĠtoĠ": 5853,
      "questionĠ": 5854,
      "fel": 5855,
      "thatĠyouĠ": 5856,
      ",ĠNULL,ĠNULL": 5857,
      "UĠ": 5858,
      "éĺħ": 5859,
      "è¡Ĺ": 5860,
      "èµĦéĩĳ": 5861,
      "UP": 5862,
      "éĩįçĤ¹": 5863,
      "strongĠ": 5864,
      "èīºæľ¯": 5865,
      "ital": 5866,
      "adĠĠ": 5867,
      "mitĠ": 5868,
      "keep": 5869,
      "èĮ¶": 5870,
      "æĽ²": 5871,
      "virt": 5872,
      "à¹": 5873,
      "s;Ġ": 5874,
      "children": 5875,
      "éħ¸": 5876,
      "Ċ\"": 5877,
      "omet": 5878,
      "sett": 5879,
      ")ĊĊĠĠĠĠ": 5880,
      "kindĠofĠ": 5881,
      "ĊĠĠĠĠĠĠĠĠĠĠĠĠĠĠĠĠĠĠĠĠĠĠĠĠĠĠĠĠĠĠĠĠĠĠĠĠ": 5882,
      "Octo": 5883,
      "sectionĠ": 5884,
      "Bus": 5885,
      "THEĠ": 5886,
      "ĊĠĠĠĠĠ*Ġ": 5887,
      "åħ¨çĲĥ": 5888,
      "asset": 5889,
      "ersĠofĠ": 5890,
      "foreĠ": 5891,
      "generalĠ": 5892,
      "andĠaĠ": 5893,
      "boardĠ": 5894,
      "namesp": 5895,
      "obtain": 5896,
      "Sun": 5897,
      "Client": 5898,
      "ersĠareĠ": 5899,
      "afterĠtheĠ": 5900,
      "èĩªåĬ¨": 5901,
      "é¡¾": 5902,
      "Pan": 5903,
      ".Ġ-Ġ": 5904,
      "æĭ¥æľī": 5905,
      "house": 5906,
      "MS": 5907,
      "æ²Ļ": 5908,
      "Sal": 5909,
      "similarĠ": 5910,
      "ties": 5911,
      "ĊĠĠĠĠĠĠĠĠĠĠĠĠĠĠĠĠĠĠĠĠĠĠĠĠĠĠĠĠĠĠĠĠĠĠĠĠĠĠĠĠĠĠĠĠĠĠĠĠ": 5912,
      "concern": 5913,
      "ï¼Įä¹Ł": 5914,
      "SER": 5915,
      "xx": 5916,
      "ingĠonĠ": 5917,
      "Sty": 5918,
      "heldĠ": 5919,
      "åħ¨éĿ¢": 5920,
      "MarchĠ": 5921,
      "æĮīçħ§": 5922,
      "inten": 5923,
      "ä½³": 5924,
      "':Ġ'": 5925,
      "track": 5926,
      "<br": 5927,
      "rÃ©": 5928,
      "arkĠ": 5929,
      "äº¿åħĥ": 5930,
      "edĠtoĠbeĠ": 5931,
      ".Ċ-Ġ": 5932,
      "task": 5933,
      "æķĻå¸Ī": 5934,
      "recentĠ": 5935,
      "rad": 5936,
      "&nbsp;": 5937,
      "ViewĠ": 5938,
      "developmentĠ": 5939,
      "å°ļ": 5940,
      "(n": 5941,
      "æĭį": 5942,
      "bra": 5943,
      "Aut": 5944,
      "prettyĠ": 5945,
      "orĠofĠ": 5946,
      "pageĠ": 5947,
      "ä¸¤ä¸ª": 5948,
      "didn'tĠ": 5949,
      "ç»ĵåĲĪ": 5950,
      "shareĠ": 5951,
      "amaz": 5952,
      "urch": 5953,
      "(a": 5954,
      "period": 5955,
      "partĠofĠtheĠ": 5956,
      "proced": 5957,
      ">ĊĊ": 5958,
      "Defa": 5959,
      "Applic": 5960,
      "investig": 5961,
      "åªĴä½ĵ": 5962,
      "æĮ¥": 5963,
      "åĽ°": 5964,
      "auĠ": 5965,
      "erĠinĠ": 5966,
      "clud": 5967,
      "skill": 5968,
      "GodĠ": 5969,
      "daysĠ": 5970,
      "mediaĠ": 5971,
      ")ĠĠ": 5972,
      "çľĭåĪ°": 5973,
      "Rus": 5974,
      "Load": 5975,
      "article": 5976,
      "_{\\": 5977,
      "Fig.Ġ": 5978,
      "{}": 5979,
      "esĠinĠtheĠ": 5980,
      "pair": 5981,
      "Review": 5982,
      "heav": 5983,
      "å°Ħ": 5984,
      "äºĨ.": 5985,
      "Ċ#Ġ": 5986,
      "\\)Ġ": 5987,
      "Cop": 5988,
      "è§Ī": 5989,
      ",æĪĳä»¬": 5990,
      "could": 5991,
      "âĸ": 5992,
      "Tre": 5993,
      "X_": 5994,
      "æľŁéĹ´": 5995,
      "transl": 5996,
      ".ĠHowever,Ġ": 5997,
      "and,Ġ": 5998,
      "effectĠ": 5999,
      "turnĠ": 6000,
      "éĢĲ": 6001,
      "å»¶": 6002,
      "æĿ¥è¯´": 6003,
      "offer": 6004,
      "Wal": 6005,
      "bigĠ": 6006,
      "USĠ": 6007,
      "weĠhaveĠ": 6008,
      "charĠ": 6009,
      "(b": 6010,
      "Sk": 6011,
      "Dav": 6012,
      "çĶ²": 6013,
      ".ĠAl": 6014,
      "åħ³æ³¨": 6015,
      "weĠcanĠ": 6016,
      "ä¿ĿéĻ©": 6017,
      "phpĠ": 6018,
      "continueĠ": 6019,
      "buyĠ": 6020,
      "åĪ¶éĢł": 6021,
      "ness": 6022,
      "DAT": 6023,
      "çĹĩ": 6024,
      "halfĠ": 6025,
      "writtenĠ": 6026,
      "fric": 6027,
      "onsĠ": 6028,
      "Aug": 6029,
      "languageĠ": 6030,
      "where": 6031,
      "çĶļ": 6032,
      "ceed": 6033,
      "or,Ġ": 6034,
      "ç»§ç»Ń": 6035,
      "Rel": 6036,
      "y,ĠandĠ": 6037,
      "Apr": 6038,
      "ExceptionĠ": 6039,
      "ency": 6040,
      "()ĊĠĠĠĠĠĠĠĠ": 6041,
      "address": 6042,
      "ĠÑģ": 6043,
      "çĿ£": 6044,
      "push": 6045,
      "ä½ľåĵģ": 6046,
      "turalĠ": 6047,
      "anythingĠ": 6048,
      "aren": 6049,
      "equal": 6050,
      "åıªæľī": 6051,
      "))Ġ": 6052,
      "Status": 6053,
      "originalĠ": 6054,
      "haveĠĠ": 6055,
      "manu": 6056,
      "communityĠ": 6057,
      "endedĠ": 6058,
      "liter": 6059,
      "æ±ĩ": 6060,
      "day,Ġ": 6061,
      "interestĠ": 6062,
      "Direct": 6063,
      "\"\"\"": 6064,
      "s,": 6065,
      "æĿĤ": 6066,
      "My": 6067,
      "distribu": 6068,
      "matterĠ": 6069,
      "t;": 6070,
      "é¥°": 6071,
      "d.": 6072,
      "rix": 6073,
      "å°ģ": 6074,
      "transi": 6075,
      "å°¼": 6076,
      "sex": 6077,
      "dict": 6078,
      "pen": 6079,
      "éĩĳèŀį": 6080,
      "Work": 6081,
      "\"></": 6082,
      "lot": 6083,
      "çĨŁ": 6084,
      "itemĠ": 6085,
      "numer": 6086,
      "additionalĠ": 6087,
      "datab": 6088,
      "(R": 6089,
      "reach": 6090,
      "BA": 6091,
      "erĊ": 6092,
      "defaultĠ": 6093,
      "absol": 6094,
      "Check": 6095,
      "ĠÙ": 6096,
      "width:Ġ": 6097,
      "sus": 6098,
      "################": 6099,
      "time.Ġ": 6100,
      "ĠĠĠĠĠĠĠĠĠĠĠ": 6101,
      "ages": 6102,
      "åİŁåĽł": 6103,
      "align=\"": 6104,
      "ä¸ĵå®¶": 6105,
      "you'reĠ": 6106,
      "vĠ": 6107,
      "hadĠaĠ": 6108,
      "Ref": 6109,
      "Start": 6110,
      "ï¼Įæĺ¯": 6111,
      "Cam": 6112,
      "BE": 6113,
      "æ£ĢæŁ¥": 6114,
      "()ĊĠĠĠĠ": 6115,
      "accept": 6116,
      "ationĠisĠ": 6117,
      "å¦Ī": 6118,
      "construc": 6119,
      "é¡¶": 6120,
      "çĮ®": 6121,
      "OfĠ": 6122,
      "angĠ": 6123,
      "à¥į": 6124,
      "ç½ª": 6125,
      "fall": 6126,
      "çĽŁ": 6127,
      "Lev": 6128,
      "}Ċ}Ċ": 6129,
      "self-": 6130,
      "screen": 6131,
      "Util": 6132,
      "ses": 6133,
      "çĽĸ": 6134,
      ".ĠWhenĠ": 6135,
      "thirdĠ": 6136,
      "<aĠhref=\"": 6137,
      ");ĊĠĠĠĠĠĠ": 6138,
      "éĢłæĪĲ": 6139,
      "dueĠtoĠ": 6140,
      "izeĠ": 6141,
      "mid": 6142,
      "vehic": 6143,
      "I'veĠ": 6144,
      "gar": 6145,
      "ahĠ": 6146,
      "CON": 6147,
      "\"Ġy": 6148,
      "éĽ¨": 6149,
      ",å¯¹": 6150,
      "å¥¥": 6151,
      "their": 6152,
      "ĊĊĉ": 6153,
      "measure": 6154,
      "å¤ı": 6155,
      "ï¬ģ": 6156,
      "printĠ": 6157,
      "è¾ĳ": 6158,
      "å¯¼èĩ´": 6159,
      "far": 6160,
      "Create": 6161,
      "(P": 6162,
      "ricĠ": 6163,
      "clean": 6164,
      "blog": 6165,
      "just": 6166,
      "strateg": 6167,
      "WĠ": 6168,
      "analysisĠ": 6169,
      "æĮģç»Ń": 6170,
      "èįī": 6171,
      "wonder": 6172,
      "åıĤä¸İ": 6173,
      "sched": 6174,
      "col-": 6175,
      "road": 6176,
      "();ĊĠĠĠĠĠĠĠĠĠĠĠĠ": 6177,
      "Î±": 6178,
      "çĬ¯": 6179,
      "flex": 6180,
      "ride": 6181,
      "ãĢĤåľ¨": 6182,
      "AV": 6183,
      "éļıçĿĢ": 6184,
      "æĿ¥æºĲ": 6185,
      "ubĠ": 6186,
      "Ã§": 6187,
      "åģ¿": 6188,
      "æ¯ĶèµĽ": 6189,
      "adem": 6190,
      "themselv": 6191,
      "<-Ġ": 6192,
      "lis": 6193,
      "æĤ£èĢħ": 6194,
      "é¥®": 6195,
      "èģĺ": 6196,
      "åħ·ä½ĵ": 6197,
      "about": 6198,
      "Hou": 6199,
      "ä¸Ńåįİ": 6200,
      "çİ°ä»£": 6201,
      "musicĠ": 6202,
      "Stor": 6203,
      "å¹ħ": 6204,
      "ment,Ġ": 6205,
      "riskĠ": 6206,
      "in,Ġ": 6207,
      "publish": 6208,
      "åĸľæ¬¢": 6209,
      "Ġ.": 6210,
      "alt": 6211,
      "ç¤¼": 6212,
      "_r": 6213,
      "shif": 6214,
      "Ġà¤": 6215,
      "compar": 6216,
      "è¡£": 6217,
      "It'sĠ": 6218,
      "ditĠ": 6219,
      "aticĠ": 6220,
      ")ĊĠĠĠĠĠĠĠĠĠĠĠĠĠĠĠĠ": 6221,
      "è´´": 6222,
      "åĪ¸": 6223,
      "inĊ": 6224,
      "identĠ": 6225,
      ");ĊĊĠĠĠĠ": 6226,
      "çīĽ": 6227,
      ">(": 6228,
      "è¿ĲåĬ¨": 6229,
      "certain": 6230,
      "Wat": 6231,
      "verseĠ": 6232,
      "viol": 6233,
      "umpĠ": 6234,
      "ploy": 6235,
      "\":\"": 6236,
      "ationĠinĠ": 6237,
      "forĠyourĠ": 6238,
      "mas": 6239,
      "streng": 6240,
      ":ĊĠĠĠĠ": 6241,
      "aitĠ": 6242,
      "){": 6243,
      "Q:Ġ": 6244,
      "Europe": 6245,
      "alog": 6246,
      ");ĊĊĠĠĠĠĠĠĠĠ": 6247,
      "*)": 6248,
      "Bri": 6249,
      "Tu": 6250,
      "useĠofĠ": 6251,
      "can'tĠ": 6252,
      "yout": 6253,
      "ä¸ĭ,": 6254,
      "acqu": 6255,
      "install": 6256,
      ".ĊM": 6257,
      ".âĢĿĊ": 6258,
      "click": 6259,
      "lowerĠ": 6260,
      "åŁºéĩĳ": 6261,
      "maxim": 6262,
      "å½Ĵ": 6263,
      "////////////////": 6264,
      "conven": 6265,
      "ityĠtoĠ": 6266,
      "ingĠyourĠ": 6267,
      "WriteĠ": 6268,
      "è´·": 6269,
      "Back": 6270,
      "æī©": 6271,
      "weightĠ": 6272,
      "volum": 6273,
      "èĢģå¸Ī": 6274,
      "çļĦ.": 6275,
      "ä¸Ģæ¬¡": 6276,
      "tele": 6277,
      "vector": 6278,
      "assum": 6279,
      "ä½ĵç³»": 6280,
      "schem": 6281,
      "åı¶": 6282,
      "eg": 6283,
      "Regi": 6284,
      "patch": 6285,
      "saysĠ": 6286,
      "åĨł": 6287,
      "ili": 6288,
      "sound": 6289,
      "å»ºè®®": 6290,
      "variable": 6291,
      "Equal": 6292,
      "suff": 6293,
      "network": 6294,
      "éĿĻ": 6295,
      "ĠĠisĠĠ": 6296,
      "ĠĠaĠĠ": 6297,
      "à´": 6298,
      "ought": 6299,
      "bf": 6300,
      "ä¸ĢçĽ´": 6301,
      "\\u": 6302,
      "futureĠ": 6303,
      "AreĠ": 6304,
      "sĠandĠtheĠ": 6305,
      "hidd": 6306,
      "ç¨ĭåºı": 6307,
      "childĠ": 6308,
      "associatedĠ": 6309,
      "particularĠ": 6310,
      "resol": 6311,
      "eĠinĠ": 6312,
      "è¶ħè¿ĩ": 6313,
      "ä»ĸçļĦ": 6314,
      "'Ġ=>Ġ'": 6315,
      "ementsĠ": 6316,
      "Collection": 6317,
      "ä¹ĭä¸Ģ": 6318,
      "æİª": 6319,
      "xim": 6320,
      "individualĠ": 6321,
      "signedĠ": 6322,
      "bind": 6323,
      "theĠsameĠ": 6324,
      "risti": 6325,
      "(t": 6326,
      "sure": 6327,
      "jus": 6328,
      "mut": 6329,
      "Stre": 6330,
      "Ġk": 6331,
      "é£İéĻ©": 6332,
      "éģ¿": 6333,
      "ectorĠ": 6334,
      ",ĠG": 6335,
      "ä¸Ģæł·": 6336,
      "sterĠ": 6337,
      "s\"Ġ": 6338,
      "api": 6339,
      "thĠandĠ": 6340,
      "insur": 6341,
      "ather": 6342,
      "ustri": 6343,
      "è¯¯": 6344,
      "prote": 6345,
      "War": 6346,
      "fill": 6347,
      "reportĠ": 6348,
      "carri": 6349,
      "face": 6350,
      "åį±": 6351,
      "[]Ġ": 6352,
      "cast": 6353,
      "Â«": 6354,
      "#includeĠ<": 6355,
      "PS": 6356,
      "æ¶ī": 6357,
      "i++": 6358,
      "is_": 6359,
      "onesĠ": 6360,
      "lean": 6361,
      "çļĦå¤§": 6362,
      "å¤ľ": 6363,
      "æ¶¦": 6364,
      "d_": 6365,
      "çİ°åľº": 6366,
      "ç¯ĩ": 6367,
      "ent,Ġ": 6368,
      "(M": 6369,
      "Page": 6370,
      "{{": 6371,
      "contactĠ": 6372,
      "åĤ¨": 6373,
      "å¤®": 6374,
      "èį£": 6375,
      "akingĠ": 6376,
      "perfectĠ": 6377,
      "DA": 6378,
      "çļĦ\"": 6379,
      "è¯¦": 6380,
      "'Ċ": 6381,
      "cup": 6382,
      "Stud": 6383,
      "ofĠthisĠ": 6384,
      "timeĠtoĠ": 6385,
      "ensureĠ": 6386,
      "uponĠ": 6387,
      "make": 6388,
      "doesn'tĠ": 6389,
      "AfterĠ": 6390,
      "ä¸»ä¹ī": 6391,
      "m.": 6392,
      "globalĠ": 6393,
      "plug": 6394,
      "íķ": 6395,
      "past": 6396,
      "multipleĠ": 6397,
      "enh": 6398,
      "éĤ®": 6399,
      "WhyĠ": 6400,
      "è¡ĮæĶ¿": 6401,
      "FigureĠ": 6402,
      "ä¹İ": 6403,
      "ee": 6404,
      "________": 6405,
      "brid": 6406,
      "tell": 6407,
      "NationalĠ": 6408,
      "\")Ġ": 6409,
      "ablyĠ": 6410,
      "pas": 6411,
      "å¾ĹåĪ°": 6412,
      "set_": 6413,
      "financialĠ": 6414,
      "Fact": 6415,
      "çĶ°": 6416,
      "usingĠtheĠ": 6417,
      "iqu": 6418,
      "ifi": 6419,
      "itchĠ": 6420,
      "reci": 6421,
      ",Ġ$": 6422,
      "è£ģ": 6423,
      "IdĠ": 6424,
      "leanĠ": 6425,
      "igĠ": 6426,
      "boxĠ": 6427,
      "denĠ": 6428,
      "äººæīį": 6429,
      "aneĠ": 6430,
      "æ¤į": 6431,
      "sĠĠofĠĠ": 6432,
      "çĪ¶": 6433,
      "ä¿Ŀéļľ": 6434,
      "seg": 6435,
      "bri": 6436,
      "ane": 6437,
      "effor": 6438,
      "country": 6439,
      "Oper": 6440,
      "esĠonĠ": 6441,
      "acyĠ": 6442,
      "',ĊĠĠĠĠ": 6443,
      "Ġ-": 6444,
      "aroundĠtheĠ": 6445,
      "messageĠ": 6446,
      "åħ³éĶ®": 6447,
      "Row": 6448,
      "convers": 6449,
      "è´¸": 6450,
      "productsĠ": 6451,
      "filmĠ": 6452,
      "completeĠ": 6453,
      "whereĠtheĠ": 6454,
      "assign": 6455,
      "çĸĳ": 6456,
      "æ¦Ĥ": 6457,
      "managementĠ": 6458,
      "laterĠ": 6459,
      "atedĠtoĠ": 6460,
      "hadĠbeenĠ": 6461,
      "suggest": 6462,
      "ClassĠ": 6463,
      "approachĠ": 6464,
      "hot": 6465,
      "æľ¬éĻ¢": 6466,
      "Property": 6467,
      "éľ²": 6468,
      "<!": 6469,
      ",ĊĠĠĠĠĠĠĠĠĠĠĠĠĠĠĠĠ": 6470,
      "æĶ»": 6471,
      "http://www.": 6472,
      "æĲľ": 6473,
      "ani": 6474,
      "æĳĦ": 6475,
      "styleĠ": 6476,
      "thisĠĠ": 6477,
      "æĸĩç«ł": 6478,
      "wind": 6479,
      "èµĦæĸĻ": 6480,
      "è¡¨çİ°": 6481,
      "hab": 6482,
      "čĊĠĠĠĠĠĠ": 6483,
      "}ĠfromĠ'": 6484,
      "shar": 6485,
      "ANDĠ": 6486,
      "mechan": 6487,
      "åĵĪ": 6488,
      "previousĠ": 6489,
      "æķ£": 6490,
      "reasonĠ": 6491,
      ").ĠTheĠ": 6492,
      "'sĠĠ": 6493,
      "titleĠ": 6494,
      "ations": 6495,
      "ais": 6496,
      "OF": 6497,
      "f.": 6498,
      "companiesĠ": 6499,
      "ies,Ġ": 6500,
      "å·Ŀ": 6501,
      "dependentĠ": 6502,
      "whiteĠ": 6503,
      "èģĮä¸ļ": 6504,
      "intoĠaĠ": 6505,
      "frame": 6506,
      "toĊ": 6507,
      "å±ĭ": 6508,
      "wel": 6509,
      "merĠ": 6510,
      "alb": 6511,
      "currentlyĠ": 6512,
      "would": 6513,
      "Order": 6514,
      "enjoy": 6515,
      "com/": 6516,
      "thĠofĠ": 6517,
      "vent": 6518,
      "ä»Ĭå¤©": 6519,
      "Sci": 6520,
      "should": 6521,
      "æĪĲæľ¬": 6522,
      "alp": 6523,
      "mindĠ": 6524,
      "quar": 6525,
      "åĴ¨": 6526,
      "åħ±åĲĮ": 6527,
      "cellĠ": 6528,
      "immedi": 6529,
      "olo": 6530,
      "deal": 6531,
      "inĠandĠ": 6532,
      "ationĊ": 6533,
      "othersĠ": 6534,
      "ham": 6535,
      "ĠmillionĠ": 6536,
      "oriesĠ": 6537,
      "æĹłæ³ķ": 6538,
      ")čĊ": 6539,
      "name,Ġ": 6540,
      "argetĠ": 6541,
      "Count": 6542,
      "assist": 6543,
      "cd": 6544,
      "property": 6545,
      "wher": 6546,
      "eq": 6547,
      "tradition": 6548,
      "éĩĬ": 6549,
      "nu": 6550,
      "mou": 6551,
      "tip": 6552,
      "atel": 6553,
      "ca": 6554,
      "brow": 6555,
      "render": 6556,
      "ensĠ": 6557,
      "sesĠ": 6558,
      "æ´¾": 6559,
      "åĢº": 6560,
      "æ¯Ľ": 6561,
      "princip": 6562,
      "MayĠ": 6563,
      "AnĠ": 6564,
      "Goog": 6565,
      "WorldĠ": 6566,
      "nearĠ": 6567,
      "demon": 6568,
      "å¸Ń": 6569,
      ",è®©": 6570,
      "John": 6571,
      "eĠĠofĠĠ": 6572,
      "while": 6573,
      "kenĠ": 6574,
      "åĨ³å®ļ": 6575,
      "Her": 6576,
      "ï¼İ": 6577,
      "è§ĦåĪĴ": 6578,
      "research": 6579,
      "è®¼": 6580,
      "bandĠ": 6581,
      "èª": 6582,
      "':Ġ": 6583,
      "Ġ=ĠnewĠ": 6584,
      "understandĠ": 6585,
      "pu": 6586,
      "(B": 6587,
      "console.": 6588,
      "duceĠ": 6589,
      "ä½įç½®": 6590,
      "restĠ": 6591,
      "phas": 6592,
      ",å°±": 6593,
      ");čĊ": 6594,
      "lip": 6595,
      "behindĠ": 6596,
      "èĤī": 6597,
      ".ĊInĠ": 6598,
      "åķĨåĵģ": 6599,
      "necessaryĠ": 6600,
      "\\[": 6601,
      "čĊĠĠĠĠĠĠĠĠĠĠĠĠĠĠĠĠĠĠĠĠ": 6602,
      "URL": 6603,
      "eĠisĠ": 6604,
      "ĠĠĠĠĠĠĠĠĠĠĠĠĠ": 6605,
      "æ¢¦": 6606,
      "Attribut": 6607,
      "sun": 6608,
      "appli": 6609,
      "oudĠ": 6610,
      "performanceĠ": 6611,
      "ä¸Ģç§į": 6612,
      "æ¢°": 6613,
      "company": 6614,
      "ä¸Ŀ": 6615,
      ",ĠN": 6616,
      "æħ¢": 6617,
      "åĮ»çĸĹ": 6618,
      "Descri": 6619,
      "Sw": 6620,
      "åłĤ": 6621,
      "äººä»¬": 6622,
      "è®¨": 6623,
      "framew": 6624,
      "likeĠtheĠ": 6625,
      "éĻĨ": 6626,
      "data-": 6627,
      "learningĠ": 6628,
      "Pres": 6629,
      "{\"": 6630,
      "orĠtheĠ": 6631,
      "åĴ¨è¯¢": 6632,
      "module": 6633,
      "swe": 6634,
      "DEBU": 6635,
      "coll": 6636,
      "Mus": 6637,
      "solutionĠ": 6638,
      "èĻĳ": 6639,
      "æĹ¶ä»£": 6640,
      "ute": 6641,
      "Cr": 6642,
      "insteadĠ": 6643,
      ",ä»İ": 6644,
      "entireĠ": 6645,
      "Down": 6646,
      "appropri": 6647,
      "è¯īè®¼": 6648,
      "standardĠ": 6649,
      "ä¿ĿæĮģ": 6650,
      "startedĠ": 6651,
      "toĠdoĠ": 6652,
      "chooseĠ": 6653,
      "nic": 6654,
      "f,Ġ": 6655,
      "midd": 6656,
      "Link": 6657,
      "effectiveĠ": 6658,
      "âĶĢ": 6659,
      "Child": 6660,
      "cand": 6661,
      "ItâĢĻsĠ": 6662,
      "how": 6663,
      "wideĠ": 6664,
      "enable": 6665,
      "forwardĠ": 6666,
      "Ð½Ð¸": 6667,
      "ĠyearsĠ": 6668,
      "channel": 6669,
      "End": 6670,
      "Ð¹": 6671,
      "æĽ´åĬł": 6672,
      "ferenceĠ": 6673,
      "predic": 6674,
      "handĠ": 6675,
      "æķĳ": 6676,
      "appoint": 6677,
      "ez": 6678,
      "meetĠ": 6679,
      "False": 6680,
      "áŀ": 6681,
      "token": 6682,
      "createdĠ": 6683,
      "uniqueĠ": 6684,
      "Febr": 6685,
      "liĠ": 6686,
      "practi": 6687,
      "plot": 6688,
      "ç«¥": 6689,
      "aĠsm": 6690,
      "aĠlotĠofĠ": 6691,
      "à¥įà¤": 6692,
      "prob": 6693,
      "è¾Ĩ": 6694,
      "IB": 6695,
      "asticĠ": 6696,
      "s'Ġ": 6697,
      "ushĠ": 6698,
      "neigh": 6699,
      "comment>username_": 6700,
      "histor": 6701,
      "priceĠ": 6702,
      "}Ċ\\": 6703,
      "itiz": 6704,
      "moun": 6705,
      "bitĠ": 6706,
      "ç¨³å®ļ": 6707,
      "åĪĳ": 6708,
      "periodĠ": 6709,
      "req": 6710,
      "çļĦäºĭ": 6711,
      "esĠwithĠ": 6712,
      "season": 6713,
      "ç©¿": 6714,
      "æĺ¯åľ¨": 6715,
      "atoryĠ": 6716,
      "Exam": 6717,
      "seasonĠ": 6718,
      "FFF,": 6719,
      "visit": 6720,
      "ation.Ċ": 6721,
      "åºĬ": 6722,
      "ember": 6723,
      "ä¼ĳ": 6724,
      "Enti": 6725,
      "IDĠ": 6726,
      "æĶ¯ä»ĺ": 6727,
      "Question": 6728,
      "atherĠ": 6729,
      "æ¶¨": 6730,
      "ç¡¬": 6731,
      "respec": 6732,
      "uceĠ": 6733,
      "æĶ¹éĿ©": 6734,
      "wall": 6735,
      "floatĠ": 6736,
      "alg": 6737,
      "specific": 6738,
      "TypeĠ": 6739,
      "?>": 6740,
      "æĿ¥ï¼Į": 6741,
      "byte": 6742,
      "ERR": 6743,
      "clin": 6744,
      "Vector": 6745,
      "outputĠ": 6746,
      "äºİĠ": 6747,
      "sĠisĠ": 6748,
      "()Ġ{ĊĠĠĠĠĠĠĠĠ": 6749,
      "everyoneĠ": 6750,
      "None": 6751,
      "è·Ŀ": 6752,
      "æĢ§çļĦ": 6753,
      "ode": 6754,
      "include": 6755,
      "Ñħ": 6756,
      "///Ġ<": 6757,
      "ç»ıè¿ĩ": 6758,
      "altern": 6759,
      "ME": 6760,
      "___": 6761,
      "è¶£": 6762,
      "æĥł": 6763,
      "Call": 6764,
      "CS": 6765,
      "èįĲ": 6766,
      "adaĠ": 6767,
      "simpleĠ": 6768,
      "ÑĢÐµ": 6769,
      "âĢĿï¼Į": 6770,
      "theyĠwereĠ": 6771,
      "YouĠcanĠ": 6772,
      "åıĸå¾Ĺ": 6773,
      "earch": 6774,
      "rosof": 6775,
      "$(": 6776,
      "film": 6777,
      "å®¹æĺĵ": 6778,
      "structureĠ": 6779,
      "micro": 6780,
      "æĸĹ": 6781,
      "agnos": 6782,
      ".x": 6783,
      "focusĠ": 6784,
      "ing_": 6785,
      "âĢĿçļĦ": 6786,
      "loodĠ": 6787,
      "likeĠtoĠ": 6788,
      "çº¸": 6789,
      "å®īè£ħ": 6790,
      "href=\"": 6791,
      "ql": 6792,
      "age.Ġ": 6793,
      "Ke": 6794,
      "circ": 6795,
      "å®ľ": 6796,
      "Ġ&Ġ": 6797,
      "Y_": 6798,
      "imgĠ": 6799,
      "DEBUG": 6800,
      "feed": 6801,
      "player": 6802,
      "æĤ¨çļĦ": 6803,
      "dynam": 6804,
      "èģĶç½ĳ": 6805,
      "water": 6806,
      "Mis": 6807,
      "dt": 6808,
      "strict": 6809,
      "ations.Ġ": 6810,
      "äºº,": 6811,
      ";čĊĠĠĠĠ": 6812,
      "stayĠ": 6813,
      "è¿ĻéĩĮ": 6814,
      "offersĠ": 6815,
      "ĊĠĠĠĠĠĠĠĠĠĠĠĠĠĠĠĠ<": 6816,
      "foot": 6817,
      "åıĺåĮĸ": 6818,
      "le-": 6819,
      ")ĊĠĠĠĠĠĠĠĠ{ĊĠĠĠĠĠĠĠĠĠĠĠĠ": 6820,
      "Sim": 6821,
      "</span>": 6822,
      "exerc": 6823,
      "ä¼ĺåĬ¿": 6824,
      "asc": 6825,
      "èĦ±": 6826,
      "æ¡£": 6827,
      "çĶļèĩ³": 6828,
      "åıĬæĹ¶": 6829,
      "runningĠ": 6830,
      "åĬª": 6831,
      "Dur": 6832,
      "namespaceĠ": 6833,
      "è®¸å¤ļ": 6834,
      "Christi": 6835,
      "Column": 6836,
      "away": 6837,
      "correc": 6838,
      "æŃ£åľ¨": 6839,
      "y(": 6840,
      "echĠ": 6841,
      "->get": 6842,
      "],": 6843,
      "ThereĠareĠ": 6844,
      "ingleĠ": 6845,
      ".ĊThisĠ": 6846,
      ";ĊĊimportĠ": 6847,
      "pleas": 6848,
      "æĿ¨": 6849,
      "é²ľ": 6850,
      "ĠĠĠĠĠĠĠĠĠĠĠĠĠĠ": 6851,
      "äº¤æµģ": 6852,
      "filen": 6853,
      "edi": 6854,
      "patientsĠ": 6855,
      "sourc": 6856,
      "Ir": 6857,
      "Curr": 6858,
      "âĢ¦âĢ¦": 6859,
      "ä¸»é¢ĺ": 6860,
      "*/Ċ": 6861,
      "sentĠ": 6862,
      "ATION": 6863,
      "band": 6864,
      "insĠ": 6865,
      "websit": 6866,
      "cannotĠ": 6867,
      "rou": 6868,
      ",ĠheĠ": 6869,
      "çĶµå½±": 6870,
      "è§Ħæ¨¡": 6871,
      "rowĠ": 6872,
      "sych": 6873,
      "Â°": 6874,
      "locatedĠ": 6875,
      "æĢĿæĥ³": 6876,
      "orĠtoĠ": 6877,
      "value=\"": 6878,
      "æľĿ": 6879,
      ":ĊĊ": 6880,
      "Ġper": 6881,
      "catchĠ": 6882,
      "alĠofĠ": 6883,
      "èĢĥè¯ķ": 6884,
      "çĸ¾": 6885,
      "\">Ċ": 6886,
      "tes": 6887,
      "forceĠ": 6888,
      "erĠforĠ": 6889,
      "ose": 6890,
      "medicalĠ": 6891,
      "asĠanĠ": 6892,
      "Found": 6893,
      "advant": 6894,
      "explain": 6895,
      "DU": 6896,
      "food": 6897,
      "èĢĲ": 6898,
      "sig": 6899,
      "/b": 6900,
      "inĠmyĠ": 6901,
      "deliver": 6902,
      "è¯Ħè®º": 6903,
      "blackĠ": 6904,
      "begin{": 6905,
      "examin": 6906,
      "actionsĠ": 6907,
      "marri": 6908,
      ",ĠK": 6909,
      "historyĠ": 6910,
      "ffĠ": 6911,
      "Que": 6912,
      "_L": 6913,
      "åľ¨çº¿": 6914,
      "modi": 6915,
      "edĠoutĠ": 6916,
      "frac{": 6917,
      "è¸": 6918,
      "suit": 6919,
      "è¯ļ": 6920,
      "master": 6921,
      "enjo": 6922,
      "å½¢å¼ı": 6923,
      "layer": 6924,
      "accur": 6925,
      "parse": 6926,
      "cele": 6927,
      "aĠlittleĠ": 6928,
      "adap": 6929,
      "sort": 6930,
      ">Ġ<": 6931,
      "çº·": 6932,
      "factur": 6933,
      "engag": 6934,
      ")Ġ{ĊĠĠĠĠĠĠĠĠĠĠĠĠĠĠĠĠ": 6935,
      "Http": 6936,
      "password": 6937,
      "OG": 6938,
      ";čĊĉ": 6939,
      "åķĬ": 6940,
      "Default": 6941,
      "Ġ=Ġ\"": 6942,
      "(T": 6943,
      "menu": 6944,
      "çģ¯": 6945,
      "inaĠ": 6946,
      "Jam": 6947,
      "anaĠ": 6948,
      "ç®Ģåįķ": 6949,
      "å²Ľ": 6950,
      "causeĠ": 6951,
      "template": 6952,
      "publicĠfunctionĠ": 6953,
      "Title:Ġ": 6954,
      "ĊH": 6955,
      "âĨ": 6956,
      "clim": 6957,
      "fit": 6958,
      "SeptemberĠ": 6959,
      "end{": 6960,
      "ugg": 6961,
      "PRO": 6962,
      "instit": 6963,
      "ing.Ġ": 6964,
      "orith": 6965,
      "areasĠ": 6966,
      "çİī": 6967,
      "Ãª": 6968,
      "è·µ": 6969,
      "Initializ": 6970,
      "nationalĠ": 6971,
      "ograph": 6972,
      "\",ĊĠĠĠĠĠĠĠĠ": 6973,
      "é¡µĠ": 6974,
      "Sha": 6975,
      "inkĠ": 6976,
      "ker": 6977,
      "(-": 6978,
      ",ä»ĸ": 6979,
      "becameĠ": 6980,
      "explor": 6981,
      "quot": 6982,
      "isĊ": 6983,
      "ç±»åŀĭ": 6984,
      "DR": 6985,
      "agoĠ": 6986,
      "s\"": 6987,
      "é¹": 6988,
      "someĠofĠtheĠ": 6989,
      "):ĊĠĠĠĠ": 6990,
      "talkĠ": 6991,
      "pul": 6992,
      "uti": 6993,
      "possible": 6994,
      "negativeĠ": 6995,
      ")Ġ{Ċĉĉ": 6996,
      "contribut": 6997,
      "leaveĠ": 6998,
      "ï¼Įæľī": 6999,
      "pain": 7000,
      "s.ĊTheĠ": 7001,
      "é±": 7002,
      "unchĠ": 7003,
      "forĠthisĠ": 7004,
      "Ear": 7005,
      "è¯´æĺİ": 7006,
      "plant": 7007,
      "åķĨä¸ļ": 7008,
      "åħ¶å®ŀ": 7009,
      "çĦ¶åĲİ": 7010,
      "bul": 7011,
      "Commun": 7012,
      "competi": 7013,
      "ç«ŀäºī": 7014,
      "k,Ġ": 7015,
      "opt": 7016,
      "èĭ¦": 7017,
      "cred": 7018,
      "Austr": 7019,
      "rt": 7020,
      "legalĠ": 7021,
      "Afric": 7022,
      "becaus": 7023,
      "å®£ä¼ł": 7024,
      "demonstr": 7025,
      "()Ċ": 7026,
      "funĠ": 7027,
      "youĠwillĠ": 7028,
      "stain": 7029,
      ".(": 7030,
      "cm": 7031,
      "nom": 7032,
      "util.": 7033,
      "comparedĠ": 7034,
      "bottom": 7035,
      "TION": 7036,
      "colorĠ": 7037,
      "ed-": 7038,
      "ĠandĠtheĠ": 7039,
      "amountĠofĠ": 7040,
      "accessĠ": 7041,
      "Base": 7042,
      "common": 7043,
      "Detail": 7044,
      "useĠtheĠ": 7045,
      ",è¯·": 7046,
      "ationĠtoĠ": 7047,
      "æĹ¥æľ¬": 7048,
      "M_": 7049,
      "purchas": 7050,
      "<issue_comment>username_": 7051,
      "ave": 7052,
      "v_": 7053,
      "æ··": 7054,
      "Isl": 7055,
      "æĪĲç«ĭ": 7056,
      ".D": 7057,
      "controll": 7058,
      "ingĠisĠ": 7059,
      "{ĊĠĠĠĠĠĠĠĠĠĠĠĠĠĠĠĠĠĠĠĠ": 7060,
      "Query": 7061,
      "è§Ĩé¢ĳ": 7062,
      "four": 7063,
      "Click": 7064,
      "æ¡¥": 7065,
      "resh": 7066,
      "fra": 7067,
      "choic": 7068,
      "stopĠ": 7069,
      "partyĠ": 7070,
      "Engin": 7071,
      "repe": 7072,
      "CR": 7073,
      "pick": 7074,
      "Sam": 7075,
      "OctoberĠ": 7076,
      "width=\"": 7077,
      "e.g": 7078,
      "Pow": 7079,
      "æīįèĥ½": 7080,
      "æ¾": 7081,
      "EvenĠ": 7082,
      "Hist": 7083,
      "è§¦": 7084,
      "Har": 7085,
      "publicĠclassĠ": 7086,
      "åĮºåŁŁ": 7087,
      "å½ĵåīį": 7088,
      "é±¼": 7089,
      "articleĠ": 7090,
      "å·¨": 7091,
      "Game": 7092,
      "decl": 7093,
      "however,Ġ": 7094,
      "æĿŁ": 7095,
      "æĬĵ": 7096,
      "çĬ¶æĢģ": 7097,
      "Control": 7098,
      "allĠĠ": 7099,
      "configur": 7100,
      "ancedĠ": 7101,
      "wasĠĠ": 7102,
      "éĺ¶æ®µ": 7103,
      "æľªæĿ¥": 7104,
      "PH": 7105,
      "sixĠ": 7106,
      "encour": 7107,
      "</p>": 7108,
      "subjectĠ": 7109,
      "pict": 7110,
      "May": 7111,
      "æĪĳä»¬çļĦ": 7112,
      "è¯Ĭ": 7113,
      "countryĠ": 7114,
      "ysĠ": 7115,
      "é£Łåĵģ": 7116,
      "(L": 7117,
      "å®¶åºŃ": 7118,
      "è°ĥæķ´": 7119,
      "nit": 7120,
      "ISĠ": 7121,
      "nothingĠ": 7122,
      "plusĠ": 7123,
      "beautifulĠ": 7124,
      "administr": 7125,
      "æĺ¯ä¸Ģä¸ª": 7126,
      "åĬªåĬĽ": 7127,
      "believ": 7128,
      "Depart": 7129,
      "goog": 7130,
      "å¹´,": 7131,
      "æĹ¥ï¼Į": 7132,
      "ç¡®å®ļ": 7133,
      "---": 7134,
      "sawĠ": 7135,
      "cityĠ": 7136,
      "isticĠ": 7137,
      "Command": 7138,
      "çĹĽ": 7139,
      "access": 7140,
      "Activ": 7141,
      "Vol": 7142,
      "that'sĠ": 7143,
      "treatmentĠ": 7144,
      "éĽª": 7145,
      ".ĠThatĠ": 7146,
      "æĶ¶åħ¥": 7147,
      "C_": 7148,
      "anyoneĠ": 7149,
      "inĠtheirĠ": 7150,
      "solution": 7151,
      "concep": 7152,
      "</h": 7153,
      "á»": 7154,
      "TranslateĠ": 7155,
      "STR": 7156,
      "argument": 7157,
      "</p": 7158,
      "IZ": 7159,
      "æĹ¢": 7160,
      "websiteĠ": 7161,
      "uckĠ": 7162,
      "çĥŁ": 7163,
      "belowĠ": 7164,
      "naĠ": 7165,
      "bon": 7166,
      "exact": 7167,
      ",ĠF": 7168,
      "ReadĠ": 7169,
      "IĠcanĠ": 7170,
      "difficultĠ": 7171,
      "ier": 7172,
      "åĬ±": 7173,
      "servicesĠ": 7174,
      "JanuaryĠ": 7175,
      "approach": 7176,
      "bud": 7177,
      "expos": 7178,
      "announc": 7179,
      "åĿļæĮģ": 7180,
      "location": 7181,
      "ä»»åĬ¡": 7182,
      "politicalĠ": 7183,
      "mention": 7184,
      "form-": 7185,
      ");ĊĠĠĠĠ}ĊĊĠĠĠĠ": 7186,
      "Anim": 7187,
      "å§Ķåĳĺ": 7188,
      "æ±ł": 7189,
      "aĠgoodĠ": 7190,
      "æĿĢ": 7191,
      "IĠhadĠ": 7192,
      "even": 7193,
      "console.log": 7194,
      "čĊĉĉĉĉĉ": 7195,
      "ĠÐ¸": 7196,
      "âģĩĠĠ": 7197,
      "dĠĠ": 7198,
      "FrenchĠ": 7199,
      "();Ċ": 7200,
      "æİ¥åıĹ": 7201,
      "looksĠ": 7202,
      "Task": 7203,
      "baseĠ": 7204,
      "reve": 7205,
      "realiz": 7206,
      "çŁ¿": 7207,
      "åħħåĪĨ": 7208,
      "upĠtheĠ": 7209,
      "earchĠ": 7210,
      ".M": 7211,
      "æİ¨è¿Ľ": 7212,
      "',ĊĠĠĠĠĠĠĠĠ": 7213,
      "<<": 7214,
      "networkĠ": 7215,
      "decision": 7216,
      "requireĠ": 7217,
      "ä¼°": 7218,
      "ĠR": 7219,
      "åĲī": 7220,
      "West": 7221,
      "Pat": 7222,
      "(newĠ": 7223,
      "capac": 7224,
      "Lif": 7225,
      "èĤ¡ä»½": 7226,
      "ç¼©": 7227,
      "SouthĠ": 7228,
      "hr": 7229,
      "camer": 7230,
      "Presid": 7231,
      "</a></": 7232,
      "attem": 7233,
      "åĨľä¸ļ": 7234,
      "tt": 7235,
      "Willi": 7236,
      "ago": 7237,
      "åı«": 7238,
      "èµĦäº§": 7239,
      "ĊĠ*": 7240,
      "å¡ĳ": 7241,
      "Instance": 7242,
      "åĪĨåĪ«": 7243,
      "yrightĠ": 7244,
      "fem": 7245,
      "ate,Ġ": 7246,
      "æī¿æĭħ": 7247,
      "å²Ĺ": 7248,
      "Valid": 7249,
      "shad": 7250,
      "TER": 7251,
      "æİ¨èįĲ": 7252,
      "ĠâĢĵĠ": 7253,
      "tmp": 7254,
      "isĠalsoĠ": 7255,
      "areĠnotĠ": 7256,
      "ä»£çĲĨ": 7257,
      "es.ĠTheĠ": 7258,
      "logg": 7259,
      "best": 7260,
      "frontĠ": 7261,
      "todayĠ": 7262,
      "æĸ½å·¥": 7263,
      "Gl": 7264,
      ";ĊusingĠSystem.": 7265,
      "employe": 7266,
      "åĿĲ": 7267,
      "(A": 7268,
      "earli": 7269,
      "ĠN": 7270,
      "onĠyourĠ": 7271,
      "å°ıæĹ¶": 7272,
      "higherĠ": 7273,
      "ologi": 7274,
      "storeĠ": 7275,
      "mode": 7276,
      "pload": 7277,
      "dail": 7278,
      "Mor": 7279,
      "ij": 7280,
      "ä½ĵèĤ²": 7281,
      "è¿Ĳè¡Į": 7282,
      "_type": 7283,
      "recordĠ": 7284,
      "éĽ·": 7285,
      "buildingĠ": 7286,
      ".ĠIn": 7287,
      "elin": 7288,
      "out.": 7289,
      ")Ġ+Ġ": 7290,
      "Stream": 7291,
      "Exp": 7292,
      "girl": 7293,
      "è´¹çĶ¨": 7294,
      "subst": 7295,
      "printf": 7296,
      "rati": 7297,
      "enderĠ": 7298,
      "âģĩĠĠĠâģĩĠĠĠ": 7299,
      "one.Ġ": 7300,
      "dl": 7301,
      "physicalĠ": 7302,
      "Top": 7303,
      "æķ°åŃĹ": 7304,
      "ä¸Ĭï¼Į": 7305,
      "ĠtheĠ": 7306,
      "Token": 7307,
      "åİļ": 7308,
      "tionĠandĠ": 7309,
      "seemĠ": 7310,
      "ioĠ": 7311,
      "s.ĠThisĠ": 7312,
      ";ĠiĠ": 7313,
      "visitĠ": 7314,
      "Format": 7315,
      "Build": 7316,
      "relev": 7317,
      "Russi": 7318,
      "ed(": 7319,
      "termin": 7320,
      "className": 7321,
      "ure,Ġ": 7322,
      "çļĦéĹ®é¢ĺ": 7323,
      "æ´ĭ": 7324,
      "instance": 7325,
      "è®¾ç½®": 7326,
      "inglyĠ": 7327,
      "clo": 7328,
      "ical": 7329,
      "ç¦ģ": 7330,
      "æ£Ģæµĭ": 7331,
      "CB": 7332,
      "SQ": 7333,
      "grid": 7334,
      "çļĦåıĳå±ķ": 7335,
      "Ġ==Ġ": 7336,
      "çªĹ": 7337,
      "';ĊimportĠ": 7338,
      "dansĠ": 7339,
      "osph": 7340,
      "diff": 7341,
      "correspond": 7342,
      "delete": 7343,
      "formerĠ": 7344,
      "thatĠtheyĠ": 7345,
      "sĠasĠ": 7346,
      "cutĠ": 7347,
      "æı¡": 7348,
      "GetĠ": 7349,
      "äºĨï¼Į": 7350,
      "ç´¯": 7351,
      "åĪĨéĴŁ": 7352,
      "pingĠ": 7353,
      "Connec": 7354,
      "etch": 7355,
      "NovemberĠ": 7356,
      "å®Įåħ¨": 7357,
      "Accord": 7358,
      "esh": 7359,
      "forĠ(": 7360,
      "flowĠ": 7361,
      "\",ĊĠĠĠĠ\"": 7362,
      "umer": 7363,
      "jobĠ": 7364,
      "åĽ¢éĺŁ": 7365,
      "setting": 7366,
      "place": 7367,
      "hous": 7368,
      "Sta": 7369,
      "deb": 7370,
      "ä¿ĥè¿Ľ": 7371,
      "x,Ġ": 7372,
      "nil": 7373,
      "æ´ģ": 7374,
      "IĠwouldĠ": 7375,
      "åħ¨éĥ¨": 7376,
      "aiĠ": 7377,
      "ing,ĠandĠ": 7378,
      "Update": 7379,
      "åĳĺå·¥": 7380,
      "softwareĠ": 7381,
      "achiev": 7382,
      "typeĠofĠ": 7383,
      "gaveĠ": 7384,
      "OK": 7385,
      "withĠanĠ": 7386,
      ".ĊB": 7387,
      "NOTĠ": 7388,
      "ä½Ľ": 7389,
      "æľºæ¢°": 7390,
      "active": 7391,
      "DecemberĠ": 7392,
      "Lang": 7393,
      ".jpg": 7394,
      "worthĠ": 7395,
      "directlyĠ": 7396,
      "ä¼´": 7397,
      "Part": 7398,
      "èĶ": 7399,
      "è¿Ķ": 7400,
      "atom": 7401,
      "tĠtoĠ": 7402,
      "abov": 7403,
      "riter": 7404,
      "emerg": 7405,
      "ç§ģ": 7406,
      "Contain": 7407,
      "urchĠ": 7408,
      "ä¸°å¯Į": 7409,
      "åĬŀåħ¬": 7410,
      "android.": 7411,
      "Fre": 7412,
      "correct": 7413,
      "ancesĠ": 7414,
      ",åı¯": 7415,
      "sql": 7416,
      "NorthĠ": 7417,
      "ingĠthisĠ": 7418,
      "didnâĢĻtĠ": 7419,
      "backĠtoĠ": 7420,
      ".ĠInĠtheĠ": 7421,
      "æİ¨åĬ¨": 7422,
      "èĥ¶": 7423,
      "#includeĠ\"": 7424,
      "bey": 7425,
      "SheĠ": 7426,
      "JSON": 7427,
      "tdĠalign=\"": 7428,
      "DN": 7429,
      "x.": 7430,
      "song": 7431,
      "æ¶Īæģ¯": 7432,
      "Vir": 7433,
      "takesĠ": 7434,
      "çĶŁæĢģ": 7435,
      "å¹ķ": 7436,
      "Ð¾Ð»": 7437,
      "DF": 7438,
      "æĢĢ": 7439,
      "internationalĠ": 7440,
      "Exec": 7441,
      "_B": 7442,
      "å¹¸": 7443,
      "AtĠ": 7444,
      "æĢ§èĥ½": 7445,
      "Open": 7446,
      "static": 7447,
      "éĢļçŁ¥": 7448,
      "Line": 7449,
      "f-": 7450,
      "Port": 7451,
      "ÙĨ": 7452,
      "interestingĠ": 7453,
      "èĤ¤": 7454,
      "å³°": 7455,
      "DS": 7456,
      "éĹŃ": 7457,
      ":ĉ": 7458,
      "çĤİ": 7459,
      "urs": 7460,
      "andĠĊ": 7461,
      "errĠ": 7462,
      "å®½": 7463,
      "ternĠ": 7464,
      "inĠwhichĠ": 7465,
      "construct": 7466,
      "æĶ¿æ²»": 7467,
      "opin": 7468,
      "onyĠ": 7469,
      "receiveĠ": 7470,
      ">ĊĠĠĠĠ": 7471,
      "role": 7472,
      "right\">": 7473,
      "çĲĨè®º": 7474,
      "è¯Ĺ": 7475,
      "Manager": 7476,
      "è¯¾ç¨ĭ": 7477,
      "arryĠ": 7478,
      "JuneĠ": 7479,
      "æ¸Ĳ": 7480,
      "ingĠofĠtheĠ": 7481,
      "pĠ=Ġ": 7482,
      "è´Ńä¹°": 7483,
      "Tri": 7484,
      "idayĠ": 7485,
      "èµ·æĿ¥": 7486,
      "thread": 7487,
      "ï¼ļâĢľ": 7488,
      "concentr": 7489,
      "æł¸å¿ĥ": 7490,
      "åĬ³åĬ¨": 7491,
      "OFĠ": 7492,
      "targetĠ": 7493,
      "elsĠ": 7494,
      "urb": 7495,
      "éĿ¢ç§¯": 7496,
      "[i]": 7497,
      "èĪŀ": 7498,
      "scriptĠ": 7499,
      "FOR": 7500,
      "etsĠ": 7501,
      "_data": 7502,
      "ĊĠĠĠĠĠĠĠĠĠĠĠĠĠĠĠĠĠĠĠĠĠĠĠĠĠĠĠĠĠĠĠĠĠĠĠĠĠĠĠĠ": 7503,
      "course": 7504,
      "å¿«éĢŁ": 7505,
      "efulĠ": 7506,
      "ĠÂ·Ġ": 7507,
      "whenĠyouĠ": 7508,
      "bornĠ": 7509,
      "fire": 7510,
      "function(": 7511,
      "é½Ĳ": 7512,
      "Â£": 7513,
      "Ġ<": 7514,
      "åħįè´¹": 7515,
      "ç¬¦åĲĪ": 7516,
      "affĠ": 7517,
      "doorĠ": 7518,
      "åĩıå°ĳ": 7519,
      "header": 7520,
      "securityĠ": 7521,
      "therap": 7522,
      "legeĠ": 7523,
      "ĠĠbeĠĠ": 7524,
      "å¤ĸ,": 7525,
      "æĿ¥èĩª": 7526,
      "çĥĪ": 7527,
      "roadĠ": 7528,
      "ledĠtoĠ": 7529,
      "åŁ¹åħ»": 7530,
      "Leng": 7531,
      "};ĊĊ": 7532,
      "celebr": 7533,
      "improveĠ": 7534,
      "base": 7535,
      "height:Ġ": 7536,
      "et,Ġ": 7537,
      "excell": 7538,
      "important": 7539,
      "dealĠ": 7540,
      "distribut": 7541,
      "together": 7542,
      "ç¤¾åĮº": 7543,
      "althoughĠ": 7544,
      "membersĠ": 7545,
      "ationsĠofĠ": 7546,
      ">ĊĠĠĠĠĠĠĠĠ<": 7547,
      "ookĠ": 7548,
      "ĊB": 7549,
      "pairĠ": 7550,
      "materialĠ": 7551,
      "artist": 7552,
      "as,Ġ": 7553,
      "questionsĠ": 7554,
      "utionsĠ": 7555,
      "éŁ©": 7556,
      "')Ġ": 7557,
      "atorsĠ": 7558,
      "rightsĠ": 7559,
      "åĬłå·¥": 7560,
      "ä¸ĭï¼Į": 7561,
      "æİĮ": 7562,
      "effect": 7563,
      "acrossĠ": 7564,
      ".ĠAfterĠ": 7565,
      "lostĠ": 7566,
      "inĠourĠ": 7567,
      "g_": 7568,
      "esĠ=Ġ": 7569,
      "åºĶå½ĵ": 7570,
      "çĽĽ": 7571,
      "listĠofĠ": 7572,
      "åıĹåĪ°": 7573,
      "buttonĠ": 7574,
      "speak": 7575,
      "æĮĩå¯¼": 7576,
      "åĿĽ": 7577,
      "accountĠ": 7578,
      "åį«çĶŁ": 7579,
      "bed": 7580,
      "economicĠ": 7581,
      "os.": 7582,
      "hosp": 7583,
      "depart": 7584,
      "tour": 7585,
      "clust": 7586,
      "providesĠ": 7587,
      "applicationĠ": 7588,
      "éŁ³ä¹Ĳ": 7589,
      "requestĠ": 7590,
      "Override": 7591,
      "åľ°åĿĢ": 7592,
      "æĩ": 7593,
      "GE": 7594,
      "OL": 7595,
      "recentlyĠ": 7596,
      "éļĶ": 7597,
      "ĠK": 7598,
      "å±ŀäºİ": 7599,
      "extendsĠ": 7600,
      "Product": 7601,
      "Max": 7602,
      "âĪĴ": 7603,
      "differenceĠ": 7604,
      "popularĠ": 7605,
      "taxĠ": 7606,
      "onĠandĠ": 7607,
      "erĠ(": 7608,
      "OS": 7609,
      "tionĠofĠtheĠ": 7610,
      "centur": 7611,
      "likeĠaĠ": 7612,
      "éĢĶ": 7613,
      "s=": 7614,
      "èĦļ": 7615,
      "judg": 7616,
      ")Ġ{ĊĠĠĠĠĠĠ": 7617,
      "ible": 7618,
      "saveĠ": 7619,
      "èĵĿ": 7620,
      "ÐµÑĤ": 7621,
      "ï¼Įä¸º": 7622,
      "thatĠweĠ": 7623,
      "Sum": 7624,
      ",ä½ł": 7625,
      "Ċç¬¬": 7626,
      "ptr": 7627,
      "{Ċĉĉĉĉ": 7628,
      "random": 7629,
      "æĪĺçķ¥": 7630,
      "thernĠ": 7631,
      "iefĠ": 7632,
      "labelĠ": 7633,
      "medic": 7634,
      "Jap": 7635,
      "tick": 7636,
      "éħĴåºĹ": 7637,
      "åĪ¶ä½ľ": 7638,
      ":ĠWhatĠ": 7639,
      "np.": 7640,
      "tail": 7641,
      "Pass": 7642,
      "serveĠ": 7643,
      "considerĠ": 7644,
      "directĠ": 7645,
      "staffĠ": 7646,
      "memberĠ": 7647,
      "æ»ĳ": 7648,
      "promis": 7649,
      "fromĠĠ": 7650,
      "AF": 7651,
      "elect": 7652,
      "åĽ¾çīĩ": 7653,
      ",ĠĠtheĠĠ": 7654,
      "notic": 7655,
      "issueĠ": 7656,
      "followĠ": 7657,
      "dang": 7658,
      "trainingĠ": 7659,
      "averageĠ": 7660,
      "Anal": 7661,
      "example,Ġ": 7662,
      "Ø§ÙĦ": 7663,
      "tionĠtoĠ": 7664,
      "->Set": 7665,
      "å°¤": 7666,
      "Pal": 7667,
      "Size": 7668,
      "ëĭ": 7669,
      "Rom": 7670,
      "professionalĠ": 7671,
      "æĦıè§ģ": 7672,
      "assess": 7673,
      "åĲİçļĦ": 7674,
      "ĠW": 7675,
      "itĠandĠ": 7676,
      "é©¾": 7677,
      "åıªæĺ¯": 7678,
      "theĠfirstĠ": 7679,
      "townĠ": 7680,
      ".âĢĿĠ": 7681,
      "badĠ": 7682,
      "è§īå¾Ĺ": 7683,
      "Mac": 7684,
      "æĭŁ": 7685,
      "çĶµè§Ĩ": 7686,
      "nation": 7687,
      "unsignedĠ": 7688,
      "æİªæĸ½": 7689,
      "']Ġ=Ġ": 7690,
      "BR": 7691,
      "Number": 7692,
      "P_": 7693,
      ",\\": 7694,
      "Spr": 7695,
      "Techn": 7696,
      "campa": 7697,
      "thatĠitĠ": 7698,
      "beganĠ": 7699,
      ".ĠWhatĠ": 7700,
      "less": 7701,
      "Gen": 7702,
      "ÑĨ": 7703,
      "ofĠĊ": 7704,
      "establish": 7705,
      "Ol": 7706,
      "åĢĴ": 7707,
      "Vari": 7708,
      "å®ŀè·µ": 7709,
      "åģļå¥½": 7710,
      "inĠanĠ": 7711,
      "ticsĠ": 7712,
      "ObjectĠ": 7713,
      "NowĠ": 7714,
      "attack": 7715,
      "cel": 7716,
      "setĠofĠ": 7717,
      ".d": 7718,
      "normalĠ": 7719,
      "insertĠ": 7720,
      "è§ĦèĮĥ": 7721,
      "alityĠ": 7722,
      "åĩºäºĨ": 7723,
      "Provid": 7724,
      "čĊĉĉĉĉĉĉĉĉ": 7725,
      "\\n\"": 7726,
      "æ°§": 7727,
      "HE": 7728,
      ");ĊĠĠĠ": 7729,
      "Ã©sĠ": 7730,
      "ability": 7731,
      "'ĠĠ": 7732,
      "Gover": 7733,
      "atures": 7734,
      "è¯ģæĺİ": 7735,
      "margin": 7736,
      "ditionsĠ": 7737,
      "visionĠ": 7738,
      "Mem": 7739,
      "Menu": 7740,
      "ä¹ĭåīį": 7741,
      "singleĠ": 7742,
      "Entity": 7743,
      "Ã£": 7744,
      "Unit": 7745,
      "Ð¾Ð´": 7746,
      "ç¿»": 7747,
      "}Ċ}ĊĊ": 7748,
      "itelyĠ": 7749,
      "è°ĥæŁ¥": 7750,
      "theirĠĠ": 7751,
      "éĻ¤äºĨ": 7752,
      "well-": 7753,
      "Sur": 7754,
      "èľ": 7755,
      "relig": 7756,
      "feltĠ": 7757,
      "åĩĨå¤ĩ": 7758,
      "æ¹¾": 7759,
      "æĬĺ": 7760,
      "virtualĠ": 7761,
      "significantĠ": 7762,
      "BB": 7763,
      "å¸ĸ": 7764,
      "-basedĠ": 7765,
      "AprilĠ": 7766,
      "anyĠotherĠ": 7767,
      "Custom": 7768,
      "special": 7769,
      "matchĠ": 7770,
      ".org/": 7771,
      "id,Ġ": 7772,
      "onicĠ": 7773,
      "ï¼Įå¯¹": 7774,
      "doĠyouĠ": 7775,
      "Stu": 7776,
      "oneĠĠ": 7777,
      "PleaseĠ": 7778,
      "theyĠĠ": 7779,
      "éĺħè¯»": 7780,
      "ui": 7781,
      "',ĊĠĠ": 7782,
      "easilyĠ": 7783,
      "ä¸ªæľĪ": 7784,
      "/c": 7785,
      "moment": 7786,
      "till": 7787,
      "XC": 7788,
      "_Ġ": 7789,
      "éª¨": 7790,
      "area": 7791,
      "pourĠ": 7792,
      "OnceĠ": 7793,
      "edĠonĠtheĠ": 7794,
      "âĳ": 7795,
      "è¯º": 7796,
      "çļĦè¯Ŀ": 7797,
      "selectĠ": 7798,
      "Arch": 7799,
      "acterĠ": 7800,
      "wood": 7801,
      "Emp": 7802,
      ".ĠToĠ": 7803,
      "]ĊĠĠĠĠĠĠĠĠ": 7804,
      "æĸ¹åĲĳ": 7805,
      "counter": 7806,
      "Nav": 7807,
      "FebruaryĠ": 7808,
      "æ³Ľ": 7809,
      "beforeĠtheĠ": 7810,
      "è´¦": 7811,
      "much": 7812,
      "ä¾ĽåºĶ": 7813,
      "ï¿½ï¿½": 7814,
      "engine": 7815,
      "deriv": 7816,
      "ï¼Įä»İ": 7817,
      "ç¼ĵ": 7818,
      "éĢĴ": 7819,
      "fastĠ": 7820,
      "alpha": 7821,
      ".T": 7822,
      "åĳ¼": 7823,
      "ic,Ġ": 7824,
      "seeĠtheĠ": 7825,
      "çĸ«æĥħ": 7826,
      "æıı": 7827,
      "=Ġfalse": 7828,
      "platform": 7829,
      "spo": 7830,
      "æĦŁè§ī": 7831,
      "in_": 7832,
      "U.S.Ġ": 7833,
      "thatĠheĠ": 7834,
      "(f": 7835,
      "bag": 7836,
      "([": 7837,
      "æ³°": 7838,
      "bringĠ": 7839,
      "aa": 7840,
      "daĠ": 7841,
      "trig": 7842,
      "blyĠ": 7843,
      "}^{": 7844,
      "å·¦åı³": 7845,
      "wait": 7846,
      "unk": 7847,
      "arrayĠ": 7848,
      "å¯»": 7849,
      "Let": 7850,
      "soonĠ": 7851,
      "ĊandĠ": 7852,
      "éĴĪå¯¹": 7853,
      "That": 7854,
      "wasĠnotĠ": 7855,
      "test_": 7856,
      "A:Ġ": 7857,
      "buffer": 7858,
      "ilder": 7859,
      "æµª": 7860,
      "ä½ĵéªĮ": 7861,
      "Edit": 7862,
      "çļĦé«ĺ": 7863,
      "Ð³": 7864,
      "Glob": 7865,
      "@Override": 7866,
      "anĠandĠ": 7867,
      "doesnâĢĻtĠ": 7868,
      "entity": 7869,
      "oot": 7870,
      "Av": 7871,
      "JulyĠ": 7872,
      "åİĭåĬĽ": 7873,
      "equip": 7874,
      "èĢĥèĻĳ": 7875,
      "pattern": 7876,
      "ado": 7877,
      "æŃ£å¸¸": 7878,
      "FirstĠ": 7879,
      "ç¾¤ä¼Ĺ": 7880,
      "pag": 7881,
      "æ³ķãĢĭ": 7882,
      "æĲŃ": 7883,
      "env": 7884,
      "æĺİæĺ¾": 7885,
      "yi": 7886,
      "},Ċ": 7887,
      "gan": 7888,
      "decisionĠ": 7889,
      "Ċĉ.": 7890,
      "å¾Ħ": 7891,
      "udeĠ": 7892,
      "offset": 7893,
      "values": 7894,
      "cook": 7895,
      "å¹¿åĳĬ": 7896,
      "Busin": 7897,
      "lerĠ": 7898,
      "(r": 7899,
      "çī¹èī²": 7900,
      "ibil": 7901,
      "addres": 7902,
      "ford": 7903,
      "æľ¬ç«Ļ": 7904,
      "å®Ĺ": 7905,
      "additionĠ": 7906,
      "First": 7907,
      "æľºä¼ļ": 7908,
      "Inform": 7909,
      "ç¾İåħĥ": 7910,
      "è¦": 7911,
      "toĠseeĠ": 7912,
      "æ»¡è¶³": 7913,
      "),ĠandĠ": 7914,
      "whoseĠ": 7915,
      "auxĠ": 7916,
      "heardĠ": 7917,
      "FL": 7918,
      "AI": 7919,
      "member": 7920,
      "Chr": 7921,
      "ĊC": 7922,
      "æ¶Īè´¹èĢħ": 7923,
      "()Ġ=>Ġ": 7924,
      "ä¸įè¦ģ": 7925,
      "statusĠ": 7926,
      "ball": 7927,
      "factor": 7928,
      "environment": 7929,
      "GR": 7930,
      "TableĠ": 7931,
      "brand": 7932,
      "etyĠofĠ": 7933,
      "èĳ£": 7934,
      "edĠupĠ": 7935,
      "Ċ//Ġ": 7936,
      ".ĠWh": 7937,
      "sâĢĻĠ": 7938,
      "usĠtoĠ": 7939,
      "injur": 7940,
      "mac": 7941,
      "éĿ¢çļĦ": 7942,
      "that,Ġ": 7943,
      "è°ģ": 7944,
      "åı¬": 7945,
      "suchĠaĠ": 7946,
      "&g": 7947,
      "Pack": 7948,
      "éļĲ": 7949,
      "black": 7950,
      "sensi": 7951,
      "woodĠ": 7952,
      "handle": 7953,
      "éķ¿æľŁ": 7954,
      "Person": 7955,
      "officeĠ": 7956,
      "throwĠ": 7957,
      "æľĢé«ĺ": 7958,
      "amin": 7959,
      "èĥ½æºĲ": 7960,
      "courtĠ": 7961,
      "ugeĠ": 7962,
      "theĠmostĠ": 7963,
      "ugĠ": 7964,
      "å±ı": 7965,
      "empty": 7966,
      "SU": 7967,
      "åľ³": 7968,
      "grap": 7969,
      "=Ġtrue": 7970,
      "ä¸įä»ħ": 7971,
      "æĪª": 7972,
      ".R": 7973,
      "survi": 7974,
      "^{\\": 7975,
      "thatâĢĻsĠ": 7976,
      "Ð¾ÑĢ": 7977,
      "sendĠ": 7978,
      "fordĠ": 7979,
      "Â§": 7980,
      "sĠatĠ": 7981,
      "drop": 7982,
      "rememberĠ": 7983,
      "Ġn": 7984,
      "èģĶåĲĪ": 7985,
      "ä¸¥éĩį": 7986,
      "Devel": 7987,
      "monthĠ": 7988,
      "Phil": 7989,
      "Ġminut": 7990,
      "ident": 7991,
      "ç¨ĭåº¦": 7992,
      "åħµ": 7993,
      "Day": 7994,
      "çĪĨ": 7995,
      "èº«ä½ĵ": 7996,
      "ĊĠĠ<": 7997,
      "txt": 7998,
      "ä½Ĩæĺ¯": 7999,
      "exceptĠ": 8000,
      "è®¾æĸ½": 8001,
      "collect": 8002,
      "æ¯ķä¸ļ": 8003,
      "ationĠforĠ": 8004,
      "longerĠ": 8005,
      "ä¸Ńå¤®": 8006,
      "æĹ§": 8007,
      "completelyĠ": 8008,
      "below": 8009,
      "taĠ": 8010,
      "Output": 8011,
      "âĹ": 8012,
      "æ·±åľ³": 8013,
      "(&": 8014,
      "åĨ°": 8015,
      "metĠ": 8016,
      "lawĠ": 8017,
      "ection": 8018,
      "çĴ": 8019,
      "aĠsingleĠ": 8020,
      "\\t": 8021,
      "-->": 8022,
      "èĤ¥": 8023,
      "mightĠbeĠ": 8024,
      "optionsĠ": 8025,
      "solidĠ": 8026,
      "><aĠhref=\"": 8027,
      "actsĠ": 8028,
      "Inc": 8029,
      "-c": 8030,
      "genĠ": 8031,
      "focus": 8032,
      "inĠhisĠ": 8033,
      "umin": 8034,
      "impactĠ": 8035,
      "asĠwell": 8036,
      "Ð±": 8037,
      "å¸¦æĿ¥": 8038,
      "dog": 8039,
      "recommend": 8040,
      "}ĊĠĠĠĠĠĠĠĠĠĠĠĠĠĠĠĠ": 8041,
      "recip": 8042,
      "æĻ®éĢļ": 8043,
      "protectedĠ": 8044,
      "none": 8045,
      ";Ċ}Ċ": 8046,
      "å¼¹": 8047,
      "relationshipĠ": 8048,
      "Server": 8049,
      "ï¼ĮæĪĳ": 8050,
      "\\/": 8051,
      "daugh": 8052,
      "esĠwereĠ": 8053,
      "ratherĠthanĠ": 8054,
      "digitalĠ": 8055,
      "tin": 8056,
      "çļĦæĥħåĨµ": 8057,
      "itter": 8058,
      "objec": 8059,
      "DC": 8060,
      "Ċ\\": 8061,
      "answer": 8062,
      "practiceĠ": 8063,
      "ç¨¿": 8064,
      "two": 8065,
      "auto": 8066,
      "Jes": 8067,
      "tryĠtoĠ": 8068,
      "|Ċ|Ġ": 8069,
      "])": 8070,
      "builtĠ": 8071,
      "äºĴèģĶç½ĳ": 8072,
      "compos": 8073,
      "éĽħ": 8074,
      "livingĠ": 8075,
      "Well": 8076,
      "acrossĠtheĠ": 8077,
      "å´": 8078,
      "åĩºçļĦ": 8079,
      "len(": 8080,
      "asyn": 8081,
      "roy": 8082,
      "surfaceĠ": 8083,
      "tivel": 8084,
      "paint": 8085,
      "primaryĠ": 8086,
      "Null": 8087,
      "çī¹çĤ¹": 8088,
      "instruc": 8089,
      "theĠbestĠ": 8090,
      "Dem": 8091,
      "isterĠ": 8092,
      "åıĳå±ķçļĦ": 8093,
      "lig": 8094,
      "react": 8095,
      "iday": 8096,
      "æĮĳ": 8097,
      "patient": 8098,
      "è´¥": 8099,
      "coordin": 8100,
      "éģĹ": 8101,
      ",ĠwithĠ": 8102,
      "relationship": 8103,
      "åĿı": 8104,
      "regionĠ": 8105,
      "ī´": 8106,
      "LetĠ": 8107,
      ",ĠwhoĠ": 8108,
      "goal": 8109,
      "==Ġ'": 8110,
      "åĽłç´ł": 8111,
      "MT": 8112,
      "IâĢĻveĠ": 8113,
      "GP": 8114,
      "=\"-": 8115,
      ";ĊĊĠĠĠĠĠĠĠĠ": 8116,
      "eterĠ": 8117,
      "åĨľæĿĳ": 8118,
      "çļĦĠ": 8119,
      "sĠonĠtheĠ": 8120,
      "à¼": 8121,
      "ä¹¦è®°": 8122,
      "d-": 8123,
      "innerĠ": 8124,
      ".è¿Ļ": 8125,
      "brĠ": 8126,
      "tom": 8127,
      ".ĠItâĢĻsĠ": 8128,
      "butĠĠ": 8129,
      "çĤ¹åĩ»": 8130,
      "pal": 8131,
      "broughtĠ": 8132,
      "high-": 8133,
      "ĠÐ´": 8134,
      "Ġv": 8135,
      "ãĥ¼": 8136,
      "çº¯": 8137,
      "exampleĠ": 8138,
      "domin": 8139,
      "Url": 8140,
      "ServiceĠ": 8141,
      "busines": 8142,
      "camp": 8143,
      "**ĊĊ": 8144,
      ".ĠAllĠ": 8145,
      "æķ´ä½ĵ": 8146,
      "çłĶåıĳ": 8147,
      "aĠ(": 8148,
      "tishĠ": 8149,
      "èĨľ": 8150,
      "åľĨ": 8151,
      "ÙĬ": 8152,
      "formul": 8153,
      ".ĠĠTheĠĠ": 8154,
      "subject": 8155,
      "å®ĮåĸĦ": 8156,
      "Ċ[": 8157,
      "isonĠ": 8158,
      "åĴĮåĽ½": 8159,
      ".ĠIt'sĠ": 8160,
      "dimension": 8161,
      "Ċ'": 8162,
      "particularlyĠ": 8163,
      "approxim": 8164,
      "Rou": 8165,
      ";ĊĠĠĠĠĠĠĠĠĠĠĠĠĠĠĠĠĠĠĠĠ": 8166,
      "otoĠ": 8167,
      "evidenceĠ": 8168,
      "algorith": 8169,
      "Py": 8170,
      "\"ĊĠĠĠĠ": 8171,
      "èĻļ": 8172,
      "Ð°ÑĤ": 8173,
      "ç¡®ä¿Ŀ": 8174,
      "jour": 8175,
      "arilyĠ": 8176,
      "ae": 8177,
      "ä¸įè¿ĩ": 8178,
      "Tran": 8179,
      "Bi": 8180,
      "canâĢĻtĠ": 8181,
      "Ang": 8182,
      "åħ¬å¼Ģ": 8183,
      "toĠhaveĠ": 8184,
      "================================": 8185,
      "y:Ġ": 8186,
      "b.": 8187,
      "whenĠIĠ": 8188,
      "Ã¢": 8189,
      "enz": 8190,
      "tdĠalign=\"right\">": 8191,
      "ç½ļ": 8192,
      "discover": 8193,
      "</td": 8194,
      "ç§ĭ": 8195,
      "çĶŁçī©": 8196,
      "regularĠ": 8197,
      "growthĠ": 8198,
      "å·ŀå¸Ĥ": 8199,
      "bad": 8200,
      "Î¿": 8201,
      "ante": 8202,
      "xi": 8203,
      "sg": 8204,
      "},ĊĠĠ": 8205,
      "uter": 8206,
      "margin-": 8207,
      "rangeĠofĠ": 8208,
      "pet": 8209,
      ".;Ġ": 8210,
      "of(": 8211,
      "piteĠ": 8212,
      "yy": 8213,
      "fitĠ": 8214,
      ".A": 8215,
      "kin": 8216,
      "Cell": 8217,
      "double": 8218,
      "áĥ": 8219,
      "thoseĠwhoĠ": 8220,
      "strictĠ": 8221,
      "re-": 8222,
      "Syn": 8223,
      "åĲĪçĲĨ": 8224,
      "Sen": 8225,
      "Bel": 8226,
      "±ä¹Ĳ": 8227,
      "æķ´ä¸ª": 8228,
      "diagnos": 8229,
      "latestĠ": 8230,
      "includesĠ": 8231,
      "required": 8232,
      "ä¾§": 8233,
      "initialĠ": 8234,
      ".id": 8235,
      ",ĠthenĠ": 8236,
      "fortun": 8237,
      "\"/>Ċ<": 8238,
      "();Ċĉĉ": 8239,
      "notĠonlyĠ": 8240,
      "existingĠ": 8241,
      "soĠĠ": 8242,
      "attach": 8243,
      "åıĳæĮ¥": 8244,
      "åıĳè¡¨äºİĠ": 8245,
      "æī¬": 8246,
      "reserv": 8247,
      "watchĠ": 8248,
      "thusĠ": 8249,
      "Mi": 8250,
      "Author": 8251,
      "impres": 8252,
      "ĊĠĠĠĠ<tdĠalign=\"right\">": 8253,
      "åĪ¤åĨ³": 8254,
      "EnglishĠ": 8255,
      "manufactur": 8256,
      "è·ĳ": 8257,
      "scienti": 8258,
      "wantedĠtoĠ": 8259,
      "EE": 8260,
      "s,ĠwhichĠ": 8261,
      "lad": 8262,
      "surve": 8263,
      "æ¬¢è¿İ": 8264,
      "Fol": 8265,
      "}\\)Ġ": 8266,
      "ä¸Ģä¸ĭ": 8267,
      "åįıè®®": 8268,
      "venĠ": 8269,
      "mot": 8270,
      "mir": 8271,
      "sometimesĠ": 8272,
      "complexĠ": 8273,
      "abilityĠtoĠ": 8274,
      "edg": 8275,
      "Admin": 8276,
      "So": 8277,
      "gradu": 8278,
      "identif": 8279,
      "arriv": 8280,
      "knewĠ": 8281,
      "rule": 8282,
      "rideĠ": 8283,
      "Pa": 8284,
      ".ĠĊĊĊ": 8285,
      "<?phpĠ": 8286,
      "finish": 8287,
      "Show": 8288,
      "yourselfĠ": 8289,
      ":Ċĉ": 8290,
      "AY": 8291,
      "Source": 8292,
      "A,Ġ": 8293,
      "paidĠ": 8294,
      "eĠofĠaĠ": 8295,
      "ederalĠ": 8296,
      "ĠE": 8297,
      "anĠin": 8298,
      "ationĠ(": 8299,
      "paperĠ": 8300,
      ".ĊAĠ": 8301,
      "highlyĠ": 8302,
      "Controller": 8303,
      "orĠaĠ": 8304,
      "eta": 8305,
      "Bre": 8306,
      "éī´": 8307,
      "extern": 8308,
      "\"Ġhref=\"": 8309,
      "accordingĠtoĠ": 8310,
      "FI": 8311,
      "Pay": 8312,
      "town": 8313,
      "atingĠtheĠ": 8314,
      "byĠaĠ": 8315,
      "oĠandĠ": 8316,
      "eventsĠ": 8317,
      "å·¥åħ·": 8318,
      "ein": 8319,
      "obvi": 8320,
      "Associ": 8321,
      "Ċ#defineĠ": 8322,
      "holder": 8323,
      "]ĊĊ": 8324,
      "æľ«": 8325,
      "toĠEnglish": 8326,
      "å¹´ï¼Į": 8327,
      "âĦ": 8328,
      "allowsĠ": 8329,
      "sheet": 8330,
      "awaitĠ": 8331,
      "reshĠ": 8332,
      "niceĠ": 8333,
      "cry": 8334,
      "roc": 8335,
      "poly": 8336,
      "constit": 8337,
      "èĦ¸": 8338,
      "</div>Ċ": 8339,
      "æĤī": 8340,
      "ÐµÑĢ": 8341,
      "ucle": 8342,
      "Go": 8343,
      "Brow": 8344,
      "rangeĠ": 8345,
      "n.": 8346,
      "åºŁ": 8347,
      "è¯Ńè¨Ģ": 8348,
      "basicĠ": 8349,
      "Tur": 8350,
      "Cha": 8351,
      "filesĠ": 8352,
      "nar": 8353,
      "contract": 8354,
      ")\\": 8355,
      "ĊĠĠĠĠĠ*/ĊĠĠĠĠ": 8356,
      "ÏĦ": 8357,
      "insp": 8358,
      "chap": 8359,
      "askedĠ": 8360,
      "ibu": 8361,
      "ingĠfromĠ": 8362,
      ",å°Ĩ": 8363,
      "technologyĠ": 8364,
      "çĩĥ": 8365,
      "contact": 8366,
      "éĺµ": 8367,
      "hitĠ": 8368,
      "pm": 8369,
      "}Ġ\\": 8370,
      "Program": 8371,
      "thinkingĠ": 8372,
      "studentĠ": 8373,
      "Ð½Ð¾": 8374,
      "sho": 8375,
      "æļĸ": 8376,
      "lâĢĻ": 8377,
      "ä¸Ĭå¸Ĥ": 8378,
      "such": 8379,
      "Return": 8380,
      "andĠIĠ": 8381,
      "profile": 8382,
      "pressureĠ": 8383,
      "éķľ": 8384,
      "vill": 8385,
      "QU": 8386,
      "ä¸įåı¯": 8387,
      "wif": 8388,
      "ä¼ĺç§Ģ": 8389,
      "transf": 8390,
      "BL": 8391,
      "é©¶": 8392,
      "æĺİç¡®": 8393,
      "Ùħ": 8394,
      "hearĠ": 8395,
      "appĠ": 8396,
      "ue,Ġ": 8397,
      "æĿ¯": 8398,
      "ALOG": 8399,
      "![": 8400,
      "åį·": 8401,
      "home": 8402,
      "å®ŀéªĮ": 8403,
      ",ä½Ĩæĺ¯": 8404,
      "Ø±": 8405,
      "Tod": 8406,
      "nullĠ": 8407,
      "Face": 8408,
      "edic": 8409,
      "Jav": 8410,
      "Ã©r": 8411,
      "industryĠ": 8412,
      "/**ĊĠĠĠĠĠ*Ġ": 8413,
      "Block": 8414,
      "split": 8415,
      "modernĠ": 8416,
      "leĠĠ": 8417,
      "tun": 8418,
      "gard": 8419,
      "ĠÐº": 8420,
      "edĠĊ": 8421,
      "prior": 8422,
      ");Ċ}ĊĊ": 8423,
      "æµĭè¯ķ": 8424,
      ")ĊĠĠĠĠĠĠ": 8425,
      "featureĠ": 8426,
      ".ĠIfĠyouĠ": 8427,
      "treĠ": 8428,
      "exactlyĠ": 8429,
      "Buffer": 8430,
      "crimin": 8431,
      "etĠal.,Ġ": 8432,
      "Math": 8433,
      "tĠĠ": 8434,
      "åľĪ": 8435,
      "na": 8436,
      "staur": 8437,
      "GeneralĠ": 8438,
      "customerĠ": 8439,
      "æľĢç»Ī": 8440,
      "GL": 8441,
      "èĽĭ": 8442,
      "-S": 8443,
      "themĠtoĠ": 8444,
      "Bal": 8445,
      "deathĠ": 8446,
      "éĻįä½İ": 8447,
      "éĩıçļĦ": 8448,
      "so,Ġ": 8449,
      "LOG": 8450,
      "ierĠ": 8451,
      "æĦıè¯Ĩ": 8452,
      "ament": 8453,
      "Defin": 8454,
      "ashing": 8455,
      "stack": 8456,
      "surpris": 8457,
      "maybeĠ": 8458,
      "Ġ,Ġ": 8459,
      "coverĠ": 8460,
      "endĠofĠ": 8461,
      "Ð¾ÑĤ": 8462,
      "èĲ½å®ŀ": 8463,
      "thatĠareĠ": 8464,
      "front": 8465,
      "Record": 8466,
      "updateĠ": 8467,
      ":(": 8468,
      "productionĠ": 8469,
      "me,Ġ": 8470,
      "Tex": 8471,
      "=Ġ[": 8472,
      "æľºåħ³": 8473,
      "ouĠ": 8474,
      "ãĢĤâĢĿ": 8475,
      "Govern": 8476,
      "äºĭä¸ļ": 8477,
      "register": 8478,
      "çľŁå®ŀ": 8479,
      "Prim": 8480,
      "ä¼Ļ": 8481,
      "é¢ľ": 8482,
      "TS": 8483,
      "avoidĠ": 8484,
      "thĠĠ": 8485,
      "touch": 8486,
      "perhap": 8487,
      "ao": 8488,
      "getsĠ": 8489,
      "smar": 8490,
      "unitĠ": 8491,
      "åĮĸçļĦ": 8492,
      "éĢŁåº¦": 8493,
      "finallyĠ": 8494,
      "wiseĠ": 8495,
      "GreatĠ": 8496,
      ".ĠThisĠisĠ": 8497,
      "restaur": 8498,
      "æ²Ł": 8499,
      "s>": 8500,
      "buy": 8501,
      "writingĠ": 8502,
      "driver": 8503,
      "prefer": 8504,
      "illion": 8505,
      "ï¼Įåħ¶": 8506,
      "_b": 8507,
      "DEBUGĠ-Ġ": 8508,
      "'.": 8509,
      "JustĠ": 8510,
      "soundĠ": 8511,
      "çīĻ": 8512,
      "ðŁ": 8513,
      "aĠbitĠ": 8514,
      "AU": 8515,
      "gain": 8516,
      "æ·»": 8517,
      "æĿ¥è¶Ĭ": 8518,
      "cos": 8519,
      "time.": 8520,
      "Ital": 8521,
      "åĵ¥": 8522,
      "respectĠ": 8523,
      "éĥ½æľī": 8524,
      "Il": 8525,
      "åĲįç§°": 8526,
      "chron": 8527,
      "ä¸ľè¥¿": 8528,
      "trackĠ": 8529,
      "æ´¥": 8530,
      "HisĠ": 8531,
      ";ĠiĠ<Ġ": 8532,
      ",Ġi": 8533,
      "confirm": 8534,
      ",Ċĉ": 8535,
      "ouldĠyouĠ": 8536,
      "Tool": 8537,
      "bloodĠ": 8538,
      "æīĵéĢł": 8539,
      "major": 8540,
      "æŃ£å¼ı": 8541,
      "ientĠ": 8542,
      "&#": 8543,
      "Listener": 8544,
      "interfaceĠ": 8545,
      "å®«": 8546,
      "WOR": 8547,
      "s:Ċ": 8548,
      "simul": 8549,
      "vil": 8550,
      "hus": 8551,
      "es,ĠtheĠ": 8552,
      "conditionsĠ": 8553,
      "===Ġ": 8554,
      "ationsĠandĠ": 8555,
      ".Ġ[": 8556,
      "à¤¾": 8557,
      "candid": 8558,
      "easyĠ": 8559,
      "hopeĠ": 8560,
      "è¯´,": 8561,
      "extrem": 8562,
      "edĠthatĠtheĠ": 8563,
      "\"ĊĊ": 8564,
      "One": 8565,
      "ä¸įå¾Ĺ": 8566,
      "SomeĠ": 8567,
      "insuranceĠ": 8568,
      "è¿·": 8569,
      "characterĠ": 8570,
      "endif": 8571,
      "aĠgreatĠ": 8572,
      "el-": 8573,
      "criticalĠ": 8574,
      "éĽĦ": 8575,
      "æĸ¹ä¾¿": 8576,
      "æĪĲç»©": 8577,
      "))Ċ": 8578,
      "Categ": 8579,
      "univers": 8580,
      "Mag": 8581,
      "soĠmuchĠ": 8582,
      "è¶ĬæĿ¥è¶Ĭ": 8583,
      "äººæ°ĳæ³ķéĻ¢": 8584,
      "åĢį": 8585,
      "ç»ıçĲĨ": 8586,
      "aĠsmallĠ": 8587,
      "éĩİ": 8588,
      "driveĠ": 8589,
      "milit": 8590,
      "worksĠ": 8591,
      "ĠĠ(": 8592,
      "There": 8593,
      "edĠbyĠaĠ": 8594,
      "theirĠownĠ": 8595,
      "æľīçļĦ": 8596,
      "wav": 8597,
      "umentsĠ": 8598,
      "maz": 8599,
      "æĺł": 8600,
      "symbol": 8601,
      "Comple": 8602,
      "structure": 8603,
      "esĠfromĠ": 8604,
      "Const": 8605,
      "æľĢæĸ°": 8606,
      "readingĠ": 8607,
      "ories": 8608,
      "n,Ġ": 8609,
      "partner": 8610,
      "çĺ": 8611,
      "recover": 8612,
      "domain": 8613,
      "âĶĢâĶĢ": 8614,
      "è¾ĵåħ¥": 8615,
      "println": 8616,
      "çĽĳçĿ£": 8617,
      "/v": 8618,
      "%%%%": 8619,
      "åħ±åĴĮåĽ½": 8620,
      "policyĠ": 8621,
      "Flo": 8622,
      "ary,Ġ": 8623,
      "å¿ĥçĲĨ": 8624,
      ".Get": 8625,
      "ÐµÐ½Ð¸": 8626,
      "givingĠ": 8627,
      ",ĠthisĠ": 8628,
      "ed,ĠandĠ": 8629,
      "produceĠ": 8630,
      "death": 8631,
      "same": 8632,
      "\\x": 8633,
      "æ½®": 8634,
      "better": 8635,
      "çļĦå°ı": 8636,
      "toĠyourĠ": 8637,
      "æ°ĳæĹı": 8638,
      "adat": 8639,
      "ä¸Ĭè¿°": 8640,
      "A-": 8641,
      "Ter": 8642,
      "ç§ĺ": 8643,
      "arrang": 8644,
      "åĬ¨åĬĽ": 8645,
      ">>": 8646,
      "#defineĠ": 8647,
      "ities": 8648,
      "UseĠ": 8649,
      "InternationalĠ": 8650,
      "plain": 8651,
      "s.ĠInĠ": 8652,
      "available": 8653,
      "å·¥èīº": 8654,
      "æ²ī": 8655,
      "Var": 8656,
      "strain": 8657,
      "ifiedĠ": 8658,
      "ture": 8659,
      "ÙĪ": 8660,
      "sĠlikeĠ": 8661,
      "CityĠ": 8662,
      "å¢Ļ": 8663,
      ")/": 8664,
      "ç»ĦæĪĲ": 8665,
      "gri": 8666,
      "ById": 8667,
      "ä¼Ł": 8668,
      "lotĠofĠ": 8669,
      "lamb": 8670,
      "æľºåĪ¶": 8671,
      "è¿Ľè¡ĮäºĨ": 8672,
      "Lat": 8673,
      "complex": 8674,
      "ĠperĠ": 8675,
      "Bro": 8676,
      "ä¾Ŀæ³ķ": 8677,
      "alifor": 8678,
      ":ĊĠĠĠĠĠĠĠĠĠĠĠĠĠĠĠĠ": 8679,
      "erryĠ": 8680,
      "^^": 8681,
      "NewĠYorkĠ": 8682,
      "orĠandĠ": 8683,
      "Main": 8684,
      "å«": 8685,
      "Prof": 8686,
      "Î½": 8687,
      "ç«Ł": 8688,
      "think": 8689,
      "th>": 8690,
      "Ġ%": 8691,
      ".php": 8692,
      "K_": 8693,
      "ĊĠĠĠĠĠĠĠĠself.": 8694,
      "hu": 8695,
      "ersĠinĠ": 8696,
      ".ĠMyĠ": 8697,
      "this,Ġ": 8698,
      "Answer:Ġ": 8699,
      "givesĠ": 8700,
      "Satur": 8701,
      "Ð»Ð¸": 8702,
      "ade": 8703,
      "ote": 8704,
      "reduceĠ": 8705,
      ");ĊĠĠĠĠĠĠĠĠĠĠĠĠĠĠĠĠĠĠĠĠ": 8706,
      "amaĠ": 8707,
      "EuropeanĠ": 8708,
      "Tot": 8709,
      "commerc": 8710,
      "Îµ": 8711,
      "fab": 8712,
      "ValueĠ": 8713,
      ";Ċĉĉĉĉ": 8714,
      "åħĪçĶŁ": 8715,
      "navig": 8716,
      "ä¼ļåĳĺ": 8717,
      "atsĠ": 8718,
      "rb": 8719,
      "referenceĠ": 8720,
      "co-": 8721,
      "delet": 8722,
      "Div": 8723,
      "AND": 8724,
      "é¦Ļæ¸¯": 8725,
      "resist": 8726,
      "lackĠ": 8727,
      "validĠ": 8728,
      "cardĠ": 8729,
      "æĿ¥çľĭ": 8730,
      "ThisĠisĠ": 8731,
      "execut": 8732,
      "definitelyĠ": 8733,
      "æķħäºĭ": 8734,
      "}Ċĉĉĉ": 8735,
      "Sav": 8736,
      "å¦Ĥä¸ĭ": 8737,
      "qĠ": 8738,
      "ç»´æĬ¤": 8739,
      "someĠofĠ": 8740,
      "},ĊĠĠĠĠ": 8741,
      "èĪ¹": 8742,
      "ĊofĠ": 8743,
      "enjoyĠ": 8744,
      "relyĠ": 8745,
      "vec": 8746,
      "al.": 8747,
      "edĠhisĠ": 8748,
      "Offic": 8749,
      "STAT": 8750,
      "breakĠ": 8751,
      "åħ¬åħ±": 8752,
      "wast": 8753,
      "Hy": 8754,
      "notherĠ": 8755,
      "induc": 8756,
      "åĨ¬": 8757,
      "one-": 8758,
      "distinc": 8759,
      "å±¥": 8760,
      "quanti": 8761,
      "inner": 8762,
      "ideasĠ": 8763,
      "çľŁæŃ£": 8764,
      "illedĠ": 8765,
      "Ċ}ĊĊ": 8766,
      "only": 8767,
      "dot": 8768,
      "ä¾µ": 8769,
      "è¶ĭ": 8770,
      "A_": 8771,
      "åĲ´": 8772,
      "HomeĠ": 8773,
      "lu": 8774,
      "Process": 8775,
      "dens": 8776,
      "xĠ=Ġ": 8777,
      "TV": 8778,
      "near": 8779,
      "p-": 8780,
      "Mark": 8781,
      "ãĤĭ": 8782,
      "extraĠ": 8783,
      "Draw": 8784,
      "letter": 8785,
      "roĠ": 8786,
      "adver": 8787,
      "æİī": 8788,
      "sĊĊ": 8789,
      "edĠinĠaĠ": 8790,
      ">=Ġ": 8791,
      ")Ġ-Ġ": 8792,
      "MB": 8793,
      "traditionalĠ": 8794,
      "Î¹": 8795,
      "Conn": 8796,
      "thereĠisĠaĠ": 8797,
      "}$": 8798,
      "&l": 8799,
      "é¦ĸåħĪ": 8800,
      ".g": 8801,
      "fair": 8802,
      "åħĪè¿Ľ": 8803,
      "æľ¬æ¬¡": 8804,
      ",æīĢä»¥": 8805,
      "umnĠ": 8806,
      "Microsof": 8807,
      "Pop": 8808,
      "sed": 8809,
      "åıĮæĸ¹": 8810,
      "}ĊĠĠĠĠĠĠ": 8811,
      "Eff": 8812,
      "showsĠ": 8813,
      "quicklyĠ": 8814,
      "onĠĠtheĠĠ": 8815,
      "pre-": 8816,
      "æĮĤ": 8817,
      "HereĠ": 8818,
      "successfulĠ": 8819,
      "files": 8820,
      "åĪ·": 8821,
      "ĊĠĠĠĠĠĠĠĠĠĠ<": 8822,
      "Develop": 8823,
      "æĥĬ": 8824,
      "å¡«": 8825,
      "æĶ¹åıĺ": 8826,
      "s.ĠIĠ": 8827,
      "unt": 8828,
      "subscri": 8829,
      "fallĠ": 8830,
      "ãģ«": 8831,
      "walk": 8832,
      "................": 8833,
      "spentĠ": 8834,
      "-to-": 8835,
      "a'sĠ": 8836,
      "Any": 8837,
      "appreci": 8838,
      "çĶŁåĳ½": 8839,
      "AddĠ": 8840,
      "çļĦæĸ°": 8841,
      "insid": 8842,
      "wireĠ": 8843,
      "known": 8844,
      "ifyĠ": 8845,
      "invo": 8846,
      "suppos": 8847,
      "Now": 8848,
      "media": 8849,
      "trou": 8850,
      "iverĠ": 8851,
      ".ĊWeĠ": 8852,
      "expand": 8853,
      "AugustĠ": 8854,
      "é¼ĵ": 8855,
      "å¡Ķ": 8856,
      "}_{": 8857,
      "ãĤĴ": 8858,
      "Card": 8859,
      "node_": 8860,
      "ester": 8861,
      "cf": 8862,
      "æ£®": 8863,
      "æĺ¯ä¸Ģç§į": 8864,
      "çīĪæĿĥ": 8865,
      "çĳŀ": 8866,
      "Counc": 8867,
      "thous": 8868,
      "class='": 8869,
      "'>": 8870,
      "ingĠanĠ": 8871,
      "ListĠ": 8872,
      "e,ĠĠ": 8873,
      "diĠ": 8874,
      "stay": 8875,
      "easyĠtoĠ": 8876,
      "å¤ĸï¼Į": 8877,
      "à¼ĭ": 8878,
      "Data.": 8879,
      "blockĠ": 8880,
      ",ĠW": 8881,
      "%ĠofĠ": 8882,
      "eksĠ": 8883,
      "å¹´åº¦": 8884,
      "ĠpercentĠ": 8885,
      "overallĠ": 8886,
      "åģı": 8887,
      "thon": 8888,
      "æµĻ": 8889,
      "diseas": 8890,
      "markĠ": 8891,
      "lor": 8892,
      "advis": 8893,
      "presentsĠ": 8894,
      "ingĠinĠtheĠ": 8895,
      "answerĠ": 8896,
      "ï¼ļĊ": 8897,
      "jĠ": 8898,
      "\"Ċ\"": 8899,
      "æ¯Ķå¦Ĥ": 8900,
      "adoĠ": 8901,
      "&&": 8902,
      "prog": 8903,
      "çİ¯ä¿Ŀ": 8904,
      "æĦıä¹ī": 8905,
      "io.": 8906,
      "çŀ": 8907,
      "statis": 8908,
      "åĬłåħ¥": 8909,
      "æľ¬ç½ĳ": 8910,
      "city": 8911,
      "è¿ĲèĲ¥": 8912,
      "Filter": 8913,
      "'dĠ": 8914,
      "å¼±": 8915,
      "ĊfromĠ": 8916,
      ".L": 8917,
      "```ĊĊ": 8918,
      "SH": 8919,
      "Ben": 8920,
      "GoogleĠ": 8921,
      "ings,Ġ": 8922,
      "EL": 8923,
      "Player": 8924,
      "actualĠ": 8925,
      "dra": 8926,
      "asĠitĠ": 8927,
      "datas": 8928,
      ",ĠV": 8929,
      "Thom": 8930,
      "Bod": 8931,
      "ÂłÂłÂłÂł": 8932,
      "spectr": 8933,
      "beenĠĠ": 8934,
      "ativelyĠ": 8935,
      "ERROR": 8936,
      "thingĠtoĠ": 8937,
      "matter": 8938,
      "parĠ": 8939,
      "hur": 8940,
      "åĪĽéĢł": 8941,
      "ä¹Łä¸į": 8942,
      "Def": 8943,
      "åĪĽä¸ļ": 8944,
      "VALU": 8945,
      "_list": 8946,
      "æľĢå¤§": 8947,
      "èµĶ": 8948,
      "booleanĠ": 8949,
      "append(": 8950,
      "Ow": 8951,
      "surĠ": 8952,
      "aspec": 8953,
      "aĠĊ": 8954,
      "easeĠ": 8955,
      "enĠandĠ": 8956,
      "addressĠ": 8957,
      "ITĠ": 8958,
      "monthsĠ": 8959,
      "maintain": 8960,
      "Sing": 8961,
      "æĹĹ": 8962,
      "Rang": 8963,
      "aug": 8964,
      "tend": 8965,
      "solv": 8966,
      "itselfĠ": 8967,
      "Cho": 8968,
      "éĺ»": 8969,
      "Inv": 8970,
      "è¡¡": 8971,
      "Inf": 8972,
      "())": 8973,
      "ailedĠ": 8974,
      "blank": 8975,
      "ultim": 8976,
      "occas": 8977,
      "conv": 8978,
      "batt": 8979,
      "ĠaĠ": 8980,
      "Parameter": 8981,
      "vac": 8982,
      "withĠyourĠ": 8983,
      "peopleĠwhoĠ": 8984,
      "å¹¿ä¸ľ": 8985,
      "insertĠintoĠ": 8986,
      "filename": 8987,
      "certainlyĠ": 8988,
      ".ĠY": 8989,
      "ine,Ġ": 8990,
      "]ĊĠĠĠĠ": 8991,
      "size:Ġ": 8992,
      "However,Ġ": 8993,
      "==Ġ\"": 8994,
      "è¿ĩåİ»": 8995,
      "Ð¾Ð¼": 8996,
      "innov": 8997,
      "API": 8998,
      "è¡ĮåĬ¨": 8999,
      "it.Ċ": 9000,
      "appropriateĠ": 9001,
      ";ĊĊĉ": 9002,
      "aâĢĻsĠ": 9003,
      "è®°å½ķ": 9004,
      "temperatureĠ": 9005,
      "ç£¨": 9006,
      "åĪº": 9007,
      "java.util.": 9008,
      "outsid": 9009,
      "Are": 9010,
      "thatĠwasĠ": 9011,
      "æĢķ": 9012,
      "onĠthisĠ": 9013,
      "å®īæİĴ": 9014,
      "Law": 9015,
      ",ĠâĢľ": 9016,
      "Builder": 9017,
      "Star": 9018,
      "phen": 9019,
      "]:Ġ": 9020,
      "typesĠofĠ": 9021,
      "doll": 9022,
      "usesĠ": 9023,
      "Mode": 9024,
      "passĠ": 9025,
      "åĲ¨": 9026,
      "travelĠ": 9027,
      "éģ¿åħį": 9028,
      "surfac": 9029,
      "å¦ĩ": 9030,
      "idĠ=Ġ": 9031,
      "äººï¼Į": 9032,
      "æĬ¥éģĵ": 9033,
      "classi": 9034,
      "];ĊĠĠĠĠ": 9035,
      "journ": 9036,
      "pository": 9037,
      "civ": 9038,
      "æŁ¥çľĭ": 9039,
      "tro": 9040,
      "é¥Ń": 9041,
      "activityĠ": 9042,
      "ç§»åĬ¨": 9043,
      "She": 9044,
      "Secur": 9045,
      "demand": 9046,
      "à¼ĭà½": 9047,
      "usionĠ": 9048,
      "edĠfromĠtheĠ": 9049,
      "lessĠthanĠ": 9050,
      "cit": 9051,
      "an-": 9052,
      "edĠwithĠtheĠ": 9053,
      "crow": 9054,
      "\")Ċ": 9055,
      "ä¸įåĲĮçļĦ": 9056,
      "throwsĠ": 9057,
      "åıªè¦ģ": 9058,
      "åĩ¡": 9059,
      "edĠĠtoĠĠ": 9060,
      "åľ£": 9061,
      "TP": 9062,
      "displayĠ": 9063,
      "upload": 9064,
      "äººæ°ĳåħ±åĴĮåĽ½": 9065,
      "tsĠtoĠ": 9066,
      ",åı¯ä»¥": 9067,
      "Gam": 9068,
      "clientĠ": 9069,
      "izationĠ": 9070,
      "Ċ*Ġ": 9071,
      "eu": 9072,
      "ç¼ĸè¾ĳ": 9073,
      "INSER": 9074,
      "wishĠ": 9075,
      "inĠorderĠtoĠ": 9076,
      "åįģåĪĨ": 9077,
      "n_": 9078,
      "Function": 9079,
      "essentialĠ": 9080,
      "StatesĠ": 9081,
      "ih": 9082,
      "(self,Ġ": 9083,
      "(m": 9084,
      "sĠhaveĠ": 9085,
      ")Ġ{Ċĉĉĉ": 9086,
      "booksĠ": 9087,
      "Num": 9088,
      "exhib": 9089,
      "SchoolĠ": 9090,
      "connection": 9091,
      "æ¹¿": 9092,
      "background-": 9093,
      "long-": 9094,
      "ç»Łä¸Ģ": 9095,
      "ç½²": 9096,
      "Cur": 9097,
      "çļĦå·¥ä½ľ": 9098,
      "Langu": 9099,
      "å¼ĢæĶ¾": 9100,
      "ax.": 9101,
      "broad": 9102,
      "qui": 9103,
      "ASĠ": 9104,
      "favoriteĠ": 9105,
      "ä¸»ä»»": 9106,
      "è´«": 9107,
      ",è¿ĺ": 9108,
      "susp": 9109,
      "outĠofĠtheĠ": 9110,
      "inlineĠ": 9111,
      "å¹²éĥ¨": 9112,
      "future": 9113,
      "getĠtheĠ": 9114,
      "å¥¶": 9115,
      "çĽ®çļĦ": 9116,
      "ling": 9117,
      "industri": 9118,
      "excit": 9119,
      "es_": 9120,
      "</li>": 9121,
      "greg": 9122,
      "</td>ĊĠĠĠĠ<tdĠalign=\"right\">": 9123,
      "creditĠ": 9124,
      "åĲĮåŃ¦": 9125,
      "ä¸Ńåįİäººæ°ĳåħ±åĴĮåĽ½": 9126,
      "TimeĠ": 9127,
      "ĊĠĠĠĠĠĠĠĠĠĠĠĠĠĠĠĠĠĠĠĠ<": 9128,
      "deepĠ": 9129,
      "Spe": 9130,
      "againstĠtheĠ": 9131,
      "applyĠ": 9132,
      "èĩªèº«": 9133,
      "reflec": 9134,
      ",ĠtheyĠ": 9135,
      "of-": 9136,
      "images/": 9137,
      "yĠ=Ġ": 9138,
      "releaseĠ": 9139,
      "suffici": 9140,
      "nodeĠ": 9141,
      "ç¹": 9142,
      "(self.": 9143,
      "Vide": 9144,
      "CF": 9145,
      "nearlyĠ": 9146,
      "tast": 9147,
      "entĠĠ": 9148,
      "çĦ¦": 9149,
      "listen": 9150,
      "brandĠ": 9151,
      "UniversityĠ": 9152,
      "è·Į": 9153,
      "èĤ¯": 9154,
      "utiveĠ": 9155,
      ".ĠOnĠ": 9156,
      "Ġ*Ġ@paramĠ": 9157,
      "standard": 9158,
      "çħ¤": 9159,
      "ban": 9160,
      "oilĠ": 9161,
      "WestĠ": 9162,
      "Version": 9163,
      "Red": 9164,
      "bank": 9165,
      "quiĠ": 9166,
      "beyondĠ": 9167,
      "framework": 9168,
      "UniversityĠofĠ": 9169,
      "è®ºåĿĽ": 9170,
      "åľ°äº§": 9171,
      "expectĠ": 9172,
      "wrap": 9173,
      "çĸ¾çĹħ": 9174,
      "mel": 9175,
      "clickĠ": 9176,
      "çļĦéĩįè¦ģ": 9177,
      "ecauseĠ": 9178,
      "ç½ĳä¸Ĭ": 9179,
      "instr": 9180,
      "pc": 9181,
      "æĭĽèģĺ": 9182,
      ";ĠandĠ": 9183,
      "æĮ¯": 9184,
      "çļĩ": 9185,
      "destin": 9186,
      "DayĠ": 9187,
      "å¼ķèµ·": 9188,
      "Instit": 9189,
      "ãĢģĠ": 9190,
      "sd": 9191,
      "Sign": 9192,
      "endĠofĠtheĠ": 9193,
      "Book": 9194,
      "çļĦâĢľ": 9195,
      "lan": 9196,
      "éĨĴ": 9197,
      "scap": 9198,
      "åŃĶ": 9199,
      "è¯¦ç»Ĩ": 9200,
      "dailyĠ": 9201,
      "approv": 9202,
      "stim": 9203,
      "æķ°éĩı": 9204,
      "æģ¶": 9205,
      "exception": 9206,
      "occup": 9207,
      "åºĦ": 9208,
      "relevantĠ": 9209,
      "exĠ": 9210,
      "andĠĠtheĠĠ": 9211,
      "\"Ġid=\"": 9212,
      "å¹¼": 9213,
      "è´·æ¬¾": 9214,
      "authorĠ": 9215,
      "womanĠ": 9216,
      "----------------------------------------------------------------": 9217,
      "(void": 9218,
      "-P": 9219,
      "family": 9220,
      "Project": 9221,
      "launch": 9222,
      "æĽ´æĸ°": 9223,
      "SetĠ": 9224,
      "aĠsim": 9225,
      "myselfĠ": 9226,
      "omen": 9227,
      ".ĠWithĠ": 9228,
      "ply": 9229,
      "(d": 9230,
      "winĠ": 9231,
      "vot": 9232,
      "),Ċĉ": 9233,
      "warĠ": 9234,
      "when": 9235,
      "thought": 9236,
      "ä¸įåĪ°": 9237,
      "signĠ": 9238,
      "fru": 9239,
      "ateĠandĠ": 9240,
      "politic": 9241,
      "High": 9242,
      "??": 9243,
      "usersĠ": 9244,
      "helpĠyouĠ": 9245,
      "leag": 9246,
      "accoun": 9247,
      "æ¶Ĥ": 9248,
      "uralĠ": 9249,
      "grav": 9250,
      "æ¼«": 9251,
      "éģį": 9252,
      "æħ§": 9253,
      "å°±ä¼ļ": 9254,
      "sport": 9255,
      "æ®Ĭ": 9256,
      "infl": 9257,
      "ï¼ĮæĪĳä»¬": 9258,
      ".æĪĳ": 9259,
      "xy": 9260,
      "LEĠ": 9261,
      "ÐµĠ": 9262,
      "isn'tĠ": 9263,
      "increasedĠ": 9264,
      "GO": 9265,
      "ror": 9266,
      "varietyĠofĠ": 9267,
      "ingĠtheirĠ": 9268,
      "esĠorĠ": 9269,
      "æ¥ļ": 9270,
      "ä½įäºİ": 9271,
      "ĠĠhisĠĠ": 9272,
      "\\\"": 9273,
      "y,ĠtheĠ": 9274,
      "æ·±åħ¥": 9275,
      "ju": 9276,
      "Ptr": 9277,
      "åĳĪ": 9278,
      "category": 9279,
      "ĠĠthatĠĠ": 9280,
      "progres": 9281,
      "ensionĠ": 9282,
      "WR": 9283,
      "f_": 9284,
      "webĠ": 9285,
      "registr": 9286,
      "comb": 9287,
      "å½ĵçĦ¶": 9288,
      "ĠĠĠĠĠĠĠĠĠĠĠĠĠĠĠ": 9289,
      "hydro": 9290,
      ",å¦Ĥ": 9291,
      "ential": 9292,
      "offĠtheĠ": 9293,
      "éĺ´": 9294,
      ",å¦Ĥæŀľ": 9295,
      "çĥ§": 9296,
      "Ann": 9297,
      "Dial": 9298,
      "forĠ(intĠ": 9299,
      "\"Ġwidth=\"": 9300,
      "åĶ±": 9301,
      "Description": 9302,
      "è¿ŀæİ¥": 9303,
      "SeeĠ": 9304,
      "ç³ĸ": 9305,
      "each": 9306,
      "CheckĠ": 9307,
      "ive": 9308,
      "more": 9309,
      "collection": 9310,
      "+Ġ\"": 9311,
      "ä¼Ĭ": 9312,
      "patientĠ": 9313,
      "éĢĤåĲĪ": 9314,
      "standĠ": 9315,
      "Soc": 9316,
      ".ĠItĠwasĠ": 9317,
      "è¯ģåĪ¸": 9318,
      "policeĠ": 9319,
      "å¹¶ä¸į": 9320,
      "ä¹±": 9321,
      "ç»Łè®¡": 9322,
      "Style": 9323,
      "question:Ġ": 9324,
      "ä¹ĺ": 9325,
      "HealthĠ": 9326,
      "å§Ķåĳĺä¼ļ": 9327,
      "ps": 9328,
      ",å¤§": 9329,
      "Dom": 9330,
      "æ¯ıä¸ª": 9331,
      "CountyĠ": 9332,
      "hidden": 9333,
      "gasĠ": 9334,
      "fish": 9335,
      "limitedĠ": 9336,
      "Ġ/Ġ": 9337,
      "dâĢĻ": 9338,
      "Ġhour": 9339,
      "collabor": 9340,
      "eĠ(": 9341,
      "ä¹ĭåĲİ": 9342,
      "slow": 9343,
      "generallyĠ": 9344,
      "expressionĠ": 9345,
      "ittingĠ": 9346,
      "edĠintoĠ": 9347,
      "å±±ä¸ľ": 9348,
      "sync": 9349,
      "bio": 9350,
      "cust": 9351,
      "Json": 9352,
      "sĠtoĠtheĠ": 9353,
      "Ċ.": 9354,
      "é¾Ħ": 9355,
      "åľŁåľ°": 9356,
      "è®¤è¯Ĩ": 9357,
      "blogĠ": 9358,
      "individual": 9359,
      "programm": 9360,
      ")ĊĠĠĠĠ{ĊĠĠĠĠĠĠĠĠ": 9361,
      "Journ": 9362,
      "entr": 9363,
      "Conver": 9364,
      "Proble": 9365,
      "edĠitĠ": 9366,
      "and/": 9367,
      "environmentĠ": 9368,
      "æķĪçİĩ": 9369,
      "ï¼Įä¸Ģ": 9370,
      "consult": 9371,
      "DD": 9372,
      ".ĊL": 9373,
      "Sof": 9374,
      "hat": 9375,
      "Hor": 9376,
      "spendĠ": 9377,
      "Mal": 9378,
      "psych": 9379,
      "å½»": 9380,
      "internalĠ": 9381,
      "å¹¿æ³Ľ": 9382,
      ".F": 9383,
      "()Ġ{ĊĠĠĠĠ": 9384,
      "s.ĠWeĠ": 9385,
      "wear": 9386,
      "topic": 9387,
      "èļ": 9388,
      "æ©": 9389,
      "Polic": 9390,
      "èĴĻ": 9391,
      "å¯¹è±¡": 9392,
      "wantsĠ": 9393,
      "æļ´": 9394,
      "dialog": 9395,
      "<T": 9396,
      "scaleĠ": 9397,
      "upĠandĠ": 9398,
      "WAR": 9399,
      "adjust": 9400,
      "ation_": 9401,
      "cloud": 9402,
      "/m": 9403,
      "eĠĠtheĠĠ": 9404,
      "ãĢĤĊãĢĢãĢĢ": 9405,
      "INFO": 9406,
      "åĶĲ": 9407,
      ");Ċĉĉĉĉ": 9408,
      "bigg": 9409,
      "çĲĨå¿µ": 9410,
      "figureĠ": 9411,
      "@\"": 9412,
      "ershipĠ": 9413,
      "Expres": 9414,
      "iesĠandĠ": 9415,
      "van": 9416,
      "comfort": 9417,
      "IĠdon'tĠ": 9418,
      "PresidentĠ": 9419,
      "äºĭå®ŀ": 9420,
      "very": 9421,
      "CanĠ": 9422,
      "standingĠ": 9423,
      "receivedĠ": 9424,
      "matrix": 9425,
      "mobileĠ": 9426,
      "\",Ċ\"": 9427,
      "èıĮ": 9428,
      "ofĠtheseĠ": 9429,
      "çģ¾": 9430,
      "wro": 9431,
      "Level": 9432,
      "usefulĠ": 9433,
      "fal": 9434,
      "è¯Ħä»·": 9435,
      "Dou": 9436,
      "es,ĠĠ": 9437,
      "vision": 9438,
      "èĲ¥éĶĢ": 9439,
      "',Ċ'": 9440,
      "plantĠ": 9441,
      "çĶµèĦĳ": 9442,
      ",åħ¶": 9443,
      "åħ¬åı¸çļĦ": 9444,
      "ä¸ĭä¸Ģ": 9445,
      "entry": 9446,
      "åĭĩ": 9447,
      "Engine": 9448,
      "ki": 9449,
      "åĳĬè¯ī": 9450,
      "éľĩ": 9451,
      "masĠ": 9452,
      "earn": 9453,
      "a.Ġ": 9454,
      ")ĠisĠ": 9455,
      "Graph": 9456,
      "$n": 9457,
      "t.Ġ": 9458,
      "GB": 9459,
      "Studi": 9460,
      "oh": 9461,
      "barĠ": 9462,
      "<=Ġ": 9463,
      "ĉĉĉĉĉĉĉĉ": 9464,
      "è¿ª": 9465,
      "Flor": 9466,
      "é»ĺ": 9467,
      ")-": 9468,
      "eĠforĠ": 9469,
      "operator": 9470,
      "INSERTĠ": 9471,
      "ĊĠĠĠĠĠĠĠĠĠĠĠĠĠĠĠĠĠĠĠĠĠĠ": 9472,
      "download": 9473,
      "GroupĠ": 9474,
      "advic": 9475,
      "alsoĠbeĠ": 9476,
      "ity.": 9477,
      "astic": 9478,
      ",ä½¿": 9479,
      "excellentĠ": 9480,
      "åİŁåĪĻ": 9481,
      "ãģĻ": 9482,
      "æ¸©åº¦": 9483,
      "heartĠ": 9484,
      "çĲĨè§£": 9485,
      "%>": 9486,
      ".ĠThere": 9487,
      "(this.": 9488,
      "returnĠfalse": 9489,
      "compet": 9490,
      "chanceĠ": 9491,
      "FileĠ": 9492,
      "all,Ġ": 9493,
      "grand": 9494,
      "åįıä¼ļ": 9495,
      "å°Ĭ": 9496,
      "friendĠ": 9497,
      ".\"Ċ\"": 9498,
      "hourĠ": 9499,
      ":Ġ(": 9500,
      "Write": 9501,
      "package": 9502,
      "å§Ĳ": 9503,
      "Lef": 9504,
      "æĳ©": 9505,
      "',ĊĠĠĠĠĠĠĠĠĠĠĠĠ": 9506,
      "Tra": 9507,
      "ĠĠ|Ġ": 9508,
      "Mast": 9509,
      "emailĠ": 9510,
      "è¾ħ": 9511,
      "illustr": 9512,
      "reachĠ": 9513,
      "Educ": 9514,
      "pool": 9515,
      "UK": 9516,
      "Ð½Ñĭ": 9517,
      "åĬĽéĩı": 9518,
      "Thread": 9519,
      "knowledgeĠ": 9520,
      "éĥĳ": 9521,
      "v-": 9522,
      ";ĠĊ": 9523,
      "Georg": 9524,
      "reh": 9525,
      "fore,Ġ": 9526,
      "çıł": 9527,
      "recommendĠ": 9528,
      "å®ļçļĦ": 9529,
      "{Ġget": 9530,
      "ĠbyĠ": 9531,
      "becauseĠtheĠ": 9532,
      "Frame": 9533,
      "ia,Ġ": 9534,
      "cb": 9535,
      "ä¸¾è¡Į": 9536,
      "share": 9537,
      "æķı": 9538,
      "rob": 9539,
      "ãĢģé«ĺ": 9540,
      "alloc": 9541,
      "android/": 9542,
      "correctĠ": 9543,
      "(N": 9544,
      "organis": 9545,
      "å§ĵ": 9546,
      "ourc": 9547,
      ".is": 9548,
      "techniqu": 9549,
      "ed.ĠTheĠ": 9550,
      "Ñİ": 9551,
      "ER_": 9552,
      "perspec": 9553,
      "cult": 9554,
      "lotĠ": 9555,
      ",ĠtoĠ": 9556,
      "ednes": 9557,
      "Position": 9558,
      "note": 9559,
      "direction": 9560,
      "er.Ċ": 9561,
      "Ass": 9562,
      ".P": 9563,
      ".ĠSomeĠ": 9564,
      "éĩįå¤§": 9565,
      "æ¢ħ": 9566,
      "{{Ġ": 9567,
      "annot": 9568,
      "å¥½,": 9569,
      "identifi": 9570,
      "deep": 9571,
      "connectionĠ": 9572,
      "torĠ": 9573,
      "s.ĠItĠ": 9574,
      "ingĠitĠ": 9575,
      "èªī": 9576,
      "surround": 9577,
      ".ĠYouĠcanĠ": 9578,
      "young": 9579,
      "goesĠ": 9580,
      "$('": 9581,
      "ĠĠasĠĠ": 9582,
      "\");ĊĠĠĠĠĠĠĠĠ": 9583,
      "è·¨": 9584,
      "consequ": 9585,
      "firmĠ": 9586,
      "ellig": 9587,
      "èµµ": 9588,
      "agon": 9589,
      "elementĠ": 9590,
      ">Ċ#includeĠ<": 9591,
      "çī©æµģ": 9592,
      "èĥ¡": 9593,
      "CN": 9594,
      "æģ©": 9595,
      "();Ġ": 9596,
      "netĠ": 9597,
      "++++": 9598,
      "èµĦæľ¬": 9599,
      "åĩºåı£": 9600,
      "å·§": 9601,
      "å¸Ŀ": 9602,
      "oppos": 9603,
      "mist": 9604,
      "kerĠ": 9605,
      "æ¯ıå¤©": 9606,
      "printf(\"": 9607,
      "castĠ": 9608,
      "xml": 9609,
      "èµĦæł¼": 9610,
      "stageĠ": 9611,
      "ĊãĢĢãĢĢ": 9612,
      "WhoĠ": 9613,
      "butĠtheĠ": 9614,
      "trail": 9615,
      "traff": 9616,
      "thos": 9617,
      "walkĠ": 9618,
      ";Ġi++": 9619,
      "momentĠ": 9620,
      "contribu": 9621,
      "remove": 9622,
      ",-": 9623,
      "Air": 9624,
      "Califor": 9625,
      "DP": 9626,
      "forĠallĠ": 9627,
      "autoĠ": 9628,
      "phon": 9629,
      "ç¼ĺ": 9630,
      "\")ĊĠĠĠĠ": 9631,
      "EV": 9632,
      "prepar": 9633,
      "id_": 9634,
      "ç»ĵæĿŁ": 9635,
      "No.Ġ": 9636,
      "monitor": 9637,
      "travel": 9638,
      "technolog": 9639,
      "knowledg": 9640,
      "angleĠ": 9641,
      "inĠB": 9642,
      "iss": 9643,
      "Rich": 9644,
      "fam": 9645,
      "(andĠ": 9646,
      "Commit": 9647,
      "INTOĠ": 9648,
      "simple": 9649,
      "weĠĠ": 9650,
      "yet": 9651,
      "æ¢ģ": 9652,
      "epis": 9653,
      "meĠtoĠ": 9654,
      "Cas": 9655,
      "tract": 9656,
      "EP": 9657,
      "Ġin": 9658,
      "German": 9659,
      "ityĠofĠtheĠ": 9660,
      "statementĠ": 9661,
      "åĦ¿ç«¥": 9662,
      "weeksĠ": 9663,
      "desc": 9664,
      "[[": 9665,
      "èħĲ": 9666,
      "è¿ĩç¨ĭä¸Ń": 9667,
      "'),Ċ(": 9668,
      "expectedĠ": 9669,
[...]
